{
  "version": "1.0",
  "truncation": null,
  "padding": null,
  "added_tokens": [
    {
      "id": 0,
      "content": "<s>",
      "single_word": false,
      "lstrip": false,
      "rstrip": false,
      "normalized": false,
      "special": true
    },
    {
      "id": 1,
      "content": "<pad>",
      "single_word": false,
      "lstrip": false,
      "rstrip": false,
      "normalized": false,
      "special": true
    },
    {
      "id": 2,
      "content": "</s>",
      "single_word": false,
      "lstrip": false,
      "rstrip": false,
      "normalized": false,
      "special": true
    },
    {
      "id": 3,
      "content": "<unk>",
      "single_word": false,
      "lstrip": false,
      "rstrip": false,
      "normalized": false,
      "special": true
    },
    {
      "id": 4,
      "content": "<mask>",
      "single_word": false,
      "lstrip": false,
      "rstrip": false,
      "normalized": false,
      "special": true
    }
  ],
  "normalizer": null,
  "pre_tokenizer": {
    "type": "ByteLevel",
    "add_prefix_space": true,
    "trim_offsets": true,
    "use_regex": true
  },
  "post_processor": null,
  "decoder": null,
  "model": {
    "type": "BPE",
    "dropout": null,
    "unk_token": null,
    "continuing_subword_prefix": null,
    "end_of_word_suffix": null,
    "fuse_unk": false,
    "byte_fallback": false,
    "ignore_merges": false,
    "vocab": {
      "<s>": 0,
      "<pad>": 1,
      "</s>": 2,
      "<unk>": 3,
      "<mask>": 4,
      "!": 5,
      "\"": 6,
      "#": 7,
      "$": 8,
      "%": 9,
      "&": 10,
      "'": 11,
      "(": 12,
      ")": 13,
      "*": 14,
      "+": 15,
      ",": 16,
      "-": 17,
      ".": 18,
      "/": 19,
      "0": 20,
      "1": 21,
      "2": 22,
      "3": 23,
      "4": 24,
      "5": 25,
      "6": 26,
      "7": 27,
      "8": 28,
      "9": 29,
      ":": 30,
      ";": 31,
      "<": 32,
      "=": 33,
      ">": 34,
      "?": 35,
      "@": 36,
      "A": 37,
      "B": 38,
      "C": 39,
      "D": 40,
      "E": 41,
      "F": 42,
      "G": 43,
      "H": 44,
      "I": 45,
      "J": 46,
      "K": 47,
      "L": 48,
      "M": 49,
      "N": 50,
      "O": 51,
      "P": 52,
      "Q": 53,
      "R": 54,
      "S": 55,
      "T": 56,
      "U": 57,
      "V": 58,
      "W": 59,
      "X": 60,
      "Y": 61,
      "Z": 62,
      "[": 63,
      "\\": 64,
      "]": 65,
      "^": 66,
      "_": 67,
      "`": 68,
      "a": 69,
      "b": 70,
      "c": 71,
      "d": 72,
      "e": 73,
      "f": 74,
      "g": 75,
      "h": 76,
      "i": 77,
      "j": 78,
      "k": 79,
      "l": 80,
      "m": 81,
      "n": 82,
      "o": 83,
      "p": 84,
      "q": 85,
      "r": 86,
      "s": 87,
      "t": 88,
      "u": 89,
      "v": 90,
      "w": 91,
      "x": 92,
      "y": 93,
      "z": 94,
      "{": 95,
      "|": 96,
      "}": 97,
      "~": 98,
      "¡": 99,
      "¢": 100,
      "£": 101,
      "¤": 102,
      "¥": 103,
      "¦": 104,
      "§": 105,
      "¨": 106,
      "©": 107,
      "ª": 108,
      "«": 109,
      "¬": 110,
      "®": 111,
      "¯": 112,
      "°": 113,
      "±": 114,
      "²": 115,
      "³": 116,
      "´": 117,
      "µ": 118,
      "¶": 119,
      "·": 120,
      "¸": 121,
      "¹": 122,
      "º": 123,
      "»": 124,
      "¼": 125,
      "½": 126,
      "¾": 127,
      "¿": 128,
      "À": 129,
      "Á": 130,
      "Â": 131,
      "Ã": 132,
      "Ä": 133,
      "Å": 134,
      "Æ": 135,
      "Ç": 136,
      "È": 137,
      "É": 138,
      "Ê": 139,
      "Ë": 140,
      "Ì": 141,
      "Í": 142,
      "Î": 143,
      "Ï": 144,
      "Ð": 145,
      "Ñ": 146,
      "Ò": 147,
      "Ó": 148,
      "Ô": 149,
      "Õ": 150,
      "Ö": 151,
      "×": 152,
      "Ø": 153,
      "Ù": 154,
      "Ú": 155,
      "Û": 156,
      "Ü": 157,
      "Ý": 158,
      "Þ": 159,
      "ß": 160,
      "à": 161,
      "á": 162,
      "â": 163,
      "ã": 164,
      "ä": 165,
      "å": 166,
      "æ": 167,
      "ç": 168,
      "è": 169,
      "é": 170,
      "ê": 171,
      "ë": 172,
      "ì": 173,
      "í": 174,
      "î": 175,
      "ï": 176,
      "ð": 177,
      "ñ": 178,
      "ò": 179,
      "ó": 180,
      "ô": 181,
      "õ": 182,
      "ö": 183,
      "÷": 184,
      "ø": 185,
      "ù": 186,
      "ú": 187,
      "û": 188,
      "ü": 189,
      "ý": 190,
      "þ": 191,
      "ÿ": 192,
      "Ā": 193,
      "ā": 194,
      "Ă": 195,
      "ă": 196,
      "Ą": 197,
      "ą": 198,
      "Ć": 199,
      "ć": 200,
      "Ĉ": 201,
      "ĉ": 202,
      "Ċ": 203,
      "ċ": 204,
      "Č": 205,
      "č": 206,
      "Ď": 207,
      "ď": 208,
      "Đ": 209,
      "đ": 210,
      "Ē": 211,
      "ē": 212,
      "Ĕ": 213,
      "ĕ": 214,
      "Ė": 215,
      "ė": 216,
      "Ę": 217,
      "ę": 218,
      "Ě": 219,
      "ě": 220,
      "Ĝ": 221,
      "ĝ": 222,
      "Ğ": 223,
      "ğ": 224,
      "Ġ": 225,
      "ġ": 226,
      "Ģ": 227,
      "ģ": 228,
      "Ĥ": 229,
      "ĥ": 230,
      "Ħ": 231,
      "ħ": 232,
      "Ĩ": 233,
      "ĩ": 234,
      "Ī": 235,
      "ī": 236,
      "Ĭ": 237,
      "ĭ": 238,
      "Į": 239,
      "į": 240,
      "İ": 241,
      "ı": 242,
      "Ĳ": 243,
      "ĳ": 244,
      "Ĵ": 245,
      "ĵ": 246,
      "Ķ": 247,
      "ķ": 248,
      "ĸ": 249,
      "Ĺ": 250,
      "ĺ": 251,
      "Ļ": 252,
      "ļ": 253,
      "Ľ": 254,
      "ľ": 255,
      "Ŀ": 256,
      "ŀ": 257,
      "Ł": 258,
      "ł": 259,
      "Ń": 260,
      "Ġt": 261,
      "he": 262,
      "Ġa": 263,
      "in": 264,
      "on": 265,
      "Ġthe": 266,
      "re": 267,
      "er": 268,
      "ti": 269,
      "Ġs": 270,
      "Ġo": 271,
      "en": 272,
      "Ġc": 273,
      "al": 274,
      "at": 275,
      "an": 276,
      "Ġf": 277,
      "or": 278,
      "Ġp": 279,
      "ed": 280,
      "Ġin": 281,
      "Ġof": 282,
      "is": 283,
      "Ġan": 284,
      "it": 285,
      "es": 286,
      "Ġd": 287,
      "tion": 288,
      "Ġw": 289,
      "Ġb": 290,
      "Ġm": 291,
      "ing": 292,
      "ic": 293,
      "Ġand": 294,
      "ar": 295,
      "Ġ(": 296,
      "ro": 297,
      "le": 298,
      "Ġe": 299,
      "ct": 300,
      "ĠT": 301,
      "as": 302,
      "Ġto": 303,
      "Ġre": 304,
      "ation": 305,
      "el": 306,
      "ent": 307,
      "et": 308,
      "Ġ1": 309,
      "Ġl": 310,
      "Ġn": 311,
      "Ġis": 312,
      "Ġth": 313,
      "ig": 314,
      "ĠS": 315,
      "mp": 316,
      "ce": 317,
      "ul": 318,
      "Ġâ": 319,
      "st": 320,
      "ur": 321,
      "ĠA": 322,
      "un": 323,
      "ure": 324,
      "Ġfor": 325,
      "ol": 326,
      "ĠF": 327,
      "ow": 328,
      "Ġ2": 329,
      "Ġst": 330,
      "us": 331,
      "im": 332,
      "Ġh": 333,
      "ve": 334,
      "ly": 335,
      "ith": 336,
      "ra": 337,
      "ĠThe": 338,
      "ĠM": 339,
      "Ġcon": 340,
      "ĠC": 341,
      "tic": 342,
      "Ġwith": 343,
      "Ġg": 344,
      "si": 345,
      "ot": 346,
      "il": 347,
      "Ġco": 348,
      "Ġ0": 349,
      "ĠP": 350,
      "Ġ=": 351,
      "ĠI": 352,
      "ch": 353,
      "ĠÎ": 354,
      "Ġv": 355,
      "Ġbe": 356,
      "per": 357,
      "ag": 358,
      "qu": 359,
      "Ġex": 360,
      "id": 361,
      "Ġï": 362,
      "ity": 363,
      "ĠâĪ": 364,
      "Ġas": 365,
      "Ġsu": 366,
      "om": 367,
      "Ġat": 368,
      "ĠR": 369,
      "Ġon": 370,
      "od": 371,
      "ĠB": 372,
      "Ġde": 373,
      "ter": 374,
      "ction": 375,
      "ff": 376,
      "ĠH": 377,
      "ri": 378,
      "¿½": 379,
      "am": 380,
      "res": 381,
      "du": 382,
      "ut": 383,
      "Ġthat": 384,
      "um": 385,
      "ĠL": 386,
      "Ġby": 387,
      "Ġare": 388,
      "Ġwe": 389,
      "ĠE": 390,
      "pe": 391,
      "se": 392,
      "ate": 393,
      "ĠN": 394,
      "Ġal": 395,
      "Ġpro": 396,
      ").": 397,
      "ĠD": 398,
      "âĢ": 399,
      "Ġdi": 400,
      "ver": 401,
      "Ġres": 402,
      "ir": 403,
      "ĠW": 404,
      "ran": 405,
      "Ġ3": 406,
      "pp": 407,
      "rom": 408,
      "ren": 409,
      "Ġsh": 410,
      "ab": 411,
      "lect": 412,
      "ated": 413,
      "ĠG": 414,
      "ĠK": 415,
      "âĪ": 416,
      "Ġï¿½": 417,
      "ĠJ": 418,
      "ys": 419,
      "ĠIn": 420,
      "ne": 421,
      "Ġwh": 422,
      "iz": 423,
      "und": 424,
      "00": 425,
      "ge": 426,
      "Ġi": 427,
      "ment": 428,
      "ical": 429,
      "ffe": 430,
      "Ġen": 431,
      "Ġor": 432,
      "igh": 433,
      "Ġfrom": 434,
      "Ġph": 435,
      "ain": 436,
      "ĠâĪĴ": 437,
      "con": 438,
      "ay": 439,
      "ac": 440,
      "Ġch": 441,
      "Ġ4": 442,
      "Ġ.": 443,
      "ĠÏ": 444,
      "and": 445,
      "os": 446,
      "her": 447,
      "ations": 448,
      "ich": 449,
      "Ġdis": 450,
      "ron": 451,
      "ase": 452,
      "ature": 453,
      "ant": 454,
      "Ġcomp": 455,
      "di": 456,
      "Ġmod": 457,
      "Ġsp": 458,
      "Ġus": 459,
      "Ġcan": 460,
      "cti": 461,
      "ĠFig": 462,
      "de": 463,
      "Ġme": 464,
      "ru": 465,
      "ave": 466,
      "ts": 467,
      "ine": 468,
      "Ġse": 469,
      "th": 470,
      "ak": 471,
      "Ġte": 472,
      "Ġwhich": 473,
      "up": 474,
      "yst": 475,
      "erg": 476,
      "red": 477,
      "Ġpar": 478,
      "oc": 479,
      "Ġelect": 480,
      "),": 481,
      "op": 482,
      "Ġshow": 483,
      "ers": 484,
      "eri": 485,
      "Ġ+": 486,
      "ess": 487,
      "vel": 488,
      "rent": 489,
      "orm": 490,
      "eld": 491,
      "Ġk": 492,
      "ap": 493,
      "all": 494,
      "Ġ5": 495,
      "Ġwhe": 496,
      "Ġtran": 497,
      "ĠV": 498,
      "ore": 499,
      "Ġthis": 500,
      "ield": 501,
      "sion": 502,
      "lu": 503,
      "ence": 504,
      "Ġmag": 505,
      "ace": 506,
      "ad": 507,
      "ĠPh": 508,
      "Ġsuper": 509,
      "ion": 510,
      "Ġint": 511,
      "ci": 512,
      "Ġne": 513,
      "erm": 514,
      "og": 515,
      "ĠO": 516,
      "Ġob": 517,
      "ates": 518,
      "âĪĴ": 519,
      "Ġinter": 520,
      "ruct": 521,
      "tical": 522,
      "erature": 523,
      "der": 524,
      "20": 525,
      "ance": 526,
      "duct": 527,
      "Ġit": 528,
      "ens": 529,
      "ort": 530,
      "act": 531,
      "ĠPhys": 532,
      "Ġcont": 533,
      "mperature": 534,
      "ĠRe": 535,
      "Ġqu": 536,
      "Ġapp": 537,
      "als": 538,
      "em": 539,
      "ĠTh": 540,
      "end": 541,
      "ergy": 542,
      "ĠÌ": 543,
      "ati": 544,
      "Ġinc": 545,
      "Ġr": 546,
      "ĠY": 547,
      "ell": 548,
      "Ġ10": 549,
      "ĠU": 550,
      "unction": 551,
      "netic": 552,
      "Ġtw": 553,
      "Ġfield": 554,
      "pect": 555,
      "ous": 556,
      "ue": 557,
      "ric": 558,
      "Ġtemperature": 559,
      "Ġwas": 560,
      "li": 561,
      "amp": 562,
      "form": 563,
      "ang": 564,
      "Ġmat": 565,
      "ign": 566,
      "vi": 567,
      "Ġpl": 568,
      "ructure": 569,
      "Ġsupercon": 570,
      "Ġ,": 571,
      "Ġ6": 572,
      "ist": 573,
      "ution": 574,
      "Ġval": 575,
      "ï¿½": 576,
      "etw": 577,
      "Ġab": 578,
      "ĠZ": 579,
      "Ġmet": 580,
      "ĠWe": 581,
      "Ġsc": 582,
      "mm": 583,
      "Ġwhere": 584,
      "cul": 585,
      "able": 586,
      "rib": 587,
      "ond": 588,
      "ors": 589,
      "ally": 590,
      "Ġtwo": 591,
      "Ġnot": 592,
      "sition": 593,
      "ĠâĢ": 594,
      "Ġun": 595,
      "Ġle": 596,
      "Ġpres": 597,
      "vity": 598,
      "ther": 599,
      "cc": 600,
      "Ġenergy": 601,
      "pl": 602,
      "Ġpo": 603,
      "Ġhe": 604,
      "Ġelectron": 605,
      "een": 606,
      "Ġresul": 607,
      "ven": 608,
      "Ġdiffe": 609,
      "Ġper": 610,
      "Ġeffe": 611,
      "Ġcur": 612,
      "Ġcor": 613,
      "face": 614,
      "ill": 615,
      "ight": 616,
      "ved": 617,
      "ong": 618,
      "etween": 619,
      "Ġmeas": 620,
      "ystem": 621,
      "ĠThis": 622,
      "Ġbetween": 623,
      "Ġhave": 624,
      "Ġspin": 625,
      "Ġtrans": 626,
      "ite": 627,
      "Ġphase": 628,
      "so": 629,
      "enc": 630,
      "pend": 631,
      "10": 632,
      "ound": 633,
      "Ġmeasure": 634,
      "low": 635,
      "Ġstructure": 636,
      "if": 637,
      "Ġmodel": 638,
      "Ġsystem": 639,
      "ary": 640,
      "ach": 641,
      "ties": 642,
      "les": 643,
      "Ġimp": 644,
      "Ġ8": 645,
      "ib": 646,
      "ree": 647,
      "Ġlow": 648,
      "ry": 649,
      "ari": 650,
      "Ġsur": 651,
      "Ġfunction": 652,
      "age": 653,
      "ph": 654,
      "Ġhigh": 655,
      "ug": 656,
      "Ġcal": 657,
      "ide": 658,
      "ced": 659,
      "Ġmagnetic": 660,
      "Ġchar": 661,
      "Ġband": 662,
      "Ġdet": 663,
      "iment": 664,
      "Ġ-": 665,
      "..": 666,
      "Ġad": 667,
      "ves": 668,
      "Ġop": 669,
      "ser": 670,
      "Ġmo": 671,
      "tain": 672,
      "ting": 673,
      "âĢĵ": 674,
      "ating": 675,
      "âĢ²": 676,
      "ax": 677,
      "amet": 678,
      "ros": 679,
      "Ġ7": 680,
      "ect": 681,
      "ics": 682,
      "Ġsuperconduct": 683,
      "enti": 684,
      "ime": 685,
      "periment": 686,
      "Ġalso": 687,
      "Ġhas": 688,
      "Ġusing": 689,
      "Ġsim": 690,
      "ted": 691,
      "Ġform": 692,
      "Ġshown": 693,
      "ĠÃ": 694,
      "Ġz": 695,
      "ensity": 696,
      "Ġsamp": 697,
      "vely": 698,
      "ayer": 699,
      "Ġdes": 700,
      "ĠX": 701,
      "Ġmateri": 702,
      "Ġwere": 703,
      "Ġ[": 704,
      "ized": 705,
      "Ġ20": 706,
      "Ġrep": 707,
      "Ġsub": 708,
      "ency": 709,
      "lo": 710,
      "olog": 711,
      "str": 712,
      "Ġcalcul": 713,
      "Ġstate": 714,
      "our": 715,
      "ard": 716,
      "ugh": 717,
      "Ġrel": 718,
      "Ġexperiment": 719,
      "ased": 720,
      "Ġincre": 721,
      "ub": 722,
      "Ġsol": 723,
      "Ġnon": 724,
      "Ġspect": 725,
      "Ġar": 726,
      "Ġx": 727,
      "ĠQ": 728,
      "Ġreg": 729,
      "Ġequ": 730,
      "Ġ9": 731,
      "Ġlar": 732,
      "Ġeffect": 733,
      "Ġdifferent": 734,
      "ĠRev": 735,
      "Ġra": 736,
      "atter": 737,
      "ork": 738,
      "Ġsy": 739,
      "ization": 740,
      "ener": 741,
      "dition": 742,
      "Ġobser": 743,
      "Ġsign": 744,
      "Ġparamet": 745,
      "Ġund": 746,
      "requ": 747,
      "ility": 748,
      "Ġro": 749,
      "Ġj": 750,
      "ryst": 751,
      "Ġsurface": 752,
      "ĠÎ¼": 753,
      "oth": 754,
      "ments": 755,
      "Ġone": 756,
      "ud": 757,
      "Ġgra": 758,
      "Ġorder": 759,
      "Ġpa": 760,
      "11": 761,
      "ctive": 762,
      "te": 763,
      "gth": 764,
      "Ġpre": 765,
      "Ġthan": 766,
      "ases": 767,
      "ĠFor": 768,
      "ile": 769,
      "Ġgro": 770,
      "tim": 771,
      "Ġâī": 772,
      "ĠâĪĨ": 773,
      "ov": 774,
      ".,": 775,
      "Ġline": 776,
      "mmet": 777,
      "Ġdist": 778,
      "Ġnum": 779,
      "par": 780,
      "Ġstates": 781,
      "rm": 782,
      "ling": 783,
      "Ġused": 784,
      "ative": 785,
      "uld": 786,
      "ËĨ": 787,
      "ffic": 788,
      "Ġappro": 789,
      "Ġbeen": 790,
      "ane": 791,
      "Ġobtain": 792,
      "ni": 793,
      "hem": 794,
      "Ġpol": 795,
      "Ġresults": 796,
      "ata": 797,
      "ble": 798,
      "Ġdire": 799,
      "Ġsm": 800,
      "Ġunder": 801,
      "ew": 802,
      "ctivity": 803,
      "19": 804,
      "Ġthese": 805,
      "ined": 806,
      "Ġfrequ": 807,
      "Ġfil": 808,
      "Ïī": 809,
      "ely": 810,
      "ding": 811,
      "Ġtime": 812,
      "Ġcoup": 813,
      "Ġatom": 814,
      "ents": 815,
      "Ġfin": 816,
      "Ġour": 817,
      "ack": 818,
      "Ġdepend": 819,
      "ĠÂ": 820,
      "cess": 821,
      "bit": 822,
      "int": 823,
      "chan": 824,
      "Ġtransition": 825,
      "ber": 826,
      "resp": 827,
      "hen": 828,
      "ingle": 829,
      "Ġno": 830,
      "Ġnan": 831,
      "Ġcurrent": 832,
      "Ġnm": 833,
      "Ġy": 834,
      "Ġtop": 835,
      "âĢĻ": 836,
      "Ġsuch": 837,
      "ass": 838,
      "Ġacc": 839,
      "ues": 840,
      "Ġgi": 841,
      "ces": 842,
      "ose": 843,
      "ator": 844,
      "ĠEq": 845,
      "Ġother": 846,
      "action": 847,
      "Ġanal": 848,
      "ress": 849,
      "Ġboth": 850,
      "Ġdef": 851,
      "respond": 852,
      "Ġdensity": 853,
      "Ġgener": 854,
      "Ġref": 855,
      "out": 856,
      "hod": 857,
      "est": 858,
      "Ġcryst": 859,
      "Ġran": 860,
      "12": 861,
      "Ġsmall": 862,
      "ffici": 863,
      "ĠCo": 864,
      "Ġdata": 865,
      "Ġproper": 866,
      "Ġall": 867,
      "irst": 868,
      "Ġexp": 869,
      "Ġloc": 870,
      "Ġover": 871,
      "ha": 872,
      "Ġdue": 873,
      "ular": 874,
      "Ġonly": 875,
      "duced": 876,
      "vic": 877,
      "Ġet": 878,
      "Ġdec": 879,
      "cent": 880,
      "ĠAs": 881,
      "ĠAl": 882,
      "ctively": 883,
      "ever": 884,
      "ductivity": 885,
      "Ġlat": 886,
      "Ġsingle": 887,
      "ribution": 888,
      "Ġvari": 889,
      "mon": 890,
      "mb": 891,
      "Ġmic": 892,
      "ame": 893,
      "Ġim": 894,
      "ms": 895,
      "hed": 896,
      "rop": 897,
      "Ġout": 898,
      "Ġcorrespond": 899,
      "yn": 900,
      "Ġev": 901,
      "tice": 902,
      "50": 903,
      "Ġcase": 904,
      "ast": 905,
      "Ġinto": 906,
      "Ġconst": 907,
      "Ġï£": 908,
      "ize": 909,
      "ail": 910,
      "ï¿½ï¿½": 911,
      "lic": 912,
      "Ġits": 913,
      "ength": 914,
      "Ġrespe": 915,
      "Ġflu": 916,
      "Ġgap": 917,
      "aus": 918,
      "ick": 919,
      "ie": 920,
      "Ġtherm": 921,
      "Ġ|": 922,
      "antum": 923,
      "Ġwave": 924,
      "âĢĿ": 925,
      "ential": 926,
      "Ġexc": 927,
      "rence": 928,
      "Ġvol": 929,
      "Ġdevic": 930,
      "Ġup": 931,
      "ĠÎ±": 932,
      "Ġsymmet": 933,
      "ex": 934,
      "Ġsimul": 935,
      "Ïĥ": 936,
      "Ġext": 937,
      "201": 938,
      "Ġass": 939,
      "ĠËĨ": 940,
      "Ġperform": 941,
      "Ġvalues": 942,
      "ĠÏī": 943,
      "Ġobserved": 944,
      "Ġfrequency": 945,
      "Ġpair": 946,
      "Ġïģ": 947,
      "fer": 948,
      "owever": 949,
      "Ġmore": 950,
      "Ġpe": 951,
      "ĠLi": 952,
      "lement": 953,
      "Ġeach": 954,
      "vers": 955,
      "ies": 956,
      "Ġmethod": 957,
      "Ġdisc": 958,
      "Ġsame": 959,
      "Ġdo": 960,
      "Ġwork": 961,
      "Ġterm": 962,
      "Ġsuperconducting": 963,
      "Ġfirst": 964,
      "Ġind": 965,
      "ep": 966,
      "Ġconsi": 967,
      "Ġac": 968,
      "Ġphot": 969,
      "ere": 970,
      "ole": 971,
      "Ġsample": 972,
      "ĠâĢľ": 973,
      "Ġwhen": 974,
      "led": 975,
      "Ġpartic": 976,
      "ann": 977,
      "Ġrespectively": 978,
      "Ġvalue": 979,
      "âŁ": 980,
      "ons": 981,
      "Ġpot": 982,
      "Ġproperties": 983,
      "ix": 984,
      "Ġconf": 985,
      "ĠAn": 986,
      "ension": 987,
      "Ġthere": 988,
      "ĠFigure": 989,
      "Ġmaterials": 990,
      "Ġset": 991,
      "Ġspe": 992,
      "rain": 993,
      "fore": 994,
      "elect": 995,
      "Ġwell": 996,
      "ove": 997,
      "Ġindic": 998,
      "Ġinteraction": 999,
      "ome": 1000,
      "itu": 1001,
      "Ġbut": 1002,
      "ness": 1003,
      "Ġprocess": 1004,
      "Ġobtained": 1005,
      "Ġver": 1006,
      "ÏĢ": 1007,
      "acter": 1008,
      "rong": 1009,
      "ollow": 1010,
      "Ġlayer": 1011,
      "Ġ12": 1012,
      "Ġpeak": 1013,
      "Ġcar": 1014,
      "ise": 1015,
      "ĠSu": 1016,
      "Ġbec": 1017,
      "ero": 1018,
      "Ġprop": 1019,
      "Ġcoupling": 1020,
      "Fig": 1021,
      "ological": 1022,
      "Ġtheir": 1023,
      "Ġhy": 1024,
      "ĠTo": 1025,
      "are": 1026,
      "Î±": 1027,
      "ould": 1028,
      "ke": 1029,
      "imit": 1030,
      "Ġpresent": 1031,
      "Ġsupp": 1032,
      "rough": 1033,
      "ĠIt": 1034,
      "ynam": 1035,
      "Ġshows": 1036,
      "Ġmagn": 1037,
      "Ġcorre": 1038,
      "Ġlarge": 1039,
      "Ġcharacter": 1040,
      "ost": 1041,
      "Ġreson": 1042,
      "Ġalong": 1043,
      "Ġhig": 1044,
      "Ġstrong": 1045,
      "ia": 1046,
      "urther": 1047,
      "Ġcl": 1048,
      "cond": 1049,
      "ory": 1050,
      "ormal": 1051,
      "Ġpow": 1052,
      "ilar": 1053,
      "ĠCh": 1054,
      "Ġexcit": 1055,
      "Ġ100": 1056,
      "Ġ)": 1057,
      "Ġdesc": 1058,
      "atic": 1059,
      "tive": 1060,
      "Ġfollow": 1061,
      "âŁ©": 1062,
      "Ġlimit": 1063,
      "Ġwhile": 1064,
      "Ġregion": 1065,
      "Ġnumber": 1066,
      "sc": 1067,
      "ral": 1068,
      "Ġlattice": 1069,
      "....": 1070,
      "15": 1071,
      "Ġlead": 1072,
      "ip": 1073,
      "ĠLet": 1074,
      "Ġoptical": 1075,
      "ration": 1076,
      "sure": 1077,
      "imension": 1078,
      "ermi": 1079,
      "Ġdirection": 1080,
      "Ġpolar": 1081,
      "tit": 1082,
      "rin": 1083,
      "omet": 1084,
      "Ġquantum": 1085,
      "Ġty": 1086,
      "Ġwill": 1087,
      "ĠFe": 1088,
      "Ġfact": 1089,
      "ĠÎµ": 1090,
      "ically": 1091,
      "rosc": 1092,
      "ability": 1093,
      "Ġparameters": 1094,
      "ian": 1095,
      "Se": 1096,
      "ulti": 1097,
      "ĠMat": 1098,
      "Ġrange": 1099,
      "lied": 1100,
      "ĠSci": 1101,
      "ines": 1102,
      "Ġthrough": 1103,
      "Ġdiff": 1104,
      "Ġabs": 1105,
      "Ġins": 1106,
      "Ġdep": 1107,
      "Ġcol": 1108,
      "Ġcharge": 1109,
      "fic": 1110,
      "Ġpos": 1111,
      "ges": 1112,
      "xim": 1113,
      "mis": 1114,
      "Î¼": 1115,
      "ensi": 1116,
      "âĪĨ": 1117,
      "ied": 1118,
      "agnetic": 1119,
      "ĠSe": 1120,
      "Ġgiven": 1121,
      "Ġsin": 1122,
      "ross": 1123,
      "Ġpoint": 1124,
      "Ġbound": 1125,
      "Ġpotential": 1126,
      "ving": 1127,
      "ĠHowever": 1128,
      "Ġfe": 1129,
      "ĠSt": 1130,
      "ram": 1131,
      "Ġsymmetry": 1132,
      "Ġmin": 1133,
      "Ġtion": 1134,
      "ĠÌĥ": 1135,
      "ck": 1136,
      "vid": 1137,
      "Ġexperimental": 1138,
      "Ġrepres": 1139,
      ".-": 1140,
      "Ġmeasurements": 1141,
      "Ġq": 1142,
      "round": 1143,
      "ĠÏĥ": 1144,
      "Ġdeterm": 1145,
      "udy": 1146,
      "Ġag": 1147,
      "hes": 1148,
      "Ġli": 1149,
      "own": 1150,
      "Ġmaterial": 1151,
      "Ġso": 1152,
      "Ġlocal": 1153,
      "Ġcell": 1154,
      "Ġhigher": 1155,
      "ific": 1156,
      "13": 1157,
      "phe": 1158,
      "ĠÎ»": 1159,
      "orted": 1160,
      "ĠTc": 1161,
      "Ġthick": 1162,
      "Ġmeasured": 1163,
      "Ġcons": 1164,
      "Ġabove": 1165,
      "Hz": 1166,
      "ĠFermi": 1167,
      "Ġbeha": 1168,
      "14": 1169,
      "Ġstudy": 1170,
      "âĨ": 1171,
      "Ġconstant": 1172,
      "ĠÃĹ": 1173,
      "Ġrem": 1174,
      "Ġpressure": 1175,
      "Ġthree": 1176,
      "Ġcondition": 1177,
      "eg": 1178,
      "ared": 1179,
      "ark": 1180,
      "fter": 1181,
      "Ġmulti": 1182,
      "wave": 1183,
      "Ġdom": 1184,
      "itude": 1185,
      "ust": 1186,
      "Ġwa": 1187,
      "Ġmechan": 1188,
      "strate": 1189,
      "Ġtun": 1190,
      "Ġ15": 1191,
      "formation": 1192,
      "ĠÏĨ": 1193,
      "ĠÌĦ": 1194,
      "Ġzero": 1195,
      "Ġbel": 1196,
      "ten": 1197,
      "Ġbased": 1198,
      "Ġang": 1199,
      "ty": 1200,
      "ritical": 1201,
      "ire": 1202,
      "its": 1203,
      "Ġreal": 1204,
      "ute": 1205,
      "Ġexpl": 1206,
      "roscop": 1207,
      "Ġbehavi": 1208,
      "old": 1209,
      "Ġlevel": 1210,
      "see": 1211,
      "Ġmom": 1212,
      "Ġtra": 1213,
      "Ġfound": 1214,
      "Ġsystems": 1215,
      "Ġmode": 1216,
      "Ġnear": 1217,
      "Ġelectro": 1218,
      "Ġthermal": 1219,
      "ption": 1220,
      "Ġman": 1221,
      "Ġmay": 1222,
      "sible": 1223,
      "rid": 1224,
      "ale": 1225,
      "16": 1226,
      "Ġsimilar": 1227,
      "ĠïĢ": 1228,
      "Ġsamples": 1229,
      "Ġdescrib": 1230,
      "nal": 1231,
      "ĠeV": 1232,
      "Ġresp": 1233,
      "tial": 1234,
      "oun": 1235,
      "ÏĨ": 1236,
      "fficient": 1237,
      "Ġtopological": 1238,
      "Ġgrow": 1239,
      "Ġpower": 1240,
      "iv": 1241,
      "attering": 1242,
      "Ġuse": 1243,
      "osed": 1244,
      "22": 1245,
      "asing": 1246,
      "phene": 1247,
      "Ġlarg": 1248,
      "Ġelectronic": 1249,
      "ational": 1250,
      "ord": 1251,
      "ĠSi": 1252,
      "Ġlength": 1253,
      "one": 1254,
      "ĠÎ´": 1255,
      "Îµ": 1256,
      "Ġcritical": 1257,
      "Ġparameter": 1258,
      "udi": 1259,
      "electric": 1260,
      "200": 1261,
      "21": 1262,
      "Ġamp": 1263,
      "Ġnormal": 1264,
      "olution": 1265,
      "Ġdiscus": 1266,
      "ĠÎĵ": 1267,
      "uring": 1268,
      "Ġwithin": 1269,
      "ysis": 1270,
      "rol": 1271,
      "ulk": 1272,
      "ĠÎ³": 1273,
      "Ġpred": 1274,
      "raction": 1275,
      "ural": 1276,
      "istic": 1277,
      "Ġcorresponding": 1278,
      "Ġdop": 1279,
      "ual": 1280,
      "Ġmicro": 1281,
      "onon": 1282,
      "duction": 1283,
      "asi": 1284,
      "ple": 1285,
      "co": 1286,
      "Ġox": 1287,
      "Ġcomple": 1288,
      "18": 1289,
      "Ġmodes": 1290,
      "Ġsi": 1291,
      "Ġaddition": 1292,
      "Ġcap": 1293,
      "Ġmax": 1294,
      "Ġmon": 1295,
      "Ġoper": 1296,
      "Ġdemon": 1297,
      "Ġdynam": 1298,
      "Ġes": 1299,
      "Ġlinear": 1300,
      "son": 1301,
      "Ġdecre": 1302,
      "ract": 1303,
      "âĪĹ": 1304,
      "ĠâĪĤ": 1305,
      "Ġthen": 1306,
      "25": 1307,
      "Ġsize": 1308,
      "ĠÎ¸": 1309,
      "Ġocc": 1310,
      "Ġscattering": 1311,
      "Ġstudi": 1312,
      "gen": 1313,
      "imum": 1314,
      "Ġconsider": 1315,
      "âĢł": 1316,
      "Ġtak": 1317,
      "ange": 1318,
      "ayers": 1319,
      "uch": 1320,
      "Ġcent": 1321,
      "Ġapplic": 1322,
      "neti": 1323,
      "Ġstructures": 1324,
      "Ġcalculated": 1325,
      "Ġapplied": 1326,
      "ĠâĢĵ": 1327,
      "Ġinclu": 1328,
      "vious": 1329,
      "40": 1330,
      "Ġapproxim": 1331,
      "Ġlower": 1332,
      "Ġu": 1333,
      "ĠPhysics": 1334,
      "ĠLett": 1335,
      "mission": 1336,
      "ĠZh": 1337,
      "Ġ13": 1338,
      "ause": 1339,
      "As": 1340,
      "ump": 1341,
      "Ġed": 1342,
      "tig": 1343,
      "Ġcir": 1344,
      "17": 1345,
      "ÏĦ": 1346,
      "Ġdependence": 1347,
      "ial": 1348,
      "Ġcrystal": 1349,
      "Ġlong": 1350,
      "Ġpredic": 1351,
      "ains": 1352,
      "Ġvolt": 1353,
      "ĠUni": 1354,
      "fac": 1355,
      "ft": 1356,
      "Ġbulk": 1357,
      "depend": 1358,
      "Ġsuperconductivity": 1359,
      "ton": 1360,
      "osition": 1361,
      "usion": 1362,
      "to": 1363,
      "icon": 1364,
      "arch": 1365,
      "put": 1366,
      "ĠDe": 1367,
      "II": 1368,
      "Ġradi": 1369,
      "ificant": 1370,
      "tal": 1371,
      "Ġïĥ": 1372,
      "aser": 1373,
      "Ġcarri": 1374,
      "Ġspeci": 1375,
      "onse": 1376,
      "Ġtech": 1377,
      "Ġsolution": 1378,
      "ĠApp": 1379,
      "Ġatoms": 1380,
      "Ġ<": 1381,
      "Ġdistribution": 1382,
      "ĠThere": 1383,
      "ĠTe": 1384,
      "idth": 1385,
      "dered": 1386,
      "ology": 1387,
      "Ġlo": 1388,
      "ough": 1389,
      "Ġfit": 1390,
      "Ġmain": 1391,
      "Ġcalculations": 1392,
      "Ġgraphene": 1393,
      "Ġbelow": 1394,
      "23": 1395,
      "].": 1396,
      "line": 1397,
      "Ġorbit": 1398,
      "Fe": 1399,
      "til": 1400,
      "Ġcorrel": 1401,
      "Ġrequ": 1402,
      "Ġanalysis": 1403,
      "otrop": 1404,
      "Ġvery": 1405,
      "Ġmoment": 1406,
      "Ġdesign": 1407,
      "Ġmean": 1408,
      "Ġrepresent": 1409,
      "Ġthickness": 1410,
      "Ġsignificant": 1411,
      "pt": 1412,
      "Ġdevice": 1413,
      "ene": 1414,
      "tio": 1415,
      "Ġimag": 1416,
      "lear": 1417,
      "Ġlight": 1418,
      "ĠThese": 1419,
      "Ġresult": 1420,
      "Ġsecond": 1421,
      "ĠÎ²": 1422,
      "Ġing": 1423,
      "hemical": 1424,
      "Ġful": 1425,
      "Ġfilms": 1426,
      "ĠâĪ¼": 1427,
      "Ġfurther": 1428,
      "Ġeffective": 1429,
      "Ġinteg": 1430,
      "âĹ": 1431,
      "Ġtheory": 1432,
      "hib": 1433,
      "ject": 1434,
      "Ġbi": 1435,
      "Ġchange": 1436,
      "sk": 1437,
      "ĠÂ±": 1438,
      "Ġel": 1439,
      "Ġap": 1440,
      "Ġfilm": 1441,
      "ĠEn": 1442,
      "Ġexpect": 1443,
      "ĠHere": 1444,
      "Ġfer": 1445,
      "ĠUnivers": 1446,
      "Ġstrain": 1447,
      "EM": 1448,
      "ĠÏĦ": 1449,
      "imensional": 1450,
      "vestig": 1451,
      "Ġ200": 1452,
      "ote": 1453,
      "vect": 1454,
      "astic": 1455,
      "Ġcompon": 1456,
      "dependent": 1457,
      "Ġsimp": 1458,
      "Ġeffects": 1459,
      "Ġprob": 1460,
      "Ġtransp": 1461,
      "ctu": 1462,
      "ĠÏģ": 1463,
      "Ġspace": 1464,
      "Ġlarger": 1465,
      "tional": 1466,
      "ward": 1467,
      "ination": 1468,
      "Ġbehavior": 1469,
      "Ġneg": 1470,
      "Ġ16": 1471,
      "Ġallow": 1472,
      "Ġ30": 1473,
      "tivity": 1474,
      "Te": 1475,
      "ĠÏĢ": 1476,
      "que": 1477,
      "Ġrate": 1478,
      "Ġma": 1479,
      "ulation": 1480,
      "Ġfeature": 1481,
      "Ġinvestig": 1482,
      "Ġcontrol": 1483,
      "cu": 1484,
      "Ġ19": 1485,
      "ou": 1486,
      "FT": 1487,
      "flu": 1488,
      "Ġlaser": 1489,
      ",âĢĿ": 1490,
      "Ġmost": 1491,
      "ater": 1492,
      "Ġmetal": 1493,
      "Ġoptim": 1494,
      "Ġphys": 1495,
      "oci": 1496,
      "Ġequation": 1497,
      "Ġaround": 1498,
      "ĠÎ¼m": 1499,
      "Ġ14": 1500,
      "oss": 1501,
      "Ġ50": 1502,
      "ON": 1503,
      "Ġincrease": 1504,
      "loc": 1505,
      "ĥĹ": 1506,
      "ĠâĨ": 1507,
      "igur": 1508,
      "ume": 1509,
      "ĠMo": 1510,
      "rum": 1511,
      "ĠCon": 1512,
      "Î»": 1513,
      "av": 1514,
      "Ġsem": 1515,
      "Ġmole": 1516,
      "reen": 1517,
      "ators": 1518,
      "Ġdeg": 1519,
      "Ġlines": 1520,
      "30": 1521,
      "Ġafter": 1522,
      "bility": 1523,
      "Ġbeam": 1524,
      "Ġabsor": 1525,
      "au": 1526,
      "ism": 1527,
      "Ġfields": 1528,
      "uted": 1529,
      "ĠâīĪ": 1530,
      "ult": 1531,
      "Ġeven": 1532,
      "Ġcompar": 1533,
      "rix": 1534,
      "ĠÂ·": 1535,
      "ĠAt": 1536,
      "Ġvoltage": 1537,
      "tically": 1538,
      "Ġshif": 1539,
      "Ġtyp": 1540,
      "Ġid": 1541,
      "Ġprevious": 1542,
      "Ġdevices": 1543,
      "Ġposition": 1544,
      "ets": 1545,
      "ĠUniversity": 1546,
      "Ġdirect": 1547,
      "ath": 1548,
      "Ġplane": 1549,
      "Ġapproach": 1550,
      "istance": 1551,
      "Ġenh": 1552,
      "Ġthin": 1553,
      "Ġconduct": 1554,
      "onal": 1555,
      "Ġspectra": 1556,
      "Ġplot": 1557,
      "Ġcontribution": 1558,
      "Ġchang": 1559,
      "Ġuni": 1560,
      "Ġperformed": 1561,
      "Ġini": 1562,
      "Ġtemperatures": 1563,
      "omb": 1564,
      "Ġge": 1565,
      "ĠMa": 1566,
      "onic": 1567,
      "ning": 1568,
      "order": 1569,
      "stit": 1570,
      "Ġtotal": 1571,
      "cies": 1572,
      "Ġam": 1573,
      "Ġunit": 1574,
      "Ġquan": 1575,
      "ture": 1576,
      "Ġ11": 1577,
      "Ġterms": 1578,
      "Ġpoin": 1579,
      "aw": 1580,
      "Ġsignal": 1581,
      "ium": 1582,
      "ĠRes": 1583,
      "Î¸": 1584,
      "ars": 1585,
      "elf": 1586,
      "Ġdetail": 1587,
      "Ġaver": 1588,
      "Ġexhib": 1589,
      "Ġcould": 1590,
      "Ġcoe": 1591,
      "Ġax": 1592,
      "ĠâŁ": 1593,
      "Ġreported": 1594,
      "Ġem": 1595,
      "Ġcompared": 1596,
      "Ġampl": 1597,
      "ray": 1598,
      "Ġtri": 1599,
      "Ġcomb": 1600,
      "ĠCu": 1601,
      "Ġgo": 1602,
      "ample": 1603,
      "Ġdefect": 1604,
      "Ġpul": 1605,
      "ression": 1606,
      "plane": 1607,
      "Î²": 1608,
      "Ġlayers": 1609,
      "Ġdispl": 1610,
      "Ġsee": 1611,
      "Ġmagneti": 1612,
      "the": 1613,
      "Ġresponse": 1614,
      "Ġconfigur": 1615,
      "Ġjunction": 1616,
      "faces": 1617,
      "Ġanaly": 1618,
      "ĠHam": 1619,
      "Ġpairing": 1620,
      "ĠScience": 1621,
      "velop": 1622,
      "Ġany": 1623,
      "band": 1624,
      "Ġimport": 1625,
      "Ġinst": 1626,
      "Ġbands": 1627,
      "Ġconditions": 1628,
      "SC": 1629,
      "Ġconcent": 1630,
      "Î³": 1631,
      "Ġdiscuss": 1632,
      "nel": 1633,
      "Ġshould": 1634,
      "ides": 1635,
      "Ġestim": 1636,
      "based": 1637,
      "Ġwould": 1638,
      "ĠEx": 1639,
      "Ġsug": 1640,
      "Ġ>": 1641,
      "roscopy": 1642,
      "Ġinterface": 1643,
      "yl": 1644,
      "Ġach": 1645,
      "of": 1646,
      "Ġthus": 1647,
      "Ġprovid": 1648,
      "Ġer": 1649,
      "Ġphonon": 1650,
      "yc": 1651,
      "Si": 1652,
      "Ġfind": 1653,
      "Ġsolid": 1654,
      "duce": 1655,
      "Ġratio": 1656,
      "Ġpossible": 1657,
      "Ġmatrix": 1658,
      "ĠNi": 1659,
      "romagnetic": 1660,
      "Ġtheore": 1661,
      "ful": 1662,
      "Ġspectrum": 1663,
      "ish": 1664,
      "Ġdri": 1665,
      "Ġir": 1666,
      "Ġdiag": 1667,
      "Ġheat": 1668,
      "Ġfree": 1669,
      "Ġif": 1670,
      "Ġhyd": 1671,
      "ites": 1672,
      "Ġconsist": 1673,
      "zation": 1674,
      "lat": 1675,
      "ott": 1676,
      "row": 1677,
      "ĠMateri": 1678,
      "24": 1679,
      "Ġelectric": 1680,
      "Ġachie": 1681,
      "ities": 1682,
      "ĠPro": 1683,
      "Ġelectrons": 1684,
      "art": 1685,
      "Ġ18": 1686,
      "ĠÃĬ": 1687,
      "Pa": 1688,
      "Ġabout": 1689,
      "Ġsome": 1690,
      "Î½": 1691,
      "Ġsl": 1692,
      "ĠÌģ": 1693,
      "isotrop": 1694,
      "NT": 1695,
      "ching": 1696,
      "Ġtransport": 1697,
      "Ġcross": 1698,
      "ind": 1699,
      "Ġsw": 1700,
      "view": 1701,
      "ately": 1702,
      "ĠSch": 1703,
      "Ġthey": 1704,
      "ï£": 1705,
      "rac": 1706,
      "less": 1707,
      "igin": 1708,
      "Ġgeomet": 1709,
      "ĠOn": 1710,
      "attern": 1711,
      "Ġsubstrate": 1712,
      "Ġappe": 1713,
      "ired": 1714,
      "Ġincreasing": 1715,
      "sp": 1716,
      "rical": 1717,
      "Ġderi": 1718,
      "Ġele": 1719,
      "Ġweak": 1720,
      "Ġphases": 1721,
      "Ġbecause": 1722,
      "val": 1723,
      "ĠSh": 1724,
      "Ġpresence": 1725,
      "ĠâĪļ": 1726,
      "Ġdifference": 1727,
      "Ġsection": 1728,
      "Ġvia": 1729,
      "Ġfollowing": 1730,
      "Ġexperiments": 1731,
      "Ġpoints": 1732,
      "Ġcomm": 1733,
      "ĠâŁ¨": 1734,
      "ĠHamil": 1735,
      "Ġconductivity": 1736,
      "vation": 1737,
      "Ġincreases": 1738,
      "Ġdisper": 1739,
      "OS": 1740,
      "Ġdevelop": 1741,
      "sh": 1742,
      "Ġatt": 1743,
      "Ġstep": 1744,
      "Ġnew": 1745,
      "Ġnumer": 1746,
      "Ġquasi": 1747,
      "ES": 1748,
      "cular": 1749,
      "Ġgeneral": 1750,
      "abric": 1751,
      "ĠDi": 1752,
      "ĠWang": 1753,
      "Ġsuperconductors": 1754,
      "Ġloss": 1755,
      "Ġorigin": 1756,
      "Ġangle": 1757,
      "Ġ40": 1758,
      "fied": 1759,
      "Ġwithout": 1760,
      "Ġoccur": 1761,
      "scill": 1762,
      "Ġvect": 1763,
      "Ġfactor": 1764,
      "lue": 1765,
      "Ġpattern": 1766,
      "Ġbro": 1767,
      "Ġanisotrop": 1768,
      "Î´": 1769,
      "ĠLe": 1770,
      "Ġden": 1771,
      "Ġmaximum": 1772,
      "CS": 1773,
      "Ġcm": 1774,
      "Ġstren": 1775,
      "Ġpart": 1776,
      "ash": 1777,
      "Ġpolarization": 1778,
      "Ġatomic": 1779,
      "........": 1780,
      "Ġhere": 1781,
      "els": 1782,
      "Ġemp": 1783,
      "ances": 1784,
      "Ġoscill": 1785,
      "velength": 1786,
      "Ġfluctu": 1787,
      "ĠTherefore": 1788,
      "Ġclo": 1789,
      "Ġsimulations": 1790,
      "tonian": 1791,
      "Ġ~": 1792,
      "Ġregime": 1793,
      "Ġrec": 1794,
      "ode": 1795,
      "lection": 1796,
      "pping": 1797,
      "ixed": 1798,
      "Ġfinite": 1799,
      "Ġdemonstr": 1800,
      "ering": 1801,
      "Ġdoes": 1802,
      "Ġduring": 1803,
      "Ġbond": 1804,
      "ructural": 1805,
      "Ġgroup": 1806,
      "Ġboundary": 1807,
      "eriod": 1808,
      "ays": 1809,
      "Ġexpected": 1810,
      "loy": 1811,
      "Ġ17": 1812,
      "linear": 1813,
      "ĠÎ©": 1814,
      "Ġintro": 1815,
      "Ġcontr": 1816,
      "Ġedge": 1817,
      "uth": 1818,
      "ticle": 1819,
      "ymmet": 1820,
      "atively": 1821,
      "rit": 1822,
      "ey": 1823,
      "Ġinv": 1824,
      "ier": 1825,
      "Ġdoping": 1826,
      "Ġsepar": 1827,
      "ĠHamiltonian": 1828,
      "60": 1829,
      "Ġclear": 1830,
      "Ġkn": 1831,
      "Ġmuch": 1832,
      "Ġparticular": 1833,
      "Ġstrength": 1834,
      "anced": 1835,
      "Ġdetect": 1836,
      "dimensional": 1837,
      "Ġgrowth": 1838,
      "Ġcomplex": 1839,
      "Ġcontact": 1840,
      "pol": 1841,
      "45": 1842,
      "Ġdefined": 1843,
      "ĠAd": 1844,
      "ible": 1845,
      "fy": 1846,
      "inu": 1847,
      "Ġground": 1848,
      "ky": 1849,
      "brid": 1850,
      "Ġimportant": 1851,
      "Ġanti": 1852,
      "ĠRef": 1853,
      "Ġstress": 1854,
      "Ġperiod": 1855,
      "like": 1856,
      "ror": 1857,
      "ĠÎ·": 1858,
      "ection": 1859,
      "Ġmm": 1860,
      "Ġ25": 1861,
      "Ġsil": 1862,
      "Ġflux": 1863,
      "erence": 1864,
      "Ġchemical": 1865,
      "Ġscal": 1866,
      "FM": 1867,
      "Ġintensity": 1868,
      "Ġtransfer": 1869,
      "ality": 1870,
      "uc": 1871,
      "Ġrot": 1872,
      "Ġexample": 1873,
      "ĠComp": 1874,
      "ĠÎ¾": 1875,
      "eV": 1876,
      ".;": 1877,
      "Ġdescribed": 1878,
      "ergies": 1879,
      "Ïģ": 1880,
      "Ġdetermined": 1881,
      "Ġsince": 1882,
      "Ġfabric": 1883,
      "raph": 1884,
      "ĠâĨĴ": 1885,
      "Ġsmaller": 1886,
      "Ġmeasurement": 1887,
      "Ġcharacteristic": 1888,
      "Ġsuperconductor": 1889,
      "ded": 1890,
      "ĠÏĩ": 1891,
      "ĠBi": 1892,
      "over": 1893,
      "ner": 1894,
      "Ġamplitude": 1895,
      "Ġinsul": 1896,
      "ok": 1897,
      "Ġcos": 1898,
      "ps": 1899,
      "ĠSC": 1900,
      "ortex": 1901,
      "Ġapplications": 1902,
      "ÃĹ": 1903,
      "jor": 1904,
      "field": 1905,
      "part": 1906,
      "imes": 1907,
      "sive": 1908,
      "Ġfour": 1909,
      "Ġclose": 1910,
      "encies": 1911,
      "Ġshe": 1912,
      "TI": 1913,
      "Ġformation": 1914,
      "Ġconc": 1915,
      "Ġtechni": 1916,
      "Ġï¿½ï¿½": 1917,
      "Ġmodels": 1918,
      "Ġchann": 1919,
      "Ġintere": 1920,
      "Ġseen": 1921,
      "Ġbas": 1922,
      "quid": 1923,
      "mer": 1924,
      "Ġinterest": 1925,
      "lected": 1926,
      "Ġback": 1927,
      "Î©": 1928,
      "zed": 1929,
      "Ġstand": 1930,
      "Ġmak": 1931,
      "ount": 1932,
      "ĠÌĪ": 1933,
      "layer": 1934,
      "Ġca": 1935,
      "Ġconsidered": 1936,
      "ler": 1937,
      "des": 1938,
      "35": 1939,
      "Ġself": 1940,
      "Ġchanges": 1941,
      "duc": 1942,
      "Ġdynamics": 1943,
      "ters": 1944,
      "Ġred": 1945,
      "Ġsour": 1946,
      "lementary": 1947,
      "Ġspati": 1948,
      "Ġcompound": 1949,
      "ĠZhang": 1950,
      "Ġrelax": 1951,
      "Ġsyn": 1952,
      "Ġfoc": 1953,
      "Ġarea": 1954,
      "Ġresistance": 1955,
      "ĠLa": 1956,
      "Ġthose": 1957,
      "Ġneed": 1958,
      "gu": 1959,
      "Ġvis": 1960,
      "ĠSupp": 1961,
      "Ġhydro": 1962,
      "reak": 1963,
      "Ġent": 1964,
      "ited": 1965,
      "Ġav": 1966,
      "Ġleads": 1967,
      "Ġvarious": 1968,
      "Ġmass": 1969,
      "Ġconver": 1970,
      "ma": 1971,
      "ĠGa": 1972,
      "Ġinteractions": 1973,
      "ĠMore": 1974,
      "Ġrecent": 1975,
      "change": 1976,
      "Ġfunctions": 1977,
      "get": 1978,
      "Ġpoly": 1979,
      "Ġenergies": 1980,
      "Ġinduced": 1981,
      "ĠÎº": 1982,
      "ffect": 1983,
      "Ġmomentum": 1984,
      "Ġpresented": 1985,
      "05": 1986,
      "33": 1987,
      "ĠThus": 1988,
      "Ġresulting": 1989,
      "ison": 1990,
      "verse": 1991,
      "Ġaverage": 1992,
      "Ġyield": 1993,
      "ventional": 1994,
      "Ġwidth": 1995,
      "Ġmagnet": 1996,
      "Ġflow": 1997,
      "ressed": 1998,
      "ij": 1999,
      "Ġcomput": 2000,
      "Ġcre": 2001,
      "Ġhole": 2002,
      "ires": 2003,
      "ink": 2004,
      "Ġabsorption": 2005,
      "Â±": 2006,
      "Ġperformance": 2007,
      "Ġori": 2008,
      "Ġpeaks": 2009,
      "Ġvac": 2010,
      "Ġnoise": 2011,
      "Ġcontrast": 2012,
      "Ġimpro": 2013,
      "Ġ/": 2014,
      "ring": 2015,
      "Ġcurves": 2016,
      "DW": 2017,
      "med": 2018,
      "Ġwavelength": 2019,
      "Ġimage": 2020,
      "Ġassoci": 2021,
      "ED": 2022,
      "Ġside": 2023,
      "26": 2024,
      "Ġstudies": 2025,
      "Ġdispersion": 2026,
      "ĠmeV": 2027,
      "ĠMaterials": 2028,
      "omes": 2029,
      "Ġaccur": 2030,
      "Ġaxis": 2031,
      "01": 2032,
      "rate": 2033,
      "ĠHe": 2034,
      "Ġtype": 2035,
      "Ġunderst": 2036,
      "gine": 2037,
      "Ġspectral": 2038,
      "Ġmagnetization": 2039,
      "Ġstructural": 2040,
      "ĠMe": 2041,
      "ĠPhysical": 2042,
      "ĠFurther": 2043,
      "Ġbar": 2044,
      "ĠSc": 2045,
      "Ġsugges": 2046,
      "Ġrelated": 2047,
      "xt": 2048,
      "ĠOur": 2049,
      "ĠÃģ": 2050,
      "side": 2051,
      "Ġagree": 2052,
      "cm": 2053,
      "tions": 2054,
      "Ġeffici": 2055,
      "Ġvortex": 2056,
      "ob": 2057,
      "Ġproposed": 2058,
      "Ġforce": 2059,
      "Ġspecific": 2060,
      "other": 2061,
      "Cu": 2062,
      "ently": 2063,
      "ape": 2064,
      "ii": 2065,
      "Ġvan": 2066,
      "27": 2067,
      "alle": 2068,
      "ĠQu": 2069,
      "ording": 2070,
      "ĠII": 2071,
      "Ġmodul": 2072,
      "âĨĳ": 2073,
      "Ġresonance": 2074,
      "Ġdistance": 2075,
      "Ġorient": 2076,
      "ered": 2077,
      "etwork": 2078,
      "Ġparticle": 2079,
      "vant": 2080,
      "Ġ300": 2081,
      "ĠElect": 2082,
      "ST": 2083,
      "Ġconcentration": 2084,
      "orph": 2085,
      "Ġidenti": 2086,
      "igen": 2087,
      "âĹ¦": 2088,
      "Ġcom": 2089,
      "ĠSin": 2090,
      "Ġcapac": 2091,
      "Ġinitial": 2092,
      "veral": 2093,
      "Ġbroad": 2094,
      "ĠBa": 2095,
      "dom": 2096,
      "Ġcrystall": 2097,
      "Ġinde": 2098,
      "ins": 2099,
      "chn": 2100,
      "Ġfeatures": 2101,
      "Ġvolume": 2102,
      "Ġseveral": 2103,
      "Ġreve": 2104,
      "ĠBe": 2105,
      "Ġtheoretical": 2106,
      "ĠNote": 2107,
      "Ġorbital": 2108,
      "Ġschem": 2109,
      "Ġmany": 2110,
      "igure": 2111,
      "Ġfocus": 2112,
      "ox": 2113,
      "Ġcurve": 2114,
      "ĠNo": 2115,
      "ermion": 2116,
      "Ġresis": 2117,
      "Ä§": 2118,
      "ashed": 2119,
      "ĠÎ½": 2120,
      "pro": 2121,
      "75": 2122,
      "ĠSO": 2123,
      "Ġpan": 2124,
      "sing": 2125,
      "Al": 2126,
      "Ġprof": 2127,
      "Ġexcitation": 2128,
      "Ġmagnitude": 2129,
      "iconduct": 2130,
      "Ġswit": 2131,
      "Ġassociated": 2132,
      "Ġsimulation": 2133,
      "Ġ60": 2134,
      "Ġscale": 2135,
      "Â°": 2136,
      "Ġvel": 2137,
      "28": 2138,
      "Ġspl": 2139,
      "Ġsensi": 2140,
      "Ġvector": 2141,
      "ana": 2142,
      "ÏĪ": 2143,
      "ĠGPa": 2144,
      "Ġï¿½ï¿½ï¿½": 2145,
      "anc": 2146,
      "Ġbecomes": 2147,
      "Ġproble": 2148,
      "Ġcrystals": 2149,
      "Ġhand": 2150,
      "Ġdiscussed": 2151,
      "urn": 2152,
      "sequ": 2153,
      "Ġliquid": 2154,
      "Ġcontinu": 2155,
      "ĠNb": 2156,
      "ĠNan": 2157,
      "ER": 2158,
      "Ġhal": 2159,
      "Ġconne": 2160,
      "Ġeigen": 2161,
      "Ġult": 2162,
      "ĠSim": 2163,
      "ĠST": 2164,
      "ĠWith": 2165,
      "ĠSuper": 2166,
      "Ġhybrid": 2167,
      "lying": 2168,
      "Ġvi": 2169,
      "rinci": 2170,
      "bon": 2171,
      "ĠWh": 2172,
      "ice": 2173,
      "Xiv": 2174,
      "Î·": 2175,
      "Ġcohe": 2176,
      "ĠTi": 2177,
      "Ġwater": 2178,
      "Ġrespect": 2179,
      "ĠNature": 2180,
      "Ġpaper": 2181,
      "oh": 2182,
      "âĨĵ": 2183,
      "tices": 2184,
      "ĠHall": 2185,
      "Ġsens": 2186,
      "Ġshift": 2187,
      "Ġless": 2188,
      "Ġrelative": 2189,
      "orbit": 2190,
      "Ġcircu": 2191,
      "Ġexter": 2192,
      "Ġdomain": 2193,
      "Ġbeing": 2194,
      "Ġefficiency": 2195,
      "owled": 2196,
      "ably": 2197,
      "allic": 2198,
      "atis": 2199,
      "eng": 2200,
      "Ġfunctional": 2201,
      "ĠSince": 2202,
      "Ġexchange": 2203,
      "lack": 2204,
      "Ġbreak": 2205,
      "ences": 2206,
      "Ġtunnel": 2207,
      "Ġequations": 2208,
      "Ġstudied": 2209,
      "ĠChen": 2210,
      "ock": 2211,
      "Ġnetwork": 2212,
      "ilib": 2213,
      "ik": 2214,
      "Ġclass": 2215,
      "omp": 2216,
      "Ġsus": 2217,
      "Ġcomponents": 2218,
      "Ġtimes": 2219,
      "Ġincluding": 2220,
      "Ġinformation": 2221,
      "gap": 2222,
      "Ġpr": 2223,
      "ĠarXiv": 2224,
      "agn": 2225,
      "Ġexist": 2226,
      "omen": 2227,
      "Ġtransmission": 2228,
      "Ġbias": 2229,
      "Ġreduced": 2230,
      "ina": 2231,
      "Ġmethods": 2232,
      "allel": 2233,
      "till": 2234,
      "Ġmonol": 2235,
      "Ġmechanism": 2236,
      "Ġdomin": 2237,
      "Ġplas": 2238,
      "Ġconsistent": 2239,
      "partment": 2240,
      "80": 2241,
      "rium": 2242,
      "alu": 2243,
      "Ġheter": 2244,
      "Ni": 2245,
      "29": 2246,
      "oped": 2247,
      "Ġsplit": 2248,
      "range": 2249,
      "lass": 2250,
      "Ġadditional": 2251,
      "ident": 2252,
      "ĠCa": 2253,
      "though": 2254,
      "vide": 2255,
      "Ġelements": 2256,
      "Ġnegative": 2257,
      "Ġcoefficient": 2258,
      "Ġil": 2259,
      "ĠBy": 2260,
      "osite": 2261,
      "Ġfrequencies": 2262,
      "Ġcases": 2263,
      "oid": 2264,
      "Ġconfiguration": 2265,
      "Ġfull": 2266,
      "Ġevalu": 2267,
      "ET": 2268,
      "ĠTable": 2269,
      "32": 2270,
      "energy": 2271,
      "ders": 2272,
      "off": 2273,
      "reat": 2274,
      "ĠDFT": 2275,
      "ributed": 2276,
      "rated": 2277,
      "Î¾": 2278,
      "Ġposi": 2279,
      "Ġdimension": 2280,
      "Ġoff": 2281,
      "Ġphen": 2282,
      "Ġnumerical": 2283,
      "ĠUn": 2284,
      "ĠâĪĹ": 2285,
      "ĠReview": 2286,
      "oseph": 2287,
      "ither": 2288,
      "cep": 2289,
      "iral": 2290,
      "Ġfluctuations": 2291,
      "Ġstandard": 2292,
      "ĠSp": 2293,
      "Ġconfir": 2294,
      "Ġdown": 2295,
      "Ġagreement": 2296,
      "Ġemission": 2297,
      "Ġfigure": 2298,
      "Ġprovide": 2299,
      "Ġimpur": 2300,
      "Ġrese": 2301,
      "Ġinput": 2302,
      "rag": 2303,
      "100": 2304,
      "app": 2305,
      "Ġspatial": 2306,
      "âĥĹ": 2307,
      "ograph": 2308,
      "Ġion": 2309,
      "ĠFin": 2310,
      "Ġacross": 2311,
      "SA": 2312,
      "Ġindicates": 2313,
      "Ġexternal": 2314,
      "ĠAb": 2315,
      "Ġdrop": 2316,
      "Ġpropag": 2317,
      "Ġillu": 2318,
      "Ġnod": 2319,
      "abil": 2320,
      "Ġphysical": 2321,
      "Co": 2322,
      "ead": 2323,
      "type": 2324,
      "ogene": 2325,
      "ĠWhen": 2326,
      "Ġdielectric": 2327,
      "Ġapproximation": 2328,
      ")]": 2329,
      "cal": 2330,
      "Ġpulse": 2331,
      "cept": 2332,
      "Ġtherefore": 2333,
      "Ġdefects": 2334,
      "Ġstill": 2335,
      "ĠLiu": 2336,
      "gan": 2337,
      "Ġdifferen": 2338,
      "Ġwavegu": 2339,
      "cur": 2340,
      "SI": 2341,
      "gineering": 2342,
      "ottom": 2343,
      "Ġfixed": 2344,
      "In": 2345,
      "conduct": 2346,
      "duces": 2347,
      "44": 2348,
      "Ġroom": 2349,
      "Ġsemiconduct": 2350,
      "Ġsignificantly": 2351,
      "set": 2352,
      "ertain": 2353,
      "acy": 2354,
      "uk": 2355,
      "Ġfermion": 2356,
      "Ġphenomen": 2357,
      "Ġlike": 2358,
      "MR": 2359,
      "Ġstrongly": 2360,
      "olved": 2361,
      "ĠRam": 2362,
      "Ġcomparison": 2363,
      "ostructure": 2364,
      "atur": 2365,
      "ern": 2366,
      "ilibrium": 2367,
      "urb": 2368,
      "Ġauth": 2369,
      "osephson": 2370,
      "Ġcorresponds": 2371,
      "Ġpump": 2372,
      "Ġcyc": 2373,
      "ient": 2374,
      "tern": 2375,
      "Figure": 2376,
      "lusion": 2377,
      "Ġquanti": 2378,
      "Ġmed": 2379,
      "berg": 2380,
      "ocity": 2381,
      "Ġsource": 2382,
      "aneous": 2383,
      "ygen": 2384,
      "kn": 2385,
      "Tc": 2386,
      "Ġinf": 2387,
      "Ġexhibit": 2388,
      "Îĵ": 2389,
      "Ġdoub": 2390,
      "Ġcomponent": 2391,
      "Ġcomposition": 2392,
      "Ġknown": 2393,
      "omm": 2394,
      "ĠMet": 2395,
      "Ġpath": 2396,
      "Ġcorrelation": 2397,
      "Ġnote": 2398,
      "Ġsqu": 2399,
      "36": 2400,
      "Ġenhance": 2401,
      "Ġelectrical": 2402,
      "Ġimages": 2403,
      "70": 2404,
      "Ġgood": 2405,
      "Ġindi": 2406,
      "monic": 2407,
      "earch": 2408,
      "Ġcoupled": 2409,
      "Ġrelaxation": 2410,
      "Ġphoto": 2411,
      "199": 2412,
      "Ġcarrier": 2413,
      "ĠIII": 2414,
      "Ti": 2415,
      "Ġregions": 2416,
      "Ġanisotropy": 2417,
      "Ġcavity": 2418,
      "Ġdiffusion": 2419,
      "Ġminim": 2420,
      "inary": 2421,
      "Ġ24": 2422,
      "Ġevolution": 2423,
      "PS": 2424,
      "Ġsupport": 2425,
      "Ġcalculation": 2426,
      "ĠFrom": 2427,
      "Ġsumm": 2428,
      "Ġtaken": 2429,
      "ive": 2430,
      "Ġblue": 2431,
      "ĠAll": 2432,
      "ĠSr": 2433,
      "Ġunderstand": 2434,
      "ored": 2435,
      "Ġway": 2436,
      "ovsk": 2437,
      "Ġemploy": 2438,
      "Ġ80": 2439,
      "particle": 2440,
      "rins": 2441,
      "Ġvelocity": 2442,
      "Ġhalf": 2443,
      "34": 2444,
      "Ġhow": 2445,
      "tt": 2446,
      "ĠResearch": 2447,
      "sm": 2448,
      "Ġright": 2449,
      "Ġhowever": 2450,
      "Ġdu": 2451,
      "ĠÎ¦": 2452,
      "Ġpositive": 2453,
      "Ġassum": 2454,
      "ĠTechn": 2455,
      "Ġreas": 2456,
      "lis": 2457,
      "Ġdemonstrated": 2458,
      "Ġthem": 2459,
      "stitute": 2460,
      "Ġexpression": 2461,
      "Ġextract": 2462,
      "Ġnature": 2463,
      "izing": 2464,
      "aches": 2465,
      "nm": 2466,
      "âĪĤ": 2467,
      "ists": 2468,
      "be": 2469,
      "read": 2470,
      "Ġnanop": 2471,
      "ĠJosephson": 2472,
      "31": 2473,
      "Ġparallel": 2474,
      "ournal": 2475,
      "Ġallows": 2476,
      "Ġdiffraction": 2477,
      "ĠâĥĹ": 2478,
      "Ġdot": 2479,
      "Ġend": 2480,
      "Ġmechanical": 2481,
      "Ġchannel": 2482,
      "more": 2483,
      "Ġcaus": 2484,
      "Ġsilicon": 2485,
      "Ġsurfaces": 2486,
      "Ġbu": 2487,
      "versal": 2488,
      "Ġdel": 2489,
      "Ġshort": 2490,
      "Ġact": 2491,
      "Ġindependent": 2492,
      "Ġparticles": 2493,
      "abor": 2494,
      "ually": 2495,
      "Ġoutput": 2496,
      "for": 2497,
      "Ġslight": 2498,
      "ĠMn": 2499,
      "Ġsimple": 2500,
      "Ġgate": 2501,
      "Ġ:": 2502,
      "Ġopp": 2503,
      "Ġfew": 2504,
      "Ġproblem": 2505,
      "ages": 2506,
      "Ġtr": 2507,
      "Ġappear": 2508,
      "ĠCr": 2509,
      "ev": 2510,
      "neal": 2511,
      "electron": 2512,
      "Ġfollows": 2513,
      "Ġdetails": 2514,
      "Ġcool": 2515,
      "Ġspectroscopy": 2516,
      "not": 2517,
      "Ġsites": 2518,
      "37": 2519,
      "ks": 2520,
      "width": 2521,
      "tri": 2522,
      "Ġrele": 2523,
      "Ġelement": 2524,
      "min": 2525,
      "Ġreflection": 2526,
      "ĠNat": 2527,
      "Ġoxygen": 2528,
      "cell": 2529,
      "Ġmetallic": 2530,
      "Ġcells": 2531,
      "Ġbarri": 2532,
      "Ġtransitions": 2533,
      "Ġmade": 2534,
      "Ġbasis": 2535,
      "tics": 2536,
      "Ġgeometry": 2537,
      "Ġcenter": 2538,
      "Ġ&": 2539,
      "ĠMod": 2540,
      "Ġmultiple": 2541,
      "Ġelastic": 2542,
      "Ġphoton": 2543,
      "itud": 2544,
      "Ġdecreases": 2545,
      "Ġstable": 2546,
      "38": 2547,
      "))": 2548,
      "sor": 2549,
      "Ġdashed": 2550,
      "Ġextend": 2551,
      "Ġleading": 2552,
      "Ġload": 2553,
      "Ġrole": 2554,
      "omal": 2555,
      "Ġtoward": 2556,
      "ament": 2557,
      "Ġresistivity": 2558,
      "MS": 2559,
      "Ġeither": 2560,
      "ĠJournal": 2561,
      "radi": 2562,
      "amond": 2563,
      "Ġfraction": 2564,
      "EC": 2565,
      "Ġnow": 2566,
      "ll": 2567,
      "Ġdirectly": 2568,
      "Â·": 2569,
      "Ġdiagram": 2570,
      "Ġnonlinear": 2571,
      "ĠMoreover": 2572,
      "ĠWhile": 2573,
      "ĠChem": 2574,
      "Ġfund": 2575,
      "Ġaffect": 2576,
      "ĠâĢ²": 2577,
      "doped": 2578,
      "iron": 2579,
      "Ġconventional": 2580,
      "Ġinflu": 2581,
      "peci": 2582,
      "Ġplan": 2583,
      "Ġresolution": 2584,
      "Ġstability": 2585,
      "Ġshape": 2586,
      "Ġcut": 2587,
      "ĠGe": 2588,
      "Ġcompounds": 2589,
      "cted": 2590,
      "jorana": 2591,
      "mit": 2592,
      "ries": 2593,
      "ained": 2594,
      "me": 2595,
      "Ġreveal": 2596,
      "Ġrelation": 2597,
      "ze": 2598,
      "ini": 2599,
      "ley": 2600,
      "ighb": 2601,
      "ext": 2602,
      "39": 2603,
      "inding": 2604,
      "rinsic": 2605,
      "Ġimplement": 2606,
      "Ġdecrease": 2607,
      "Sb": 2608,
      "Ġnuc": 2609,
      "met": 2610,
      "po": 2611,
      "Ġbefore": 2612,
      ")/": 2613,
      "85": 2614,
      "ĠÌĬ": 2615,
      "Ga": 2616,
      "axis": 2617,
      "ĠÏĪ": 2618,
      "ĠHu": 2619,
      "Ġincreased": 2620,
      "MA": 2621,
      "ĠNa": 2622,
      "Ġrandom": 2623,
      "fluid": 2624,
      "Ġpairs": 2625,
      "Ġopen": 2626,
      "Ġagain": 2627,
      "Ġdisorder": 2628,
      "lust": 2629,
      "Ġhighly": 2630,
      "ĠBr": 2631,
      "roscopic": 2632,
      "Ġqubit": 2633,
      "orts": 2634,
      "Ġperiodic": 2635,
      "Ġfram": 2636,
      "ings": 2637,
      "ĠMA": 2638,
      "ĠïĤ": 2639,
      "Ġgradi": 2640,
      "Ġprocesses": 2641,
      "endi": 2642,
      "Ġfar": 2643,
      "most": 2644,
      "Ġneut": 2645,
      "ĠTran": 2646,
      "oper": 2647,
      "Ġdisplace": 2648,
      "Ġexperimentally": 2649,
      "by": 2650,
      "induced": 2651,
      "Ġ{": 2652,
      "izes": 2653,
      "EE": 2654,
      "man": 2655,
      "Ġprobe": 2656,
      "ĠAu": 2657,
      "Ã©": 2658,
      "Ġâī¤": 2659,
      "Ġindicate": 2660,
      "endix": 2661,
      "Ġfully": 2662,
      "ai": 2663,
      "ameter": 2664,
      "rant": 2665,
      "xy": 2666,
      "Ġindex": 2667,
      "Ġlog": 2668,
      "ged": 2669,
      "urface": 2670,
      "Ġtransform": 2671,
      "Bi": 2672,
      "Ġhel": 2673,
      "Ġerror": 2674,
      "Ġgenerated": 2675,
      "ĠFinally": 2676,
      "omogene": 2677,
      "ĠAg": 2678,
      "Ġdevi": 2679,
      "ĠAFM": 2680,
      "Ġloop": 2681,
      "dd": 2682,
      "fication": 2683,
      "atory": 2684,
      "aps": 2685,
      "ĠDirac": 2686,
      "Ġcho": 2687,
      "Ġleft": 2688,
      "olt": 2689,
      "Ġmolecular": 2690,
      "ĠRaman": 2691,
      "Ġmix": 2692,
      "Ġmonolayer": 2693,
      "ĠâĹ": 2694,
      "Ġavail": 2695,
      "ival": 2696,
      "imet": 2697,
      "gor": 2698,
      "ques": 2699,
      "Ġcup": 2700,
      "Ġprovides": 2701,
      "PA": 2702,
      "mat": 2703,
      "aced": 2704,
      "ĠAr": 2705,
      "Ġequal": 2706,
      "state": 2707,
      "Ġcarbon": 2708,
      "ĠFurthermore": 2709,
      "Ġaccount": 2710,
      "Ġdemonstrate": 2711,
      "ĠInt": 2712,
      "Ġsite": 2713,
      "Ġperm": 2714,
      "ining": 2715,
      "ymmetric": 2716,
      "Ġachieved": 2717,
      "ticles": 2718,
      "Ġgas": 2719,
      "Ġdependent": 2720,
      "Ġphysics": 2721,
      "cules": 2722,
      "olid": 2723,
      "Ġrequired": 2724,
      "ather": 2725,
      "seud": 2726,
      "Ġpanel": 2727,
      "Ġtechn": 2728,
      "Ġanneal": 2729,
      "ractive": 2730,
      "cial": 2731,
      "ĠQuantum": 2732,
      "Ġions": 2733,
      "Ġorbitals": 2734,
      "vial": 2735,
      "ĠMajorana": 2736,
      "02": 2737,
      "99": 2738,
      "Ĭ¥": 2739,
      "Ġillustr": 2740,
      "ĠEnergy": 2741,
      "Ġreduction": 2742,
      "Ġtemp": 2743,
      "Ġpure": 2744,
      "ĠÎĶ": 2745,
      "ores": 2746,
      "Ġreference": 2747,
      "Ġmust": 2748,
      "Ġchiral": 2749,
      "Ġfib": 2750,
      "Ġbottom": 2751,
      "Ġvariation": 2752,
      "Ġgives": 2753,
      "Ps": 2754,
      "Cs": 2755,
      "viron": 2756,
      "Ġanomal": 2757,
      "Ġmeans": 2758,
      "ĠBer": 2759,
      "Ġide": 2760,
      "cepti": 2761,
      "taneous": 2762,
      "idence": 2763,
      "Ġnanow": 2764,
      "ĠOne": 2765,
      "Ġwaves": 2766,
      "CO": 2767,
      "Ġtions": 2768,
      "Ġreason": 2769,
      "ĠAnd": 2770,
      "Ġ90": 2771,
      "ĠIf": 2772,
      "Ġvary": 2773,
      "Ġpredicted": 2774,
      "Ġtypical": 2775,
      "ĠOp": 2776,
      "rel": 2777,
      "Ġflat": 2778,
      "Ġoccurs": 2779,
      "Ġread": 2780,
      "Ġuniform": 2781,
      "inal": 2782,
      "ĠTa": 2783,
      "Ġgrain": 2784,
      "Ġdouble": 2785,
      "Ġcore": 2786,
      "Ġobserve": 2787,
      "here": 2788,
      "ables": 2789,
      "Ġrepresents": 2790,
      "Cl": 2791,
      "Ġfitting": 2792,
      "Ġupper": 2793,
      "TION": 2794,
      "//": 2795,
      "ope": 2796,
      "aining": 2797,
      "Ġremains": 2798,
      "Ġemerg": 2799,
      "Ġview": 2800,
      "Ġdenot": 2801,
      "resh": 2802,
      "Ġter": 2803,
      "âĢ²)": 2804,
      "65": 2805,
      "Ġcircuit": 2806,
      "axial": 2807,
      "Ġ21": 2808,
      "Ġcoun": 2809,
      "Ġprot": 2810,
      "lip": 2811,
      "Ġprinci": 2812,
      "tially": 2813,
      "Ġclearly": 2814,
      "ĠInstitute": 2815,
      "Ġdirections": 2816,
      "Ġfl": 2817,
      "Ġpossi": 2818,
      "Ġformul": 2819,
      "HE": 2820,
      "Ġhar": 2821,
      "ĠCar": 2822,
      "fact": 2823,
      "eep": 2824,
      "Ġhydrogen": 2825,
      "Ġupon": 2826,
      "ducing": 2827,
      "eries": 2828,
      "Ġsuscepti": 2829,
      "medi": 2830,
      "etter": 2831,
      "Ġlit": 2832,
      "temperature": 2833,
      "ĠSection": 2834,
      "Sn": 2835,
      "Ġzone": 2836,
      "lies": 2837,
      "04": 2838,
      "ĠSn": 2839,
      "icular": 2840,
      "rating": 2841,
      "Ġcoord": 2842,
      "su": 2843,
      "Ġmodulation": 2844,
      "Ġdepends": 2845,
      "Ġtechnique": 2846,
      "anning": 2847,
      "],": 2848,
      "ade": 2849,
      "Ġinside": 2850,
      "Ġ35": 2851,
      "ĠGHz": 2852,
      "Ġtunneling": 2853,
      "ĠLu": 2854,
      "ïģ": 2855,
      "Ġbil": 2856,
      "ithm": 2857,
      "atom": 2858,
      "polar": 2859,
      "Ġfill": 2860,
      "ĠNational": 2861,
      "ĠPa": 2862,
      "Ġinset": 2863,
      "Ġdetermine": 2864,
      "ancy": 2865,
      "Ġclust": 2866,
      "Ġestimated": 2867,
      "requency": 2868,
      "Ġsupported": 2869,
      "Ġmolecules": 2870,
      "Ġpur": 2871,
      "assi": 2872,
      "ĠFigs": 2873,
      "Ġwide": 2874,
      "Ġresearch": 2875,
      "ĠPb": 2876,
      "Ġtar": 2877,
      "Ġresonator": 2878,
      "BS": 2879,
      "ret": 2880,
      "2018": 2881,
      "turb": 2882,
      "Ġtip": 2883,
      "Ġinvestigated": 2884,
      "Ġswitching": 2885,
      "structure": 2886,
      "Ġconductance": 2887,
      "âĹı": 2888,
      "apor": 2889,
      "Ġwaveguide": 2890,
      "Ġstack": 2891,
      "BN": 2892,
      "owledge": 2893,
      "ĠSupplementary": 2894,
      "rmion": 2895,
      "Ġcannot": 2896,
      "Ġpseud": 2897,
      "ention": 2898,
      "ogen": 2899,
      "oton": 2900,
      "RO": 2901,
      "Ġperovsk": 2902,
      "Ġoccup": 2903,
      "Ġmicrowave": 2904,
      "ĠUsing": 2905,
      "isted": 2906,
      "ĠAppendix": 2907,
      "Ġincident": 2908,
      "Ġdiscussion": 2909,
      "Ġauthors": 2910,
      "Ġ500": 2911,
      "lex": 2912,
      "ĠIV": 2913,
      "na": 2914,
      "oustic": 2915,
      "ĠÄ§": 2916,
      "Ġrelatively": 2917,
      "Ġâī¡": 2918,
      ")-": 2919,
      "Ġwhereas": 2920,
      "Ġ26": 2921,
      "):": 2922,
      "ĠSec": 2923,
      "................": 2924,
      "Ġcharacteristics": 2925,
      "ĠPL": 2926,
      "BE": 2927,
      "Ġquality": 2928,
      "Ġvalid": 2929,
      "Ġenviron": 2930,
      "Ġdepth": 2931,
      "Ġwall": 2932,
      "Ġmotion": 2933,
      "Ġdiamond": 2934,
      "ĠEu": 2935,
      "ĠChina": 2936,
      "ĠAfter": 2937,
      "âĸ": 2938,
      "Ïĩ": 2939,
      "ensities": 2940,
      "Ġsquare": 2941,
      "Ġformed": 2942,
      "Ġquantit": 2943,
      "Ġ%": 2944,
      "ID": 2945,
      "Ġglass": 2946,
      "Ġexact": 2947,
      "cedure": 2948,
      "ĠSuch": 2949,
      "Ġtes": 2950,
      "ody": 2951,
      "Ġavailable": 2952,
      "Ġturn": 2953,
      "ĠÃħ": 2954,
      "Ġ22": 2955,
      "Ġfac": 2956,
      "SO": 2957,
      "Ġantifer": 2958,
      "Ġmark": 2959,
      "001": 2960,
      "AM": 2961,
      "Ġcommon": 2962,
      "Ġrather": 2963,
      "55": 2964,
      "Ġadd": 2965,
      "Ġfre": 2966,
      "Ġprofile": 2967,
      "ris": 2968,
      "Ġreaction": 2969,
      "Ġdeposition": 2970,
      "Ġenhanced": 2971,
      "Ġalign": 2972,
      "Ġequilibrium": 2973,
      "Ġbarrier": 2974,
      "pit": 2975,
      "fficients": 2976,
      "Ġlimited": 2977,
      "Ġaccording": 2978,
      "org": 2979,
      "90": 2980,
      "Ġminimum": 2981,
      "Ġbetter": 2982,
      "land": 2983,
      "osc": 2984,
      "2017": 2985,
      "Ġcalculate": 2986,
      "Ġslightly": 2987,
      "Ġdistin": 2988,
      "Ġalmost": 2989,
      "âĹıâĹı": 2990,
      "Ġstar": 2991,
      "Ġsplitting": 2992,
      "ND": 2993,
      "Ġprocedure": 2994,
      "kyrmion": 2995,
      "Ġ400": 2996,
      "Ġelectrode": 2997,
      "Ġintrinsic": 2998,
      "Ġrelations": 2999,
      "Ġimprove": 3000,
      "Ġdoped": 3001,
      "Ġcoefficients": 3002,
      "Ġinver": 3003,
      "Ġdescri": 3004,
      "ĠNe": 3005,
      "ceed": 3006,
      "Ġren": 3007,
      "Ġconduction": 3008,
      "Ġlif": 3009,
      "Ġexpon": 3010,
      "Ġcontributions": 3011,
      "aving": 3012,
      "ĠïĢ½": 3013,
      "alled": 3014,
      "time": 3015,
      "ches": 3016,
      "Ġgradient": 3017,
      "Ġoxide": 3018,
      "Ġblack": 3019,
      "Ġlevels": 3020,
      "Ġradiation": 3021,
      "rad": 3022,
      "ĠElectron": 3023,
      "ivalent": 3024,
      "Ġtet": 3025,
      "Îº": 3026,
      "Ġferro": 3027,
      "osen": 3028,
      "Ġneighb": 3029,
      "RD": 3030,
      "ood": 3031,
      "arp": 3032,
      "Ġtowards": 3033,
      "Ġpuls": 3034,
      "Ġferromagnetic": 3035,
      "ging": 3036,
      "âĪ¥": 3037,
      "Î¦": 3038,
      "Ġexhibits": 3039,
      "Ġsetup": 3040,
      "ĠÂ°": 3041,
      "Ġpreviously": 3042,
      "Ġvers": 3043,
      "2016": 3044,
      "43": 3045,
      "Ġture": 3046,
      "47": 3047,
      "ĠYu": 3048,
      "Ġtor": 3049,
      "rents": 3050,
      "ĠAC": 3051,
      "Ġsolutions": 3052,
      "Ġ28": 3053,
      "Ġsufficient": 3054,
      "95": 3055,
      "pped": 3056,
      "sip": 3057,
      "Ġplate": 3058,
      "ĠPt": 3059,
      "Ġtest": 3060,
      "Ġplotted": 3061,
      "ĠTechnology": 3062,
      "Ġear": 3063,
      "06": 3064,
      "oi": 3065,
      "Ġweight": 3066,
      "Ġindicating": 3067,
      "az": 3068,
      "Ġlatter": 3069,
      "MD": 3070,
      "Ġjunctions": 3071,
      "Ġstri": 3072,
      "pendicular": 3073,
      "Ġorientation": 3074,
      "way": 3075,
      "ĠGu": 3076,
      "2019": 3077,
      "Mn": 3078,
      "Ġprog": 3079,
      "ĠSOC": 3080,
      "ĠThen": 3081,
      "reshold": 3082,
      "Ġheterostructure": 3083,
      "ansion": 3084,
      "Ġnecess": 3085,
      "Ġgrown": 3086,
      "AL": 3087,
      "ĠCooper": 3088,
      "ĠMg": 3089,
      "Ġdegener": 3090,
      "let": 3091,
      "Ġhol": 3092,
      "Ġseries": 3093,
      "ĠFirst": 3094,
      "Ġkine": 3095,
      "Ġradius": 3096,
      "ĠCent": 3097,
      "Ġpolymer": 3098,
      "Ġlater": 3099,
      "Ġ27": 3100,
      "111": 3101,
      "ified": 3102,
      "Ġrotation": 3103,
      "Ġapplication": 3104,
      "2015": 3105,
      "NO": 3106,
      "://": 3107,
      "42": 3108,
      "âĪŀ": 3109,
      "Ġcarried": 3110,
      "aboratory": 3111,
      "oelectric": 3112,
      "Ġest": 3113,
      "Ġcontinuous": 3114,
      "max": 3115,
      "Ġapproximately": 3116,
      "uum": 3117,
      "ĠEngineering": 3118,
      "ĠâĪĪ": 3119,
      "uter": 3120,
      "rates": 3121,
      "Ġdetection": 3122,
      "Ġadj": 3123,
      "plet": 3124,
      "Ġprovided": 3125,
      "ĠâĪŀ": 3126,
      "Ġdecay": 3127,
      "jection": 3128,
      "matic": 3129,
      "Ġgraph": 3130,
      "Ġopposite": 3131,
      "Ġdiameter": 3132,
      "Ġtechniques": 3133,
      "ĠUSA": 3134,
      "edu": 3135,
      "ah": 3136,
      "46": 3137,
      "Ġ23": 3138,
      "Ġshowing": 3139,
      "Ġindivid": 3140,
      "Ġfabrication": 3141,
      "Ġrest": 3142,
      "ĠMoS": 3143,
      "bal": 3144,
      "Ġclos": 3145,
      "Ġtarget": 3146,
      "Ġmetas": 3147,
      "Ġsitu": 3148,
      "Ġabsence": 3149,
      "pole": 3150,
      "inning": 3151,
      "Ġenhancement": 3152,
      "Ġperpendicular": 3153,
      "Ġperturb": 3154,
      "Ġpotenti": 3155,
      "Ġconfigurations": 3156,
      "Ġultra": 3157,
      "Ġrequire": 3158,
      "Ġalgor": 3159,
      "ised": 3160,
      "Ġwrit": 3161,
      "Ġexpansion": 3162,
      "Ġimaging": 3163,
      "Ġanother": 3164,
      "Ġvib": 3165,
      "Ġdiscre": 3166,
      "Ġpropor": 3167,
      "Ġcirc": 3168,
      "Ġpor": 3169,
      "ety": 3170,
      "Ġskyrmion": 3171,
      "Ġefficient": 3172,
      "Ġbecome": 3173,
      "Ġhtt": 3174,
      "ganic": 3175,
      "rack": 3176,
      "Ġinfluence": 3177,
      "mann": 3178,
      "unc": 3179,
      "Ġprec": 3180,
      "rystall": 3181,
      "bers": 3182,
      "Ġappears": 3183,
      "lished": 3184,
      "sian": 3185,
      "Ġder": 3186,
      "Ġrecently": 3187,
      "Ġdeveloped": 3188,
      "Ġimpurity": 3189,
      "2020": 3190,
      "Ġ45": 3191,
      "ĠFeSe": 3192,
      "Ġinvestigate": 3193,
      "AS": 3194,
      "Ġchall": 3195,
      "oring": 3196,
      "Ġtypes": 3197,
      "48": 3198,
      "Ġcub": 3199,
      "fect": 3200,
      "Ġcooling": 3201,
      "NR": 3202,
      "Ġacoustic": 3203,
      "Ġlowest": 3204,
      "Ġutil": 3205,
      "âĬ¥": 3206,
      "Ġ150": 3207,
      "Ġrough": 3208,
      "Ġnit": 3209,
      "Ġvalence": 3210,
      "arge": 3211,
      "Ġdisloc": 3212,
      "opping": 3213,
      "Ġactive": 3214,
      "Ġtrain": 3215,
      "Ġpositions": 3216,
      "Ġreflect": 3217,
      "ĠTC": 3218,
      "rees": 3219,
      "ĠCDW": 3220,
      "41": 3221,
      "ĠTHz": 3222,
      "phase": 3223,
      "Ġrecon": 3224,
      "lock": 3225,
      "ĠÌĩ": 3226,
      "reg": 3227,
      "oli": 3228,
      "Ġsoft": 3229,
      "Ġdisplay": 3230,
      "Ġdepos": 3231,
      "Ġachieve": 3232,
      "Ġthreshold": 3233,
      "ica": 3234,
      "Ġampli": 3235,
      "ĠYang": 3236,
      "Ġsatur": 3237,
      "Ġprep": 3238,
      "Ġvor": 3239,
      "Ġhard": 3240,
      "amental": 3241,
      "ĠSI": 3242,
      "Ġï£´": 3243,
      "ĠAcc": 3244,
      "Ġvs": 3245,
      "Ġindicated": 3246,
      "ubb": 3247,
      "Ġdissip": 3248,
      "hesis": 3249,
      "ĠPar": 3250,
      "Ġgeneration": 3251,
      "eff": 3252,
      "Ġgu": 3253,
      "Ġsusceptibility": 3254,
      "Ġdat": 3255,
      "Ġderived": 3256,
      "Ġfinding": 3257,
      "ingly": 3258,
      "De": 3259,
      "Ġcle": 3260,
      "ĠFour": 3261,
      "Ġimpact": 3262,
      "ĠSimilar": 3263,
      "ymmetry": 3264,
      "TS": 3265,
      "Ġcontrib": 3266,
      "Ġrise": 3267,
      "right": 3268,
      "Ġtens": 3269,
      "Ġcat": 3270,
      "phonon": 3271,
      "Ġpatterns": 3272,
      "ariant": 3273,
      "ĠCe": 3274,
      "Ġair": 3275,
      "Ġlocalized": 3276,
      "ctions": 3277,
      "kely": 3278,
      "ĠAdv": 3279,
      "ĠEF": 3280,
      "Ġproject": 3281,
      "Ġproxim": 3282,
      ")(": 3283,
      "agonal": 3284,
      "Ġsensitivity": 3285,
      "Ġangular": 3286,
      "ening": 3287,
      "Ġextre": 3288,
      "Ġemit": 3289,
      "ĠBCS": 3290,
      "BT": 3291,
      "omogeneous": 3292,
      "Ġ29": 3293,
      "Ġchosen": 3294,
      "Ġdisplacement": 3295,
      "Ġsatis": 3296,
      "LS": 3297,
      "comp": 3298,
      "Ġtren": 3299,
      "ĠKim": 3300,
      "ĠAlthough": 3301,
      ".)": 3302,
      "ched": 3303,
      "Ġtake": 3304,
      "Ġgain": 3305,
      "âĢ²,": 3306,
      "Ġfabricated": 3307,
      "Ġnano": 3308,
      "ĠïĢŃ": 3309,
      "Ġcrystalline": 3310,
      "Ġdescribe": 3311,
      "ynamic": 3312,
      "Ġhen": 3313,
      "Ġnormalized": 3314,
      "Ġunc": 3315,
      "Ġestimate": 3316,
      "Ġlear": 3317,
      "oy": 3318,
      "ground": 3319,
      "Ġexcitations": 3320,
      "Ġirradi": 3321,
      "Ġresonant": 3322,
      "Ġaccuracy": 3323,
      "AR": 3324,
      "ĠGreen": 3325,
      "ulated": 3326,
      "Ġcharacterized": 3327,
      "rations": 3328,
      "arrow": 3329,
      "Ġtreat": 3330,
      "ĠMic": 3331,
      "Ġrelevant": 3332,
      ")).": 3333,
      "aries": 3334,
      "Ġintroduced": 3335,
      "PT": 3336,
      "ĠML": 3337,
      "ĠComm": 3338,
      "ĠLee": 3339,
      "Ġvacuum": 3340,
      "08": 3341,
      "Ïīn": 3342,
      "ENT": 3343,
      "Ġmemb": 3344,
      "ĠDOS": 3345,
      "49": 3346,
      "Ġobservation": 3347,
      "Ġinsulator": 3348,
      "110": 3349,
      "PC": 3350,
      "Ġrepl": 3351,
      "IC": 3352,
      "ĠdB": 3353,
      "Ġhence": 3354,
      "Ġsucc": 3355,
      "ĠAc": 3356,
      "Ġoverall": 3357,
      "xx": 3358,
      "Ġheating": 3359,
      "ĠExperiment": 3360,
      "Ġprim": 3361,
      "Ġcond": 3362,
      "ways": 3363,
      "Ġextracted": 3364,
      "Ġconsequ": 3365,
      "Ġplat": 3366,
      "lin": 3367,
      "Ġdepic": 3368,
      "Ġnanopar": 3369,
      "Ġbuil": 3370,
      "wo": 3371,
      "lective": 3372,
      "Ġapproaches": 3373,
      "tered": 3374,
      "Ġcoordin": 3375,
      "Ġanisotropic": 3376,
      "Ġï£¬": 3377,
      "ano": 3378,
      "Ġdetailed": 3379,
      "Ġï£·": 3380,
      "Ġmem": 3381,
      "Ġcarriers": 3382,
      "Ġenti": 3383,
      "Ġelectrodes": 3384,
      "och": 3385,
      "Ġkey": 3386,
      "Ġsubstit": 3387,
      "Ġess": 3388,
      "MI": 3389,
      "Ġarray": 3390,
      "Ġoverl": 3391,
      "ĠDepartment": 3392,
      "Ġobserv": 3393,
      "Ġnext": 3394,
      "Pb": 3395,
      "Ġassume": 3396,
      "Ġdistinct": 3397,
      "Ġser": 3398,
      "Ġcurrents": 3399,
      "Ġslow": 3400,
      "Ġenc": 3401,
      "Ġcapacit": 3402,
      "Ġsuggests": 3403,
      "cont": 3404,
      "ko": 3405,
      "ĠCs": 3406,
      "Ġinvol": 3407,
      "Ġspeed": 3408,
      "iss": 3409,
      "Ġstra": 3410,
      "Ġvertical": 3411,
      "Ġequivalent": 3412,
      "Ġfinal": 3413,
      "Ġtext": 3414,
      "Ġsharp": 3415,
      "ĠâĢĺ": 3416,
      "ird": 3417,
      "ĠTak": 3418,
      "Ġoperator": 3419,
      "ulomb": 3420,
      "agneti": 3421,
      "Ġmaxim": 3422,
      "Ġsuperfluid": 3423,
      "ples": 3424,
      "istry": 3425,
      "Ġestab": 3426,
      "air": 3427,
      "atically": 3428,
      "Ġoperation": 3429,
      "Ms": 3430,
      "Ġwire": 3431,
      "any": 3432,
      "ework": 3433,
      "NN": 3434,
      "Ġmake": 3435,
      "ï¿½ï¿½ï¿½ï¿½": 3436,
      "peri": 3437,
      "light": 3438,
      "Ġcoherence": 3439,
      "Ġintegrated": 3440,
      "SR": 3441,
      "Ġneutron": 3442,
      "Ġenvironment": 3443,
      "Ġmicroscopy": 3444,
      "(âĪĴ": 3445,
      "loys": 3446,
      "inc": 3447,
      "Ġindividual": 3448,
      "Ġ*": 3449,
      "ĠEqs": 3450,
      "Ġreach": 3451,
      "Ġcomputed": 3452,
      "64": 3453,
      "isms": 3454,
      "MO": 3455,
      "entioned": 3456,
      "ĠIm": 3457,
      "Ġâīª": 3458,
      "awa": 3459,
      "Ġdynamic": 3460,
      "Ġiron": 3461,
      "hest": 3462,
      "Ġderiv": 3463,
      "har": 3464,
      "zz": 3465,
      "Ġheight": 3466,
      "aussian": 3467,
      "adi": 3468,
      "Ġacti": 3469,
      "Ç«": 3470,
      "Ġcertain": 3471,
      "ĠMar": 3472,
      "onons": 3473,
      "Ġsymmetric": 3474,
      "Ġscheme": 3475,
      "2014": 3476,
      "Ġackn": 3477,
      "Ġfundamental": 3478,
      "Ġemployed": 3479,
      "utes": 3480,
      "67": 3481,
      "Ġrates": 3482,
      "ĠHence": 3483,
      "Ġvisible": 3484,
      "ĠZn": 3485,
      "Ġresi": 3486,
      "Ġbey": 3487,
      "Ġsolar": 3488,
      "Ġmetals": 3489,
      "uture": 3490,
      "Ġbeyond": 3491,
      "Ġbran": 3492,
      "Ġrob": 3493,
      "DF": 3494,
      "ision": 3495,
      "ras": 3496,
      "Ge": 3497,
      "Ġdx": 3498,
      "Ġchain": 3499,
      "Ġrepro": 3500,
      "Ġnam": 3501,
      "Ġsignals": 3502,
      "Ġnarrow": 3503,
      "yd": 3504,
      "zero": 3505,
      "Ġspac": 3506,
      "Ġrequires": 3507,
      "function": 3508,
      "Ġbilayer": 3509,
      "ĠLetters": 3510,
      "ready": 3511,
      "TO": 3512,
      "strates": 3513,
      "Ġsynthe": 3514,
      "ba": 3515,
      "ĠMon": 3516,
      "Ġnucle": 3517,
      "Ġunits": 3518,
      "Ġedges": 3519,
      "Ġcombination": 3520,
      "Ġmight": 3521,
      "olar": 3522,
      "íĳ": 3523,
      "idd": 3524,
      "ults": 3525,
      "Ġdeformation": 3526,
      "ference": 3527,
      "Ġgre": 3528,
      "ura": 3529,
      "Ġconstants": 3530,
      "Ġattributed": 3531,
      "unic": 3532,
      "very": 3533,
      "Ġaltern": 3534,
      "ĠAppl": 3535,
      "Ġâīĥ": 3536,
      "Ġpropagation": 3537,
      "Ġable": 3538,
      "Ġexcited": 3539,
      "Î¨": 3540,
      "ĠCO": 3541,
      "Ġframework": 3542,
      "Ġferroelectric": 3543,
      "Ġentire": 3544,
      "ĠCoulomb": 3545,
      "Ġfactors": 3546,
      "Ġiden": 3547,
      "Ġproportional": 3548,
      "SS": 3549,
      "Ġwhose": 3550,
      "Ġlab": 3551,
      "Ġmir": 3552,
      "Ġlikely": 3553,
      "Ġment": 3554,
      "Ġcondens": 3555,
      "Ġstatic": 3556,
      "Ġsemiconductor": 3557,
      "Ġshowed": 3558,
      "equ": 3559,
      "Ġbest": 3560,
      "je": 3561,
      "Ġhex": 3562,
      "Ġcost": 3563,
      "Ġshear": 3564,
      "Ġscreen": 3565,
      "ĠCal": 3566,
      "lattice": 3567,
      "ĠApplied": 3568,
      "Ġgive": 3569,
      "ights": 3570,
      "Ġscaling": 3571,
      "Ġsum": 3572,
      "ami": 3573,
      "Ġscanning": 3574,
      "point": 3575,
      "ĠHigh": 3576,
      "000": 3577,
      "Ġconstruct": 3578,
      "PL": 3579,
      "Ġsimulated": 3580,
      "Ġamount": 3581,
      "Ġdimensions": 3582,
      "Ġsubstrates": 3583,
      "Ġgreen": 3584,
      "Ġorth": 3585,
      "Ġbreaking": 3586,
      "Ġcorrelations": 3587,
      "Ġti": 3588,
      "erge": 3589,
      "63": 3590,
      "Ġalready": 3591,
      "Ġnearly": 3592,
      "ao": 3593,
      "urg": 3594,
      "Ġsteps": 3595,
      "Ġoptimization": 3596,
      "Ġconsidering": 3597,
      "Ġperovskite": 3598,
      "itudes": 3599,
      "ography": 3600,
      "Ġinversion": 3601,
      "/(": 3602,
      "Pt": 3603,
      "Ġhopping": 3604,
      "Ġspot": 3605,
      "arent": 3606,
      "Ġphonons": 3607,
      "lig": 3608,
      "ĠWu": 3609,
      "ĠCor": 3610,
      "Ġpen": 3611,
      "era": 3612,
      "blue": 3613,
      "ateri": 3614,
      "Ġmembran": 3615,
      "ĠFourier": 3616,
      "ĠAR": 3617,
      "Ġorders": 3618,
      "kov": 3619,
      "ĠPC": 3620,
      "Ġquad": 3621,
      "Ġcontrolled": 3622,
      "Ġextended": 3623,
      "Nb": 3624,
      "Ġinterfaces": 3625,
      "illou": 3626,
      "Ġvarying": 3627,
      "ĠDes": 3628,
      "%)": 3629,
      "Ġqual": 3630,
      "Ġtrend": 3631,
      "ĠMater": 3632,
      "Ġyields": 3633,
      "Ġanten": 3634,
      "ĠNew": 3635,
      "Ġadsor": 3636,
      "Ġbackground": 3637,
      ");": 3638,
      "illouin": 3639,
      "Ġnematic": 3640,
      "Ġassumed": 3641,
      "AC": 3642,
      "ĠDis": 3643,
      "ken": 3644,
      "ĠLaboratory": 3645,
      "Ġcuprates": 3646,
      "Ġamb": 3647,
      "Ġlocated": 3648,
      "CP": 3649,
      "Ġacqu": 3650,
      "Ġlaw": 3651,
      "Ġarrow": 3652,
      "Ġthermod": 3653,
      "Ġcubic": 3654,
      "Ġln": 3655,
      "Ġtoget": 3656,
      "Ġtogether": 3657,
      "Ġannealing": 3658,
      "Ġinclude": 3659,
      "Ġalloy": 3660,
      "Ġdimensional": 3661,
      "iang": 3662,
      "ĠÎĽ": 3663,
      "Ġformula": 3664,
      "Ġtransformation": 3665,
      "Ġboundaries": 3666,
      "Ġresonators": 3667,
      "enari": 3668,
      "Ġdriven": 3669,
      "UC": 3670,
      "cence": 3671,
      "Mo": 3672,
      "IN": 3673,
      "ans": 3674,
      "Ġ1000": 3675,
      "Ġexam": 3676,
      "itz": 3677,
      "Ġliterature": 3678,
      "section": 3679,
      "Department": 3680,
      "Ġhttps": 3681,
      "ĠXu": 3682,
      "Ġatten": 3683,
      "66": 3684,
      "ense": 3685,
      "ake": 3686,
      "Ġplasma": 3687,
      "oto": 3688,
      "cons": 3689,
      "Ġpie": 3690,
      "Ġnodes": 3691,
      "Ġ70": 3692,
      "Ġ32": 3693,
      "Ġdifferences": 3694,
      "ruction": 3695,
      "orth": 3696,
      "vent": 3697,
      "Ġeasi": 3698,
      "ĠBrillouin": 3699,
      "Ġonto": 3700,
      "BM": 3701,
      "Ġcorrelated": 3702,
      "ĠâĢł": 3703,
      "ĠInformation": 3704,
      "Ġhighest": 3705,
      "Ġoptimal": 3706,
      "Ġplatform": 3707,
      "agnet": 3708,
      "ĠPl": 3709,
      "aged": 3710,
      "hip": 3711,
      "Ġill": 3712,
      "Ġanomalous": 3713,
      "ĠMethod": 3714,
      "ei": 3715,
      "Ġmes": 3716,
      "Ġscenari": 3717,
      "Ëĩ": 3718,
      "ĠSciences": 3719,
      "Ġinternal": 3720,
      "ĠFM": 3721,
      "rary": 3722,
      "ometer": 3723,
      "umin": 3724,
      "Ġmel": 3725,
      "Ġdeposited": 3726,
      "ski": 3727,
      "54": 3728,
      "Ġadvant": 3729,
      "Ġspec": 3730,
      "pid": 3731,
      "Ġstabil": 3732,
      "Ġdegree": 3733,
      "ĠÎ£": 3734,
      "Ġvortices": 3735,
      "Ġcolor": 3736,
      "ung": 3737,
      "rogen": 3738,
      "current": 3739,
      "ĠâĪĿ": 3740,
      "Ġcomputational": 3741,
      "Ġdiffic": 3742,
      "Ġexpressed": 3743,
      "Ġlink": 3744,
      "Ġwritten": 3745,
      "rystalline": 3746,
      "Ġregard": 3747,
      "Ġcaused": 3748,
      "ĠTop": 3749,
      "Ġaris": 3750,
      "Ġunderstanding": 3751,
      "PD": 3752,
      "thesis": 3753,
      "Ġpulses": 3754,
      "AN": 3755,
      "vities": 3756,
      "Ġseparation": 3757,
      "03": 3758,
      "ani": 3759,
      "ĠRep": 3760,
      "Ġcapture": 3761,
      "ĠGaussian": 3762,
      "2012": 3763,
      "cipro": 3764,
      "Ġimped": 3765,
      "Ġrecord": 3766,
      "aly": 3767,
      "ĠAm": 3768,
      "Ġbehaviour": 3769,
      "rig": 3770,
      "57": 3771,
      "Ġtraining": 3772,
      "Ġmechanisms": 3773,
      ")].": 3774,
      "âŁ¨": 3775,
      "Ġinteresting": 3776,
      "uting": 3777,
      "space": 3778,
      "ĠPer": 3779,
      "Ġoscillations": 3780,
      "wise": 3781,
      "Ġrobust": 3782,
      "fold": 3783,
      "Ġinterp": 3784,
      "Ġoften": 3785,
      "Ġpock": 3786,
      "Ġprobability": 3787,
      "Ġmainly": 3788,
      "Ġphotonic": 3789,
      "scale": 3790,
      "Ġconnected": 3791,
      "Ġreduce": 3792,
      "Ġtriang": 3793,
      "Ġangles": 3794,
      "icit": 3795,
      "Ġmajor": 3796,
      "Ġalways": 3797,
      "Ġfuture": 3798,
      "eres": 3799,
      "Ġtend": 3800,
      "Ġdetector": 3801,
      "Ġisol": 3802,
      "Ġcru": 3803,
      "Ġdamp": 3804,
      "Ġpromis": 3805,
      "Ġget": 3806,
      "conducting": 3807,
      "ĠCol": 3808,
      "Ġamong": 3809,
      "frequency": 3810,
      "Ġrapid": 3811,
      "Ġalgorithm": 3812,
      "Ġsuccess": 3813,
      "ĠRF": 3814,
      "Ġpack": 3815,
      "arest": 3816,
      "68": 3817,
      "Ġillustrated": 3818,
      "QU": 3819,
      "ached": 3820,
      "ission": 3821,
      "Ġexciton": 3822,
      "Ġnodal": 3823,
      "ĠLo": 3824,
      "ĠEqu": 3825,
      "ĠSm": 3826,
      "Ġleast": 3827,
      "Ġideal": 3828,
      "MC": 3829,
      "Ġwind": 3830,
      "ĠDC": 3831,
      "Ġlife": 3832,
      "PES": 3833,
      "Ġdiffus": 3834,
      "ĠTan": 3835,
      "ĠMatter": 3836,
      "Ġinstead": 3837,
      "Ġholes": 3838,
      "ĠGi": 3839,
      "por": 3840,
      "Ġrepe": 3841,
      "Ġnovel": 3842,
      "Ġoxid": 3843,
      "Ġplaced": 3844,
      "Ġquasiparticle": 3845,
      "Ġidentical": 3846,
      "Ġodd": 3847,
      "Ġtypically": 3848,
      "Ġlay": 3849,
      "Ġthough": 3850,
      "Ġdescription": 3851,
      "Ġmobility": 3852,
      "pite": 3853,
      "Ġcompare": 3854,
      "Ġtransverse": 3855,
      "Ġlonger": 3856,
      "Ġordering": 3857,
      "Ġnumbers": 3858,
      "Ġextra": 3859,
      "Ġlearning": 3860,
      "ĠDue": 3861,
      "Ġphenomena": 3862,
      "Ġwid": 3863,
      "ĠMHz": 3864,
      "Ġchannels": 3865,
      "gest": 3866,
      "âĢĶ": 3867,
      "Ġcoherent": 3868,
      "Ġfluid": 3869,
      "2013": 3870,
      "hole": 3871,
      "DE": 3872,
      "87": 3873,
      "Ġavoid": 3874,
      "ĠCur": 3875,
      "eler": 3876,
      "Ġbandgap": 3877,
      "Ġtuning": 3878,
      "conductivity": 3879,
      "Ġhaving": 3880,
      "ols": 3881,
      "Ġdomains": 3882,
      "static": 3883,
      "Ġalloys": 3884,
      "ĠHz": 3885,
      "mediate": 3886,
      "Ġ120": 3887,
      "Ġdominant": 3888,
      "ubbard": 3889,
      "cos": 3890,
      "Ġsequ": 3891,
      "ĠSolid": 3892,
      "Ġexistence": 3893,
      "¸=": 3894,
      "Ġdefine": 3895,
      "Ġdesigned": 3896,
      "Ġqualit": 3897,
      "Ġdensities": 3898,
      "Ġreview": 3899,
      "Ġ37": 3900,
      "ĠTemperature": 3901,
      "Ġkx": 3902,
      "ĠïĢ«": 3903,
      "Ġintegration": 3904,
      "fully": 3905,
      "Ġpic": 3906,
      "88": 3907,
      "Ġbandwidth": 3908,
      "RS": 3909,
      "Ġ).": 3910,
      "ask": 3911,
      "Ġcontent": 3912,
      "Ġrefer": 3913,
      "SION": 3914,
      "cei": 3915,
      "TiO": 3916,
      "ĠBar": 3917,
      "Ġfast": 3918,
      "Ġcomparable": 3919,
      "Ġreport": 3920,
      "Ġevidence": 3921,
      "Ġversus": 3922,
      "Ġinfin": 3923,
      "dx": 3924,
      "iles": 3925,
      "Ġlith": 3926,
      "arily": 3927,
      "ºï£": 3928,
      "¯ï£": 3929,
      "2021": 3930,
      "Ġrepresentation": 3931,
      "ĠBoth": 3932,
      "Ġproperty": 3933,
      "Ġcharacterization": 3934,
      "ĠTrans": 3935,
      "uchi": 3936,
      "ĠNV": 3937,
      "dual": 3938,
      "pecially": 3939,
      "RI": 3940,
      "Ġthird": 3941,
      "Ġmakes": 3942,
      "Ġ#": 3943,
      "Ġseg": 3944,
      "ĠCenter": 3945,
      "Ġidentified": 3946,
      "aki": 3947,
      "Ġeigenval": 3948,
      "Ġfiber": 3949,
      "Ġspins": 3950,
      "Ġmoments": 3951,
      "ta": 3952,
      "Ġpowder": 3953,
      "Ġdevelopment": 3954,
      "Ġprepared": 3955,
      "Ġdone": 3956,
      "hao": 3957,
      "Ġconclusion": 3958,
      "56": 3959,
      "Ġfav": 3960,
      "sized": 3961,
      "ĠZe": 3962,
      "Ġij": 3963,
      "ĠSte": 3964,
      "ube": 3965,
      "Ġfollowed": 3966,
      ".(": 3967,
      "Ġalthough": 3968,
      "Ġsensitive": 3969,
      "Ġpp": 3970,
      "Ġinvariant": 3971,
      "oriz": 3972,
      "Ġsuggest": 3973,
      "ĠIntro": 3974,
      "PE": 3975,
      "Ġnanowire": 3976,
      "ĠMagnetic": 3977,
      "DOS": 3978,
      "Ġcentral": 3979,
      "Ġenough": 3980,
      "Ġgaps": 3981,
      "Ġreconst": 3982,
      "ĠAddition": 3983,
      "consist": 3984,
      "CL": 3985,
      "ĠZr": 3986,
      "Ġdipole": 3987,
      "Ġselected": 3988,
      "Ġamorph": 3989,
      "Ġaway": 3990,
      "Ġpromising": 3991,
      "Ġsets": 3992,
      "Ġdeviation": 3993,
      "vated": 3994,
      "Ġbinding": 3995,
      "ĠNd": 3996,
      "umption": 3997,
      "ishing": 3998,
      "Ġsubsequ": 3999,
      "Ru": 4000,
      "ĠInte": 4001,
      "Ġperfect": 4002,
      "Ġscales": 4003,
      "Ġwhat": 4004,
      "Ġnecessary": 4005,
      "ĠTwo": 4006,
      "Ġcapacity": 4007,
      "Ġtakes": 4008,
      "Ġoriginal": 4009,
      "ĠRecent": 4010,
      "osh": 4011,
      "wh": 4012,
      "Ġanalog": 4013,
      "Î¼m": 4014,
      "Ġexplained": 4015,
      "trivial": 4016,
      "Ġidentify": 4017,
      "Ġconsists": 4018,
      "Ġcrack": 4019,
      "Ġpers": 4020,
      "ara": 4021,
      "Ġdetected": 4022,
      "Ġunique": 4023,
      "Ġcand": 4024,
      "Ġfermions": 4025,
      "ĠState": 4026,
      "Ġconfirm": 4027,
      "gence": 4028,
      "Ġring": 4029,
      "Ġri": 4030,
      "53": 4031,
      "ĠâĹı": 4032,
      "Ġpenet": 4033,
      "site": 4034,
      "Ġincor": 4035,
      "Ġsti": 4036,
      "Ġgrating": 4037,
      "Ġdenotes": 4038,
      "Ġarg": 4039,
      "Ġsuppressed": 4040,
      "Ġworks": 4041,
      "Ġkinetic": 4042,
      "Ġsummar": 4043,
      "dis": 4044,
      "ĠOr": 4045,
      "Ġproximity": 4046,
      "ĠAccording": 4047,
      "07": 4048,
      "Ġsimultaneous": 4049,
      "Ġsmo": 4050,
      "Ġpossibility": 4051,
      "Ġanalytical": 4052,
      "SE": 4053,
      "andau": 4054,
      "Ġmedium": 4055,
      "ĠThey": 4056,
      "ript": 4057,
      "ĠInter": 4058,
      "Ġinverse": 4059,
      "edom": 4060,
      "IG": 4061,
      "doi": 4062,
      "Ġcop": 4063,
      "Ġexplicit": 4064,
      "Ġgenerally": 4065,
      "Ġinsulating": 4066,
      "ĠSub": 4067,
      "Ġjust": 4068,
      "Ġtransmit": 4069,
      "orizon": 4070,
      "lier": 4071,
      "ĠÎ¶": 4072,
      "Ġveri": 4073,
      "Ġrealized": 4074,
      "âĨĴ": 4075,
      "ĠSpin": 4076,
      "Ġambient": 4077,
      "cta": 4078,
      "ligible": 4079,
      "ĠPe": 4080,
      "rite": 4081,
      "Ġprac": 4082,
      "Ġprediction": 4083,
      "52": 4084,
      "Ġmorph": 4085,
      "inement": 4086,
      "Ġconclu": 4087,
      "Ġmixed": 4088,
      "ĠâĪĩ": 4089,
      "chanical": 4090,
      "Ġuseful": 4091,
      "ĠSiO": 4092,
      "Ġproduct": 4093,
      "Ġeff": 4094,
      "Ġmap": 4095,
      "Ġapplying": 4096,
      "Ġcurv": 4097,
      "ĠEr": 4098,
      "tering": 4099,
      "ometry": 4100,
      "Ġsensor": 4101,
      "Ġns": 4102,
      "Ġcandid": 4103,
      "rest": 4104,
      "spin": 4105,
      "Ġfreedom": 4106,
      "ware": 4107,
      "ĠCont": 4108,
      "Ġadv": 4109,
      "ĠSo": 4110,
      "Ġimplies": 4111,
      "58": 4112,
      "69": 4113,
      "Ġaccurate": 4114,
      "Ġmirror": 4115,
      "Ġstatis": 4116,
      "inter": 4117,
      "kx": 4118,
      "ĠMaterial": 4119,
      "elastic": 4120,
      "Ġsimpli": 4121,
      "Ġcombined": 4122,
      "Ġconversion": 4123,
      "ĠNon": 4124,
      "rors": 4125,
      "Ġinduct": 4126,
      "VD": 4127,
      "Ġgenerate": 4128,
      "%,": 4129,
      "with": 4130,
      "atch": 4131,
      "Ġeasily": 4132,
      "Ġdriving": 4133,
      "ancies": 4134,
      "Ġparam": 4135,
      "Ġisotrop": 4136,
      "ropy": 4137,
      "ĠMO": 4138,
      "tron": 4139,
      "Ġdecreasing": 4140,
      "Ġpolarized": 4141,
      "Ġclassical": 4142,
      "Ġdatas": 4143,
      "Sr": 4144,
      "ned": 4145,
      "âĢ²âĢ²": 4146,
      "Ġones": 4147,
      "Ġsubst": 4148,
      "Ġfitted": 4149,
      "tle": 4150,
      "Ġgreat": 4151,
      "Ġcounter": 4152,
      "cor": 4153,
      "entially": 4154,
      "2010": 4155,
      "Ġinstance": 4156,
      "ocal": 4157,
      "reev": 4158,
      "Ġplanes": 4159,
      "Ġky": 4160,
      "ride": 4161,
      "Ġdistor": 4162,
      "EF": 4163,
      "Ġagainst": 4164,
      "ĠPaul": 4165,
      "ĠInde": 4166,
      "Ġvectors": 4167,
      "Ġrelationship": 4168,
      "Ġduct": 4169,
      "Ġpop": 4170,
      "Ġtensor": 4171,
      "Ġlast": 4172,
      "af": 4173,
      "lope": 4174,
      "Ġferrom": 4175,
      "Ġepit": 4176,
      "ĠWeyl": 4177,
      "ĠTs": 4178,
      "IR": 4179,
      "Ġimpedance": 4180,
      "Ġps": 4181,
      "âĪĩ": 4182,
      "Ġinterfac": 4183,
      "Ġbonds": 4184,
      "Ġsynthesis": 4185,
      "ĠIntroduction": 4186,
      "Ġarbit": 4187,
      "Ġconfirmed": 4188,
      "yz": 4189,
      "semb": 4190,
      "Ġmodified": 4191,
      "Ġhelp": 4192,
      "Ġdiagonal": 4193,
      "Ġprinciple": 4194,
      "io": 4195,
      "Ġclean": 4196,
      "Ġglo": 4197,
      "ita": 4198,
      "ĠPo": 4199,
      "Ġlosses": 4200,
      "Ġwhether": 4201,
      "Ġcomplete": 4202,
      "Ġsuit": 4203,
      "2011": 4204,
      "Ġquite": 4205,
      "Ġplay": 4206,
      "62": 4207,
      "tition": 4208,
      "Ġ(âĪĴ": 4209,
      "Ġstrate": 4210,
      "Ġcurvature": 4211,
      "Ġmac": 4212,
      "Ġtem": 4213,
      "Ġru": 4214,
      "Br": 4215,
      "Ġusually": 4216,
      "bed": 4217,
      "mod": 4218,
      "Ġmodulus": 4219,
      "Ġpotentials": 4220,
      "Ġinterlayer": 4221,
      "GA": 4222,
      "Ġantiferromagnetic": 4223,
      "Ġ38": 4224,
      "Cr": 4225,
      "Ġcyl": 4226,
      "eter": 4227,
      "ns": 4228,
      "Ġprocessing": 4229,
      "ĠCond": 4230,
      "IT": 4231,
      "Ġparts": 4232,
      "Ġrespon": 4233,
      "Ġ600": 4234,
      "Ġoptimized": 4235,
      "Ġincluded": 4236,
      "ĠHuang": 4237,
      "Ġintermediate": 4238,
      "Ġreduces": 4239,
      "SM": 4240,
      "77": 4241,
      "ĠQD": 4242,
      "hedral": 4243,
      "free": 4244,
      "Ġclassi": 4245,
      "Ġnearest": 4246,
      "Ġmatter": 4247,
      "Ġdim": 4248,
      "QUID": 4249,
      "Ġtriplet": 4250,
      "cule": 4251,
      "ĠNano": 4252,
      "ĠÎ¨": 4253,
      "Ġimaginary": 4254,
      "Ġtransi": 4255,
      "Ġimpurities": 4256,
      "ured": 4257,
      "ĠMc": 4258,
      "ĠGra": 4259,
      "Ġ33": 4260,
      "ords": 4261,
      "Ġslope": 4262,
      "Ġsemimet": 4263,
      "ĠCl": 4264,
      "ada": 4265,
      "anding": 4266,
      "Ġdrive": 4267,
      "Ġdegrees": 4268,
      "DA": 4269,
      "igg": 4270,
      "Ġcomplet": 4271,
      "Ġcontains": 4272,
      "Ġ75": 4273,
      "amples": 4274,
      "Ġintegral": 4275,
      "Ġmentioned": 4276,
      "ologies": 4277,
      "Ġdepending": 4278,
      "Ġelectroly": 4279,
      "Ġdepicted": 4280,
      "Ġdark": 4281,
      "auge": 4282,
      "local": 4283,
      "Ġcros": 4284,
      "ĠFu": 4285,
      "Ġsizes": 4286,
      "Ġensure": 4287,
      "col": 4288,
      "Ġdeep": 4289,
      "Ġneeded": 4290,
      "Ġintroduce": 4291,
      "ĠHubbard": 4292,
      "Ġconstit": 4293,
      "Ġwhole": 4294,
      "Ġevaluated": 4295,
      "ĠHc": 4296,
      "Ġinh": 4297,
      "Ġamorphous": 4298,
      "Ġcircular": 4299,
      "Ġchoice": 4300,
      "ste": 4301,
      "Ġnanoparticles": 4302,
      "coup": 4303,
      "ĠMD": 4304,
      "ront": 4305,
      "51": 4306,
      "ĠAB": 4307,
      "ification": 4308,
      "wa": 4309,
      "Ġblock": 4310,
      "Ġcoil": 4311,
      "Ġproduced": 4312,
      "Ġrecomb": 4313,
      "Ġmetam": 4314,
      "bi": 4315,
      "Ġsymmetries": 4316,
      "Ġuncertain": 4317,
      "Ġtex": 4318,
      "inity": 4319,
      "NA": 4320,
      "acting": 4321,
      "ĠPd": 4322,
      "73": 4323,
      "ĠKey": 4324,
      "Ġ31": 4325,
      "Ġremain": 4326,
      "Ġharmonic": 4327,
      "Ġdamping": 4328,
      "Ġrenormal": 4329,
      "ordered": 4330,
      "ĠFound": 4331,
      "Ġplace": 4332,
      "Ġplanar": 4333,
      "Ġ2020": 4334,
      "Ġforces": 4335,
      "Ġincorpor": 4336,
      ")|": 4337,
      "Ġiss": 4338,
      "Ġespecially": 4339,
      "ĠWa": 4340,
      "Ġisotropic": 4341,
      "Ġplots": 4342,
      "herent": 4343,
      "Ġcontaining": 4344,
      "ept": 4345,
      "ichi": 4346,
      "Ġcorrection": 4347,
      "Ġtransl": 4348,
      "phys": 4349,
      "Ġgroups": 4350,
      "Ġirradiation": 4351,
      "Ġcompletely": 4352,
      "fically": 4353,
      "Ġnegligible": 4354,
      "Ġtil": 4355,
      "Ġionic": 4356,
      "Ġmetasurface": 4357,
      "ĠPol": 4358,
      "ĠExperimental": 4359,
      "Ġrevealed": 4360,
      "zer": 4361,
      "roscope": 4362,
      "OR": 4363,
      "Ġtreatment": 4364,
      "Ġamplitudes": 4365,
      "ĠBased": 4366,
      "rystal": 4367,
      "Ġrepresented": 4368,
      "Ġgrid": 4369,
      "Ġorganic": 4370,
      "98": 4371,
      "conventional": 4372,
      "stract": 4373,
      "ument": 4374,
      "rared": 4375,
      "alc": 4376,
      "Ġpartial": 4377,
      "mark": 4378,
      "Ġvibration": 4379,
      "rich": 4380,
      "Ġhyst": 4381,
      "ragonal": 4382,
      "Ġfeed": 4383,
      "Ġ250": 4384,
      "ĠProg": 4385,
      "ohn": 4386,
      "rior": 4387,
      "Ġprofiles": 4388,
      "Ġtre": 4389,
      "Ġpass": 4390,
      "Ġonset": 4391,
      "Ġste": 4392,
      "ĠCondens": 4393,
      "ĠGB": 4394,
      "Ġevapor": 4395,
      "Ġdiss": 4396,
      "Ġconducting": 4397,
      "Ġseparated": 4398,
      "sub": 4399,
      "Ġelec": 4400,
      "zing": 4401,
      "Ġstraight": 4402,
      "Ġwindow": 4403,
      "Ġsmooth": 4404,
      "61": 4405,
      "pr": 4406,
      "Ġdissipation": 4407,
      "ĠIndeed": 4408,
      "ĠPM": 4409,
      "Ġrepul": 4410,
      "ĠâĬ": 4411,
      "Ġdistributions": 4412,
      "Ġchallen": 4413,
      "ĠResults": 4414,
      "ruc": 4415,
      "Ġcontacts": 4416,
      "mal": 4417,
      "Ġexceed": 4418,
      "Ġrun": 4419,
      "Ġanalyzed": 4420,
      "Ġinterfacial": 4421,
      "ashba": 4422,
      "Ġsupercell": 4423,
      "Ġremark": 4424,
      "rams": 4425,
      "oscale": 4426,
      "Ġstage": 4427,
      "ciprocal": 4428,
      "apan": 4429,
      "rices": 4430,
      "Ġnoted": 4431,
      "Ġpix": 4432,
      "Ġques": 4433,
      "Ph": 4434,
      "Ġplastic": 4435,
      "ĠFran": 4436,
      "Ġjump": 4437,
      "bil": 4438,
      "amb": 4439,
      "ĠmT": 4440,
      "Ġsubstan": 4441,
      "ants": 4442,
      "Ġseem": 4443,
      "Ġheterostructures": 4444,
      "dire": 4445,
      "ellow": 4446,
      "Ġpub": 4447,
      "ĠRu": 4448,
      "Ġshifts": 4449,
      "ĠPre": 4450,
      "ĠXRD": 4451,
      "Ġantenna": 4452,
      "Ġnetic": 4453,
      "ected": 4454,
      "Ġvariations": 4455,
      "Ġhost": 4456,
      "Ġcrit": 4457,
      "Ġchip": 4458,
      "ours": 4459,
      "Ġgauge": 4460,
      "Ġimplemented": 4461,
      "ĠSun": 4462,
      "ĠAND": 4463,
      "Ġmaintain": 4464,
      "Ġnamely": 4465,
      "eman": 4466,
      "Ġtaking": 4467,
      "Ġspon": 4468,
      "Ġobservations": 4469,
      "Ġdecomp": 4470,
      "Ġaddress": 4471,
      "Ġemb": 4472,
      "raw": 4473,
      "homb": 4474,
      "Ġsensing": 4475,
      "97": 4476,
      "Fs": 4477,
      "Ġdots": 4478,
      "Ġmicroscopic": 4479,
      "aster": 4480,
      "Ġchains": 4481,
      "PR": 4482,
      "Ġordered": 4483,
      "Î£": 4484,
      "Ġsubstitution": 4485,
      "IS": 4486,
      "Ġproduce": 4487,
      "Ġhighlight": 4488,
      "Ġpredictions": 4489,
      "Ġhexagonal": 4490,
      "Ġdifferential": 4491,
      "Ġpredict": 4492,
      "Ġpicture": 4493,
      "Ġflex": 4494,
      "Ġnat": 4495,
      "Ġâī«": 4496,
      "Ġinstability": 4497,
      "DFT": 4498,
      "Ġkeep": 4499,
      "96": 4500,
      "olute": 4501,
      "kin": 4502,
      "Ġity": 4503,
      "pri": 4504,
      "Ba": 4505,
      "Ir": 4506,
      "Ġfindings": 4507,
      "LED": 4508,
      "Ġphotons": 4509,
      "iton": 4510,
      "ĠEl": 4511,
      "Ġpinning": 4512,
      "ĠMethods": 4513,
      "aped": 4514,
      "Ġnanoc": 4515,
      "ºï£ºï£": 4516,
      "ographic": 4517,
      "¯ï£¯ï£": 4518,
      "ĠâĪ¥": 4519,
      "ĠRashba": 4520,
      "ĠJapan": 4521,
      "ĠAndreev": 4522,
      "agnetism": 4523,
      "Ġloading": 4524,
      "burg": 4525,
      "Ġdiver": 4526,
      "isation": 4527,
      "Ġmanif": 4528,
      "76": 4529,
      "Ġfo": 4530,
      "Ġdenote": 4531,
      "Ġrecorded": 4532,
      "Ġlet": 4533,
      "Ġstiff": 4534,
      "com": 4535,
      "ories": 4536,
      "tran": 4537,
      "Ġtopology": 4538,
      "Ġhyper": 4539,
      "Ġimproved": 4540,
      "Ta": 4541,
      "Ġ800": 4542,
      "Ġmarked": 4543,
      "Ġthermodynamic": 4544,
      "DUC": 4545,
      "ĠÌ¸=": 4546,
      "Ġactu": 4547,
      "Ġsignature": 4548,
      "ĠAbstract": 4549,
      "Ġelectromagnetic": 4550,
      "Ġdislocation": 4551,
      "Ġsources": 4552,
      "ĠINT": 4553,
      "Ġnet": 4554,
      "Ġhot": 4555,
      "Ġdifficult": 4556,
      "Ġ99": 4557,
      "Ġacceler": 4558,
      "Ġcover": 4559,
      "Ġaut": 4560,
      "EN": 4561,
      "body": 4562,
      "orbital": 4563,
      "Ġ\"": 4564,
      "aging": 4565,
      "Ġ36": 4566,
      "Ġsuitable": 4567,
      "itudinal": 4568,
      "ĠïģŃ": 4569,
      "AB": 4570,
      "Ġscat": 4571,
      "ĠFoundation": 4572,
      "Ġscenario": 4573,
      "Ġirre": 4574,
      "ĠData": 4575,
      "Ġ104": 4576,
      "ĠËĨH": 4577,
      "Ġshell": 4578,
      "Ġmolecule": 4579,
      "Ġcoating": 4580,
      "Ġsemi": 4581,
      "Ġadjust": 4582,
      "elling": 4583,
      "Ġexplain": 4584,
      "back": 4585,
      "Ġlens": 4586,
      "ĠBec": 4587,
      "abilities": 4588,
      "Ġappropri": 4589,
      "ĠSEM": 4590,
      "Ġnumerically": 4591,
      "Ġdescribes": 4592,
      "âĢĲ": 4593,
      "Ġbroken": 4594,
      "ares": 4595,
      "down": 4596,
      "ower": 4597,
      "Ġrecombination": 4598,
      "mail": 4599,
      "ending": 4600,
      "ĠLin": 4601,
      "Ġdynamical": 4602,
      "Ġmove": 4603,
      "Ġmicrostructure": 4604,
      "Ġ2019": 4605,
      "ĠZhou": 4606,
      "Ġhomogeneous": 4607,
      "Ġadded": 4608,
      "rist": 4609,
      "Ġinterference": 4610,
      "ĠSTM": 4611,
      "Ġmatrices": 4612,
      "Ġadop": 4613,
      "Ġtetragonal": 4614,
      "Ġcalled": 4615,
      "usc": 4616,
      "Ġcycle": 4617,
      "Ġgreater": 4618,
      "Ġcopper": 4619,
      "Ġaspect": 4620,
      "Ġstrateg": 4621,
      "Ġport": 4622,
      "ficial": 4623,
      "sem": 4624,
      "Ġmaking": 4625,
      "Ġgrains": 4626,
      "reversal": 4627,
      "resolved": 4628,
      "FL": 4629,
      "omin": 4630,
      "Ġcluster": 4631,
      "Ġsaturation": 4632,
      "Ġcollected": 4633,
      "ĠFE": 4634,
      "Ġ2018": 4635,
      "ĠïĢ©": 4636,
      "86": 4637,
      "ama": 4638,
      "Ġiter": 4639,
      "fill": 4640,
      "iy": 4641,
      "Ġhold": 4642,
      "ĠED": 4643,
      "Ġprin": 4644,
      "Ġapply": 4645,
      "âĢ²(": 4646,
      "entific": 4647,
      "Ġpiez": 4648,
      "Ġsuppression": 4649,
      "Ġforms": 4650,
      "Ġobject": 4651,
      "ĠCON": 4652,
      "59": 4653,
      "known": 4654,
      "Ġmembrane": 4655,
      "Ġarbitrary": 4656,
      "asy": 4657,
      "Ġnetworks": 4658,
      "eresis": 4659,
      "Ġcrucial": 4660,
      "ool": 4661,
      "avy": 4662,
      "Ġâī¥": 4663,
      "Ġmis": 4664,
      "Ġhorizon": 4665,
      "ĠÐ": 4666,
      "ĠZhao": 4667,
      "Ġcircuits": 4668,
      "Ġstarting": 4669,
      "Ġni": 4670,
      "Ġkz": 4671,
      "orage": 4672,
      "ĠkHz": 4673,
      "exist": 4674,
      "Ġlinearly": 4675,
      "Ġconsequence": 4676,
      "Ġlayered": 4677,
      "Ġcircles": 4678,
      "Ġconven": 4679,
      "Ġrefractive": 4680,
      "ressure": 4681,
      "particles": 4682,
      "Ġnatural": 4683,
      "Ġ34": 4684,
      "jected": 4685,
      "Ġï£«": 4686,
      "09": 4687,
      "Ġmicroscope": 4688,
      "ĠARPES": 4689,
      "ishes": 4690,
      "mic": 4691,
      "oral": 4692,
      "aka": 4693,
      "rays": 4694,
      "Ġuntil": 4695,
      "Ġconcentrations": 4696,
      "Ġï£¶": 4697,
      "vin": 4698,
      "ĠâĪĨ(": 4699,
      "Ġoperating": 4700,
      "%.": 4701,
      "Ġcolum": 4702,
      "Ġmetamateri": 4703,
      "Ġinsulators": 4704,
      "ĠïĢ¨": 4705,
      "Ġunderlying": 4706,
      "Ġmixing": 4707,
      "Ġcomputation": 4708,
      "74": 4709,
      "ashi": 4710,
      "Ġfocused": 4711,
      "Ġresidual": 4712,
      "ert": 4713,
      "Ġï¿½ï¿½ï¿½ï¿½": 4714,
      "Ġcause": 4715,
      "Ġreli": 4716,
      "izations": 4717,
      "Ġcalib": 4718,
      "ĠMeas": 4719,
      "ĠConc": 4720,
      "Ġfail": 4721,
      "ellent": 4722,
      "ĠSS": 4723,
      "han": 4724,
      "Ġsufficiently": 4725,
      "DM": 4726,
      "Ġcapacitance": 4727,
      "Ġoscillation": 4728,
      "ĠGerm": 4729,
      "Ġpy": 4730,
      "Ġye": 4731,
      "magnetic": 4732,
      "Ġaction": 4733,
      "FC": 4734,
      "Ġfilter": 4735,
      "chemical": 4736,
      "âĹıâĹıâĹıâĹı": 4737,
      "UL": 4738,
      "Ġdefini": 4739,
      "Ġtrivial": 4740,
      "ds": 4741,
      "ify": 4742,
      "sover": 4743,
      "Ġresonances": 4744,
      "Ġscreening": 4745,
      "iao": 4746,
      "akes": 4747,
      "Ġpressures": 4748,
      "bar": 4749,
      "Î¶": 4750,
      "ĠâĢ¢": 4751,
      "Ġdesired": 4752,
      "RR": 4753,
      "Ġsci": 4754,
      "Ġcorrect": 4755,
      "Ġbare": 4756,
      "ĠTherm": 4757,
      "ĠZhu": 4758,
      "ĠImp": 4759,
      "ĠAlso": 4760,
      "Ġformal": 4761,
      "alcogen": 4762,
      "Ġoverlap": 4763,
      "ĠAdditionally": 4764,
      "ino": 4765,
      "Ġpanels": 4766,
      "Ws": 4767,
      "Ġphenomenon": 4768,
      "stein": 4769,
      "Ġtunable": 4770,
      "Ġhad": 4771,
      "achine": 4772,
      "Ġinvestigation": 4773,
      "Ġche": 4774,
      "Ġoperators": 4775,
      "Ġinser": 4776,
      "Ġrecei": 4777,
      "ĠSoc": 4778,
      "Ġtexture": 4779,
      "Ġmaps": 4780,
      "CuO": 4781,
      "Ġchanging": 4782,
      "Ġcomputing": 4783,
      "EEE": 4784,
      "Ġderivative": 4785,
      "Li": 4786,
      "Ġvariable": 4787,
      "Ġmixture": 4788,
      "Ġcomposite": 4789,
      "Ġmodeling": 4790,
      "Ġextrem": 4791,
      "Ġexperi": 4792,
      "Ġdiode": 4793,
      "Ġparticularly": 4794,
      "ida": 4795,
      "Ġ...": 4796,
      "Ġ105": 4797,
      "Ġsinglet": 4798,
      "apped": 4799,
      "He": 4800,
      "Ġhysteresis": 4801,
      "89": 4802,
      "tr": 4803,
      "Ġvacancy": 4804,
      "ull": 4805,
      "hern": 4806,
      "Ġqubits": 4807,
      "Ġareas": 4808,
      "Ġmemory": 4809,
      "Ġabsolute": 4810,
      "Ġnanowires": 4811,
      "Ġoxidation": 4812,
      "83": 4813,
      "PI": 4814,
      "Ġsion": 4815,
      "ĠZeeman": 4816,
      "Ġreveals": 4817,
      "Ġ39": 4818,
      "Ġpractical": 4819,
      "lor": 4820,
      "Ġret": 4821,
      "Ġerrors": 4822,
      "Ġgold": 4823,
      "Ġlengths": 4824,
      "Ġengineering": 4825,
      "Ġarrows": 4826,
      "Ġtan": 4827,
      "NS": 4828,
      "Ġexcellent": 4829,
      "Ġperturbation": 4830,
      "oichi": 4831,
      "Ġchem": 4832,
      "Ġquantities": 4833,
      "Ġâĸ": 4834,
      "ki": 4835,
      "72": 4836,
      "Ġnitrogen": 4837,
      "Ġstronger": 4838,
      "Ġembed": 4839,
      "enn": 4840,
      "âī": 4841,
      "ett": 4842,
      "heng": 4843,
      "Ġsituation": 4844,
      "ĠÇ«": 4845,
      "Ġamplif": 4846,
      "princi": 4847,
      "Ġmanip": 4848,
      "Ġspecies": 4849,
      "84": 4850,
      "Ġactivation": 4851,
      "Ġfits": 4852,
      "Ġcomposed": 4853,
      "Ġeffectively": 4854,
      "Ġmagnetism": 4855,
      "Ġcriteri": 4856,
      "ïĢ": 4857,
      "Ġlongitudinal": 4858,
      "2009": 4859,
      "Ġconducted": 4860,
      "Ġsearch": 4861,
      "Ġpermit": 4862,
      "hematic": 4863,
      "Ġcutoff": 4864,
      "ĠEach": 4865,
      "ĠBecause": 4866,
      "Ġbos": 4867,
      "Ġcontribute": 4868,
      "Ġtron": 4869,
      "Ġreflected": 4870,
      "iddle": 4871,
      "ĠCommun": 4872,
      "ĠmA": 4873,
      "PM": 4874,
      "Zr": 4875,
      "py": 4876,
      "Ġdiffer": 4877,
      "ker": 4878,
      "2008": 4879,
      "Ġallowed": 4880,
      "Ġintra": 4881,
      "Ġsuggested": 4882,
      "oph": 4883,
      "istine": 4884,
      "Ġpenetration": 4885,
      "Ġreaches": 4886,
      "2022": 4887,
      "orting": 4888,
      "ĠMicro": 4889,
      "Ġface": 4890,
      "dG": 4891,
      "Ġforward": 4892,
      "sess": 4893,
      "ductive": 4894,
      "Ġentropy": 4895,
      "Ġunconventional": 4896,
      "Ġlateral": 4897,
      "cus": 4898,
      "CC": 4899,
      "theless": 4900,
      "Ġmagnon": 4901,
      "Ġsix": 4902,
      "lemental": 4903,
      "ensile": 4904,
      "Ġfive": 4905,
      "Ġstart": 4906,
      "tian": 4907,
      "Ġtechnology": 4908,
      "Ġcycles": 4909,
      "Ġdegenerate": 4910,
      "Ġdelay": 4911,
      "ee": 4912,
      "Ġyet": 4913,
      "Ġcrossover": 4914,
      "ĠEg": 4915,
      "apes": 4916,
      "Ġability": 4917,
      "ĠComput": 4918,
      "dri": 4919,
      "Ġpurp": 4920,
      "unications": 4921,
      "Ġ;": 4922,
      "ĠDet": 4923,
      "tingu": 4924,
      "Ġadvantage": 4925,
      "ĠDI": 4926,
      "paration": 4927,
      "ĠMott": 4928,
      "ital": 4929,
      "ĠSH": 4930,
      "Ġversion": 4931,
      "AT": 4932,
      "Ġspacing": 4933,
      "Ãħ": 4934,
      "umines": 4935,
      "Ġlack": 4936,
      "ĠSpeci": 4937,
      "Ġstorage": 4938,
      "riction": 4939,
      "licity": 4940,
      "ÎĽ": 4941,
      "ĠIEEE": 4942,
      "Ġassuming": 4943,
      "Ġspecim": 4944,
      "Ġspontaneous": 4945,
      "Su": 4946,
      "ui": 4947,
      "Ġpron": 4948,
      "chite": 4949,
      "ometric": 4950,
      "RODUC": 4951,
      "ffer": 4952,
      "Ġpristine": 4953,
      "Ġvacancies": 4954,
      "king": 4955,
      "Ġdistingu": 4956,
      "antly": 4957,
      "Ġlocation": 4958,
      "Ġconstra": 4959,
      "Ġstacking": 4960,
      "Ġforming": 4961,
      "Ġvalley": 4962,
      "Ġdistances": 4963,
      "Ġbonding": 4964,
      "RODUCTION": 4965,
      "ĠAnother": 4966,
      "HM": 4967,
      "no": 4968,
      "Ġow": 4969,
      "Ġmeasuring": 4970,
      "Ġlargest": 4971,
      "Ġsynthesized": 4972,
      "ef": 4973,
      "ĠInterest": 4974,
      "Ġfract": 4975,
      "Ġevery": 4976,
      "Ġglobal": 4977,
      "ĠINTRODUCTION": 4978,
      "ĠSL": 4979,
      "Ġconser": 4980,
      "Au": 4981,
      "Ġessential": 4982,
      "ĠMin": 4983,
      "cher": 4984,
      "Ġslab": 4985,
      "Ġevaluate": 4986,
      "ĠTheory": 4987,
      "Ġnuclear": 4988,
      "Ġvic": 4989,
      "dW": 4990,
      "ĠOptical": 4991,
      "Ġtight": 4992,
      "Ġei": 4993,
      "Ġaccum": 4994,
      "Ġï£Ń": 4995,
      "Ġgeometric": 4996,
      "Ġdem": 4997,
      "Ġrect": 4998,
      "Ġï£¸": 4999,
      "Ġcry": 5000,
      "Ġcontext": 5001,
      "Ġsimultaneously": 5002,
      "Ġconcept": 5003,
      "Ġexplo": 5004,
      "Ġsemiconductors": 5005,
      "Ġenables": 5006,
      "Ġstead": 5007,
      "78": 5008,
      "Ġfacil": 5009,
      "MENT": 5010,
      "Ġpossess": 5011,
      "rically": 5012,
      "responding": 5013,
      "Ġfilling": 5014,
      "Ġestablished": 5015,
      "Ġclusters": 5016,
      "Ġexplore": 5017,
      "ĠSU": 5018,
      "ĠGr": 5019,
      "Ġillum": 5020,
      "aring": 5021,
      "Ġgeneralized": 5022,
      "71": 5023,
      "fies": 5024,
      "Ġscan": 5025,
      "XX": 5026,
      "ĠPBE": 5027,
      "oron": 5028,
      "ĠSw": 5029,
      "Ġearlier": 5030,
      "Ġindeed": 5031,
      "che": 5032,
      "Ġevent": 5033,
      "Ġtuned": 5034,
      "Ġbal": 5035,
      "charge": 5036,
      "Ġprior": 5037,
      "ensive": 5038,
      "hal": 5039,
      "Ġlinewidth": 5040,
      "Ġanalyze": 5041,
      "Ġstiffness": 5042,
      "pot": 5043,
      "amber": 5044,
      "enberg": 5045,
      "Ġfluctuation": 5046,
      "Ġinfinite": 5047,
      "Ġarti": 5048,
      "Ġbeams": 5049,
      "ĠCH": 5050,
      "ĠWat": 5051,
      "Ġsuggesting": 5052,
      "Ġcoll": 5053,
      "osing": 5054,
      "ĠRo": 5055,
      "ĠTI": 5056,
      "vector": 5057,
      "ynamics": 5058,
      "cture": 5059,
      "Ġunderstood": 5060,
      "ĠNext": 5061,
      "Ġvoltages": 5062,
      "III": 5063,
      "ĠTM": 5064,
      "Ġexists": 5065,
      "ĠTime": 5066,
      "Ġthank": 5067,
      "ĠGaN": 5068,
      "Ġwidely": 5069,
      "oltz": 5070,
      "ĠSb": 5071,
      "my": 5072,
      "ĠSuperconductivity": 5073,
      "Ġassumption": 5074,
      "Ġrig": 5075,
      "Ġsupercurrent": 5076,
      "den": 5077,
      "herical": 5078,
      "sider": 5079,
      "Ġouter": 5080,
      "ĠSQUID": 5081,
      "Ġbene": 5082,
      "Ġhybridization": 5083,
      "PP": 5084,
      "ĠBl": 5085,
      "racted": 5086,
      "Ca": 5087,
      "has": 5088,
      "Ġschematic": 5089,
      "94": 5090,
      "................................": 5091,
      "Ġeasy": 5092,
      "Ġcenters": 5093,
      "Ġcontinuum": 5094,
      "ubes": 5095,
      "Ġsimply": 5096,
      "Ġpost": 5097,
      "Ġarchite": 5098,
      "ĠEquation": 5099,
      "Ġinner": 5100,
      "ĠTE": 5101,
      "Ġincludes": 5102,
      "ĠPark": 5103,
      "Ġdam": 5104,
      "Ġdiscover": 5105,
      "Ġappropriate": 5106,
      "ĠOF": 5107,
      "ÎĶ": 5108,
      "Ġdisordered": 5109,
      "ĠNot": 5110,
      "Ġheavy": 5111,
      "Ġitself": 5112,
      "Ġextremely": 5113,
      "loch": 5114,
      "Ġlifetime": 5115,
      "overed": 5116,
      "Ġtensile": 5117,
      "istor": 5118,
      "Ġ95": 5119,
      "Ġinduce": 5120,
      "Ġaccomp": 5121,
      "ĠBerry": 5122,
      "rue": 5123,
      "ots": 5124,
      "Ġaccoun": 5125,
      "Ġdisplayed": 5126,
      "Ġ48": 5127,
      "Ġlabel": 5128,
      "Ġcompute": 5129,
      "Ġ101": 5130,
      "Ġillumination": 5131,
      "Ġpresents": 5132,
      "Ġattractive": 5133,
      "Ġreasonable": 5134,
      "Ġrow": 5135,
      "Ġatm": 5136,
      "TC": 5137,
      "ĠTMD": 5138,
      "lets": 5139,
      "osure": 5140,
      "Ġcheck": 5141,
      "Ġyears": 5142,
      "appe": 5143,
      "Ġtail": 5144,
      "Ġocta": 5145,
      "imin": 5146,
      "Ġsing": 5147,
      "Ġimportance": 5148,
      "Ġsoftware": 5149,
      "Ġ),": 5150,
      "ĠSa": 5151,
      "Ġpartially": 5152,
      "ĠPhase": 5153,
      "ĠÎĺ": 5154,
      "Ġparity": 5155,
      "ĠCNT": 5156,
      "Ġ180": 5157,
      "Ġ2021": 5158,
      "Ġconnect": 5159,
      "Ġsensors": 5160,
      "Ġlimits": 5161,
      "Ġadsorption": 5162,
      "Ġtoo": 5163,
      "Ġphotoc": 5164,
      "Ġinterval": 5165,
      "Zn": 5166,
      "ĠBel": 5167,
      "Ġmapping": 5168,
      "Ġxy": 5169,
      "ĠMor": 5170,
      "Ġbrid": 5171,
      "ĠAck": 5172,
      "Ġbroadening": 5173,
      "ush": 5174,
      "ĠâĪĳ": 5175,
      "Ġ102": 5176,
      "uscript": 5177,
      "ira": 5178,
      "Ġexcess": 5179,
      "ĠPr": 5180,
      "Ġsetting": 5181,
      "Ġmorphology": 5182,
      "ĠNever": 5183,
      "Ġenab": 5184,
      "ĠTheore": 5185,
      "ĠUp": 5186,
      "ĠSecond": 5187,
      "Ġsteady": 5188,
      "solid": 5189,
      "mers": 5190,
      "Ġwavelengths": 5191,
      "Ġconclude": 5192,
      "cn": 5193,
      "Ġbase": 5194,
      "ĠLandau": 5195,
      "Ġregular": 5196,
      "ounced": 5197,
      "ĠTopological": 5198,
      "ĠSimilarly": 5199,
      "Ġasymmetric": 5200,
      "Ġvariables": 5201,
      "Ġresponsible": 5202,
      "Ġgover": 5203,
      "ĠSpect": 5204,
      "ĠTN": 5205,
      "mode": 5206,
      "Ġvariety": 5207,
      "ĠConsider": 5208,
      "Ġhorizontal": 5209,
      "eren": 5210,
      "Ġdominated": 5211,
      "active": 5212,
      "ously": 5213,
      "Ġdiscrete": 5214,
      "ĠSystem": 5215,
      "Ġallowing": 5216,
      "chang": 5217,
      "Ġbeg": 5218,
      "Ġpolyc": 5219,
      "Ġsal": 5220,
      "ĠChemical": 5221,
      "Ġdur": 5222,
      "Ġcompens": 5223,
      "ĠRecently": 5224,
      "Ġdataset": 5225,
      "Ġisland": 5226,
      "ĠMan": 5227,
      "Ġunderg": 5228,
      ")âĪĴ": 5229,
      "Ġ55": 5230,
      "Ġuncertainty": 5231,
      "uni": 5232,
      ")),": 5233,
      "Ġ106": 5234,
      "black": 5235,
      "Ġneural": 5236,
      "direction": 5237,
      "tz": 5238,
      "Ġquantitative": 5239,
      "ĠConclusion": 5240,
      "Ġcode": 5241,
      "Ġetching": 5242,
      "Ġreversal": 5243,
      "Ġinterpret": 5244,
      "volution": 5245,
      "anov": 5246,
      "Ġpreser": 5247,
      "Ġsurround": 5248,
      "Ġmelting": 5249,
      "FS": 5250,
      "kF": 5251,
      "Ġinductance": 5252,
      "Pd": 5253,
      "Ġdid": 5254,
      "urfaces": 5255,
      "ĠGermany": 5256,
      "âĪļ": 5257,
      "Ġsatisfy": 5258,
      "Ġdraw": 5259,
      "ĠSee": 5260,
      "super": 5261,
      "Ġnode": 5262,
      "ĠAdvanced": 5263,
      "principles": 5264,
      "FE": 5265,
      "ham": 5266,
      "PO": 5267,
      "ĠIc": 5268,
      "79": 5269,
      "Ġelectrolyte": 5270,
      "Ġsuppress": 5271,
      "Ġactual": 5272,
      "consistent": 5273,
      "Ġregimes": 5274,
      "Ġreducing": 5275,
      "Ġdeform": 5276,
      "meV": 5277,
      "rown": 5278,
      "OH": 5279,
      "Ġattention": 5280,
      "ĠTEM": 5281,
      "Ġprojection": 5282,
      "ĠAckn": 5283,
      "Ag": 5284,
      "play": 5285,
      "Ġtheoretically": 5286,
      "sed": 5287,
      "ĠWil": 5288,
      "ĠYan": 5289,
      "Ġminimal": 5290,
      "ĠNum": 5291,
      "Ġconfinement": 5292,
      "eting": 5293,
      "Ġcharged": 5294,
      "Ġsymb": 5295,
      "Ġexpand": 5296,
      "Ġspatially": 5297,
      "ĠIr": 5298,
      ")-(": 5299,
      "ato": 5300,
      "Ġbl": 5301,
      "Ġ44": 5302,
      "ĠRefs": 5303,
      "Ġroughness": 5304,
      "Ġkind": 5305,
      "Ġnanostructure": 5306,
      "âŁ©,": 5307,
      "junction": 5308,
      "Ġsheet": 5309,
      "Ġplasmon": 5310,
      "Ġexcept": 5311,
      "Ġinitio": 5312,
      "Ġpronounced": 5313,
      "KNO": 5314,
      "abe": 5315,
      "Ġperature": 5316,
      "idel": 5317,
      "ĠUnder": 5318,
      "Ġaveraged": 5319,
      "Ġconvergence": 5320,
      "Ġstruc": 5321,
      "Ġnucleation": 5322,
      "Ġalignment": 5323,
      "Ġcauses": 5324,
      "Ġapparent": 5325,
      "Ġproviding": 5326,
      "ĠmV": 5327,
      "lications": 5328,
      "Ġpropose": 5329,
      "Ġcreated": 5330,
      "iding": 5331,
      "Ġresolved": 5332,
      "Ġcharges": 5333,
      "EP": 5334,
      "KNOW": 5335,
      "oul": 5336,
      "agome": 5337,
      "Ġasymmetry": 5338,
      "Ġ43": 5339,
      "Ġalternative": 5340,
      "Ġclosed": 5341,
      "tot": 5342,
      "Ġphotod": 5343,
      "Ġknowledge": 5344,
      "hombic": 5345,
      "ĠPA": 5346,
      "def": 5347,
      "ĠËĩ": 5348,
      "Ġsul": 5349,
      "ĠACKNOW": 5350,
      "Ġla": 5351,
      "Ġexpressions": 5352,
      "ench": 5353,
      "ĠChern": 5354,
      "Ġ85": 5355,
      "Ġtube": 5356,
      "otonic": 5357,
      "Ġvapor": 5358,
      "ĠModel": 5359,
      "ĠâĹ¦": 5360,
      "ĠLow": 5361,
      "LEDG": 5362,
      "Ġsubsequent": 5363,
      "Ð¾": 5364,
      "Ġrestric": 5365,
      "Ìħ": 5366,
      "ĠMax": 5367,
      "Ġetc": 5368,
      "Ġvisual": 5369,
      "top": 5370,
      "Ġ103": 5371,
      "ĠACKNOWLEDG": 5372,
      "Ġconsisting": 5373,
      "Ġdenoted": 5374,
      "ĠâĬĹ": 5375,
      "Ġ(~": 5376,
      "Ġhom": 5377,
      "amily": 5378,
      "ĠFS": 5379,
      "Ġcommer": 5380,
      "Ġaffected": 5381,
      "ka": 5382,
      "conductor": 5383,
      "Ġoccupied": 5384,
      "ĠNevertheless": 5385,
      "Ġisolated": 5386,
      "orn": 5387,
      "Ġvanishes": 5388,
      "Ġ77": 5389,
      "Ġ2022": 5390,
      "Ġquestion": 5391,
      "gra": 5392,
      "ociety": 5393,
      "Ġflakes": 5394,
      "ĠDO": 5395,
      "002": 5396,
      "lectivity": 5397,
      "ĠJiang": 5398,
      "Ġcontain": 5399,
      "Ġneeds": 5400,
      "TL": 5401,
      "Ġbox": 5402,
      "ss": 5403,
      "âĪ¼": 5404,
      "Ġcomparing": 5405,
      "polarized": 5406,
      "harmonic": 5407,
      "Ġ110": 5408,
      "Ġcoexist": 5409,
      "ĠJc": 5410,
      "Ġsummary": 5411,
      "vo": 5412,
      "Ġarchitecture": 5413,
      "ĠWS": 5414,
      "Ġoscillator": 5415,
      "tile": 5416,
      "Ġcrossing": 5417,
      "Ġwalls": 5418,
      "Eq": 5419,
      "Ġical": 5420,
      "ĠNMR": 5421,
      "uminescence": 5422,
      "Ġsolve": 5423,
      "ĠHo": 5424,
      "iting": 5425,
      "ĠïģĦ": 5426,
      "Ðµ": 5427,
      "irt": 5428,
      "Ġsequence": 5429,
      "92": 5430,
      "ĠConse": 5431,
      "ĠOb": 5432,
      "Ġranging": 5433,
      "US": 5434,
      "exc": 5435,
      "foli": 5436,
      "phere": 5437,
      "rentz": 5438,
      "Ġdemonstrates": 5439,
      "Ġcation": 5440,
      "osites": 5441,
      "Ġdistortion": 5442,
      "ģĦ": 5443,
      "Ġreached": 5444,
      "reson": 5445,
      "Ġaligned": 5446,
      "Ġdegeneracy": 5447,
      "ima": 5448,
      "acent": 5449,
      "Ġspecial": 5450,
      "Ġcreate": 5451,
      "NiO": 5452,
      "Ġacknowledge": 5453,
      "ĠVO": 5454,
      "enced": 5455,
      "inder": 5456,
      "ĠTB": 5457,
      "Ġalumin": 5458,
      "oses": 5459,
      "ickel": 5460,
      "Ġdroplet": 5461,
      "Ġprom": 5462,
      "Ġexponential": 5463,
      "Ġremaining": 5464,
      "Ġpore": 5465,
      "aded": 5466,
      "level": 5467,
      "93": 5468,
      "ĠGener": 5469,
      "Ġnanot": 5470,
      "81": 5471,
      "Ġexactly": 5472,
      "nov": 5473,
      "ĠGaAs": 5474,
      "ĠAcade": 5475,
      "Ġbranch": 5476,
      "BCO": 5477,
      "Ġ(âĪĨ": 5478,
      "Ġlattices": 5479,
      "Ġquasiparticles": 5480,
      "ca": 5481,
      "Ġanalys": 5482,
      "Ġcompression": 5483,
      "ĠâĢĿ": 5484,
      "Ġtrue": 5485,
      "Ġdisplays": 5486,
      "Dated": 5487,
      "esides": 5488,
      "Ġmachine": 5489,
      "Ġmiddle": 5490,
      "Ġundergo": 5491,
      "Ġoxides": 5492,
      "Ġmi": 5493,
      "ĠChemistry": 5494,
      "ĠRES": 5495,
      "OT": 5496,
      "orhombic": 5497,
      "Ġsput": 5498,
      "Ġquantity": 5499,
      "metal": 5500,
      "82": 5501,
      "ĠEffect": 5502,
      "oresistance": 5503,
      "Ġwaveguides": 5504,
      "Ġmoving": 5505,
      "Ġmacroscopic": 5506,
      "Ġassign": 5507,
      "Ġmanuscript": 5508,
      "Ġformalism": 5509,
      "Ġarrange": 5510,
      "Ġclar": 5511,
      "Ġatmos": 5512,
      "sch": 5513,
      "Ġarrays": 5514,
      "sky": 5515,
      "Ġ42": 5516,
      "The": 5517,
      "Ġnanoscale": 5518,
      "avi": 5519,
      "ĠInterestingly": 5520,
      "RL": 5521,
      "ogap": 5522,
      "ibility": 5523,
      "Ġsure": 5524,
      "Ġdistributed": 5525,
      "Ġmagneto": 5526,
      "pin": 5527,
      "Ġvicinity": 5528,
      "Ġinjection": 5529,
      "bert": 5530,
      "nd": 5531,
      "Ġfru": 5532,
      "rometer": 5533,
      "Ġcoordinates": 5534,
      "Ġrespective": 5535,
      "Ġacknowled": 5536,
      "Ġshifted": 5537,
      "ĠElectronic": 5538,
      "ĠMC": 5539,
      "Ġnotice": 5540,
      "Ġbelong": 5541,
      "ĠVol": 5542,
      "Ġvaries": 5543,
      "DS": 5544,
      "Ġmonit": 5545,
      "ford": 5546,
      "Ġtreated": 5547,
      "ufact": 5548,
      "ior": 5549,
      "Ġparent": 5550,
      "ĠHan": 5551,
      "iro": 5552,
      "ĠMR": 5553,
      "ratic": 5554,
      "Ġrepresentative": 5555,
      "onent": 5556,
      "Ġchir": 5557,
      "kh": 5558,
      "ĠMZ": 5559,
      "ĠDu": 5560,
      "ĠJJ": 5561,
      "ĠUV": 5562,
      "Ġremo": 5563,
      "Ġdisappe": 5564,
      "Ġseparate": 5565,
      "Ġfamily": 5566,
      "ĠIs": 5567,
      "Ġsk": 5568,
      "odes": 5569,
      "ĠBZ": 5570,
      "angle": 5571,
      "ĠMulti": 5572,
      "high": 5573,
      "well": 5574,
      "ĠEd": 5575,
      "olecular": 5576,
      "driven": 5577,
      "Ġderive": 5578,
      "Re": 5579,
      "ĠBloch": 5580,
      "Ġtraject": 5581,
      "Ġloops": 5582,
      "Ġauthor": 5583,
      "Ġaim": 5584,
      "ĠShen": 5585,
      "Ġ65": 5586,
      "Ġlocalization": 5587,
      "Ġenerge": 5588,
      "jective": 5589,
      "ĠmK": 5590,
      "Ġgradu": 5591,
      "enz": 5592,
      "Ġreco": 5593,
      "ĠhBN": 5594,
      "emission": 5595,
      "Ġïģ¥": 5596,
      "odic": 5597,
      "Ġimplementation": 5598,
      "Ġadjacent": 5599,
      "Ġeigenvalues": 5600,
      "Ġdual": 5601,
      "ĠKe": 5602,
      "anni": 5603,
      "Ġtool": 5604,
      "urrent": 5605,
      "ĠDW": 5606,
      "Ġcomes": 5607,
      "Ġdt": 5608,
      "Ġsweep": 5609,
      "ĠOh": 5610,
      "ĠRT": 5611,
      "asic": 5612,
      "ĠChang": 5613,
      "ĠVal": 5614,
      "ĠConsequ": 5615,
      "Ġmill": 5616,
      "ĠIN": 5617,
      "Ġlook": 5618,
      "Ġfront": 5619,
      "ref": 5620,
      "onding": 5621,
      "Ġenable": 5622,
      "ĠAF": 5623,
      "Ġchamber": 5624,
      "Ġpreparation": 5625,
      "Ġassess": 5626,
      "ions": 5627,
      "Ġarises": 5628,
      "ĠSociety": 5629,
      "ressive": 5630,
      "Ġcuprate": 5631,
      "Ġdiscussions": 5632,
      "Ġpin": 5633,
      "Ġpermittivity": 5634,
      "ĠTy": 5635,
      "come": 5636,
      "Ġthicknesses": 5637,
      "Ġconstructed": 5638,
      "(âĥĹ": 5639,
      "tra": 5640,
      "ĠSil": 5641,
      "ATION": 5642,
      "Ġapproximate": 5643,
      "called": 5644,
      "Ġfaster": 5645,
      "Ġepitaxial": 5646,
      "Ġrapidly": 5647,
      "AA": 5648,
      "sen": 5649,
      "Ġdeco": 5650,
      "Ġtrap": 5651,
      "Ġpockets": 5652,
      "osph": 5653,
      "duci": 5654,
      "ĠPhoton": 5655,
      ")],": 5656,
      "oping": 5657,
      "ĠIR": 5658,
      "ĠSM": 5659,
      ")âŁ©": 5660,
      "Ġwhite": 5661,
      ",âĪĴ": 5662,
      "Ġcollective": 5663,
      "Ġspherical": 5664,
      "Ġelectrostatic": 5665,
      "Ġproblems": 5666,
      "Ġrare": 5667,
      "hyl": 5668,
      "Ġdefinition": 5669,
      "oung": 5670,
      "tios": 5671,
      "Ġexposure": 5672,
      "ulations": 5673,
      "ĠConsequently": 5674,
      "Ġexplicitly": 5675,
      "electronic": 5676,
      "Ġskyrmions": 5677,
      "RuO": 5678,
      "ĠReg": 5679,
      "imp": 5680,
      "Ġwires": 5681,
      "ĠHar": 5682,
      "ĠSchematic": 5683,
      "ĠPauli": 5684,
      "Ġprote": 5685,
      "oltage": 5686,
      "ĠSE": 5687,
      "tex": 5688,
      "ĠCd": 5689,
      "itation": 5690,
      "ĠSing": 5691,
      "Ġrule": 5692,
      "va": 5693,
      "Ġratios": 5694,
      "Ġevents": 5695,
      "Ġexplored": 5696,
      "ji": 5697,
      "Ġeq": 5698,
      "Ġbars": 5699,
      "Ġdislocations": 5700,
      "Ġsummarized": 5701,
      "we": 5702,
      "where": 5703,
      "ĠFer": 5704,
      "Ġexamples": 5705,
      "ĠVI": 5706,
      "ïĤ": 5707,
      "Ġstoichi": 5708,
      "Ġplasmonic": 5709,
      "Ġmoti": 5710,
      "Ġsolved": 5711,
      "Ġtested": 5712,
      "Ġgradually": 5713,
      "Ġ115": 5714,
      "Ġwafer": 5715,
      "ĠPS": 5716,
      "Ġ64": 5717,
      "Ġtriangular": 5718,
      "Ġtransient": 5719,
      "Ġwavefunction": 5720,
      "300": 5721,
      "ĠUl": 5722,
      "ĠSingle": 5723,
      "Ġtorque": 5724,
      "ĠDo": 5725,
      "Ġ96": 5726,
      "Ġsolving": 5727,
      "Ġemphas": 5728,
      "CLU": 5729,
      "Ġ47": 5730,
      "Ġsphere": 5731,
      "ĠLorentz": 5732,
      "ĠAtom": 5733,
      "Ġappearance": 5734,
      "Ġneutral": 5735,
      "fast": 5736,
      "Ġdamage": 5737,
      "ĠCP": 5738,
      "ĠAnders": 5739,
      "ĠFigures": 5740,
      "ulator": 5741,
      "stri": 5742,
      "Ġfluence": 5743,
      "ĠInc": 5744,
      "Ġconstrain": 5745,
      "ĠCONCLU": 5746,
      "Ġsys": 5747,
      "Ïīm": 5748,
      "Ġchalleng": 5749,
      "Ġbinary": 5750,
      "states": 5751,
      "equilibrium": 5752,
      "AP": 5753,
      "Ġreports": 5754,
      "Ġslip": 5755,
      "ĠGrant": 5756,
      "ĠTr": 5757,
      "Ġrealize": 5758,
      "Ġworth": 5759,
      "Ġmatch": 5760,
      "Ġcoordinate": 5761,
      "Ġfs": 5762,
      "Ġelectrochemical": 5763,
      "Ã¼": 5764,
      "Ġput": 5765,
      "2007": 5766,
      "Ġker": 5767,
      "shaped": 5768,
      "arities": 5769,
      "FET": 5770,
      "ĠBo": 5771,
      "Ġfacilit": 5772,
      "Ġcommonly": 5773,
      "Ġcoinc": 5774,
      "ĠâĢĶ": 5775,
      "Ġunst": 5776,
      "Ġ2017": 5777,
      "Ġannealed": 5778,
      "Ġdespite": 5779,
      "Ġcare": 5780,
      "ortun": 5781,
      "ĠMonte": 5782,
      "CH": 5783,
      "Ġdiagrams": 5784,
      "Ġexfoli": 5785,
      "Ġqualitatively": 5786,
      "anner": 5787,
      "Ġdivid": 5788,
      "itive": 5789,
      "ĠDevic": 5790,
      "Ġsections": 5791,
      "Ġradial": 5792,
      "van": 5793,
      "ww": 5794,
      "Ġtwisted": 5795,
      "Ġbelie": 5796,
      "Ġcompositions": 5797,
      "related": 5798,
      "alyst": 5799,
      "Ġdc": 5800,
      "Ġcompact": 5801,
      "fil": 5802,
      "ĠPan": 5803,
      "ameters": 5804,
      "Ġsuccessfully": 5805,
      "Ġmostly": 5806,
      "Ä±": 5807,
      "sin": 5808,
      "Ġobvious": 5809,
      "Ġevaporation": 5810,
      "tively": 5811,
      "ĠDM": 5812,
      "ĠAcademy": 5813,
      "anti": 5814,
      "ĠCONCLUSION": 5815,
      "Ġrealization": 5816,
      "ĠïĤ¶": 5817,
      "Ġprimary": 5818,
      "physics": 5819,
      "she": 5820,
      "ferred": 5821,
      "Ġgraphite": 5822,
      "Ġcylind": 5823,
      "Ġbasic": 5824,
      "Ġevident": 5825,
      "atomic": 5826,
      "factor": 5827,
      "ĠWaals": 5828,
      "Ġcandidate": 5829,
      "Ġorientations": 5830,
      "bilities": 5831,
      "ho": 5832,
      "Ġsolids": 5833,
      "Ġconstitu": 5834,
      "Ġthroughout": 5835,
      "+,": 5836,
      "91": 5837,
      "Ġaccess": 5838,
      "Ġswitch": 5839,
      "arth": 5840,
      "ĠMS": 5841,
      "Ġbatter": 5842,
      "ĠBal": 5843,
      "inz": 5844,
      "Ġframe": 5845,
      "onses": 5846,
      "Ġgeometries": 5847,
      "TE": 5848,
      "Ġbending": 5849,
      "Ġtransferred": 5850,
      "Ġbody": 5851,
      "Ġnontrivial": 5852,
      "âĹ¦âĹ¦": 5853,
      "agnets": 5854,
      "Ġissue": 5855,
      "ĠNow": 5856,
      "2006": 5857,
      "Ġmesh": 5858,
      "ĠEuro": 5859,
      "cy": 5860,
      "ramm": 5861,
      "ĠRb": 5862,
      "Ġgapped": 5863,
      "Ġweakly": 5864,
      "Ġpiezoelectric": 5865,
      "iring": 5866,
      "Ġinterplay": 5867,
      "ondon": 5868,
      "Mg": 5869,
      "Ġprecur": 5870,
      "ĠJan": 5871,
      "ĠMart": 5872,
      "Î±Î²": 5873,
      "ĠQi": 5874,
      "DC": 5875,
      "Ġïģ¡": 5876,
      "Ġemergence": 5877,
      "Ġintensities": 5878,
      "Ġmol": 5879,
      "Ġoriented": 5880,
      "ished": 5881,
      "Ox": 5882,
      "la": 5883,
      "edge": 5884,
      "inger": 5885,
      "Ġcharacterize": 5886,
      "Ġwt": 5887,
      "ĠSF": 5888,
      "Ġentang": 5889,
      "Ġcolumn": 5890,
      "Ġ!": 5891,
      "olic": 5892,
      "ĠÎ¼s": 5893,
      "Ġparamagnetic": 5894,
      "itting": 5895,
      "exp": 5896,
      "Ġchoose": 5897,
      "ĠSupporting": 5898,
      "ĠBut": 5899,
      "ĠHa": 5900,
      "Ġamplifier": 5901,
      "Eu": 5902,
      "ception": 5903,
      "ĠAss": 5904,
      "quet": 5905,
      "Ġshall": 5906,
      "IP": 5907,
      "Ġassemb": 5908,
      "Ġworking": 5909,
      "Ġroughly": 5910,
      "vol": 5911,
      "Ġïģ¬": 5912,
      "Ġfilled": 5913,
      "Ġmatching": 5914,
      "SCs": 5915,
      "Ġimprovement": 5916,
      "Ġsound": 5917,
      "Ġtional": 5918,
      "Ġthereby": 5919,
      "ragg": 5920,
      "temp": 5921,
      "pn": 5922,
      "Ġantiferrom": 5923,
      "rect": 5924,
      "Ġfunc": 5925,
      "Ġbo": 5926,
      "Ġreconstruction": 5927,
      "Ġchallenging": 5928,
      "Ġdich": 5929,
      "Ġaxes": 5930,
      "Ġtrack": 5931,
      "ĠSupplemental": 5932,
      "Ġdil": 5933,
      "Ġdig": 5934,
      "Ġ54": 5935,
      "ye": 5936,
      "ĠCA": 5937,
      "photon": 5938,
      "late": 5939,
      "Ġinteracting": 5940,
      "hil": 5941,
      "Ġdimensionless": 5942,
      "relation": 5943,
      "symmetric": 5944,
      "Ġcomplic": 5945,
      "Ġmetric": 5946,
      "Ġstret": 5947,
      "ĠCM": 5948,
      "âĸł": 5949,
      "Ġseems": 5950,
      "ĠOver": 5951,
      "Ġdotted": 5952,
      "Ġtests": 5953,
      "Ġstrip": 5954,
      "Ġhours": 5955,
      "Ġ74": 5956,
      "pective": 5957,
      "bo": 5958,
      "ĠvdW": 5959,
      "Ġïģ·": 5960,
      "Ġrealistic": 5961,
      "Ġprecise": 5962,
      "Ġ2000": 5963,
      "ĠExp": 5964,
      "ogonal": 5965,
      "iner": 5966,
      "ondo": 5967,
      "Ġexisting": 5968,
      "Ġtopologically": 5969,
      "Ġpolycrystalline": 5970,
      "Ġwrite": 5971,
      "ĠPD": 5972,
      "Ġorthorhombic": 5973,
      "Ġ41": 5974,
      "alysis": 5975,
      "ĠGd": 5976,
      "ĠScientific": 5977,
      "ĠWatan": 5978,
      "ĠNS": 5979,
      "ĠKo": 5980,
      "ymp": 5981,
      "Ġ2023": 5982,
      "Ġfavor": 5983,
      "semble": 5984,
      "Ġsampling": 5985,
      "Ġbeh": 5986,
      "abatic": 5987,
      "bly": 5988,
      "uments": 5989,
      "ĠLS": 5990,
      "Ġtween": 5991,
      "osecond": 5992,
      "Ġmanufact": 5993,
      "ĠKu": 5994,
      "Ġ2016": 5995,
      "Ġresponses": 5996,
      "Ġtemporal": 5997,
      "dashed": 5998,
      "Ġremoved": 5999,
      "kl": 6000,
      "radation": 6001,
      "Ġremov": 6002,
      "Ġinvolved": 6003,
      "TT": 6004,
      "kB": 6005,
      "Ġ140": 6006,
      "Ġreadout": 6007,
      "Ġprotoc": 6008,
      "Ġdiscovery": 6009,
      "GS": 6010,
      "uning": 6011,
      "Ġformer": 6012,
      "Ġsubt": 6013,
      "density": 6014,
      "versible": 6015,
      "Ġmul": 6016,
      "Ġmea": 6017,
      "Ġnanor": 6018,
      "Ġaccurately": 6019,
      "Ġfermionic": 6020,
      "Ġtive": 6021,
      "Ġfine": 6022,
      "dV": 6023,
      "ĠTHE": 6024,
      "Ġkept": 6025,
      "Ġtetra": 6026,
      "Ġsimplicity": 6027,
      "ĠMeasure": 6028,
      "Ġ98": 6029,
      "Ġacquired": 6030,
      "Ġ107": 6031,
      "Ġfracture": 6032,
      "Ġresist": 6033,
      "go": 6034,
      "ĠFrequency": 6035,
      "Ġmagnetoresistance": 6036,
      "Ġarising": 6037,
      "Ġlas": 6038,
      "forward": 6039,
      "cl": 6040,
      "Ġkernel": 6041,
      "ĠField": 6042,
      "Ġembedded": 6043,
      "EL": 6044,
      "Ġelimin": 6045,
      "Ġsynch": 6046,
      "Ġquadratic": 6047,
      "Ġ97": 6048,
      "ï£·": 6049,
      "Ġpopulation": 6050,
      "ĠDespite": 6051,
      "ones": 6052,
      "Ġopto": 6053,
      "ili": 6054,
      "Ġspread": 6055,
      "ï£¬": 6056,
      "Ġstrategy": 6057,
      "Ġinduces": 6058,
      "Ġarise": 6059,
      "Ġcentered": 6060,
      "ended": 6061,
      "ĠMT": 6062,
      "ĠVan": 6063,
      "Ġdic": 6064,
      "asc": 6065,
      "Ġcouplings": 6066,
      "WHM": 6067,
      "Ġarticle": 6068,
      "Ġinfrared": 6069,
      "PER": 6070,
      "ĠHf": 6071,
      "green": 6072,
      "ensur": 6073,
      "sci": 6074,
      "rides": 6075,
      "ubov": 6076,
      "Ġmetasurfaces": 6077,
      "Ġcompati": 6078,
      "ĠIndi": 6079,
      "ĠEven": 6080,
      "ition": 6081,
      "Ð¸": 6082,
      "Ġ87": 6083,
      "Ġoutside": 6084,
      "Ġïĥ·": 6085,
      "Ġlisted": 6086,
      "Ġcarry": 6087,
      "ĠYoung": 6088,
      "Ġplays": 6089,
      "Ġuniaxial": 6090,
      "ĠShi": 6091,
      "Ġpocket": 6092,
      "Ġpseudogap": 6093,
      "ĠSpecifically": 6094,
      "ĠBragg": 6095,
      "ijing": 6096,
      "Ġmedi": 6097,
      "Ġextrapol": 6098,
      "ĠVer": 6099,
      "ĠBc": 6100,
      "Ġ92": 6101,
      "PbI": 6102,
      "orous": 6103,
      "ĠBand": 6104,
      "Ġ46": 6105,
      "Ġreciprocal": 6106,
      "ĠCan": 6107,
      "Ġporous": 6108,
      "Ġonce": 6109,
      "Ġutilized": 6110,
      "Ġrepulsion": 6111,
      "ĠInst": 6112,
      "Ġspintron": 6113,
      "tance": 6114,
      "inf": 6115,
      "ï¿½ï¿½ï¿½": 6116,
      "Ġindices": 6117,
      "ĠCarlo": 6118,
      "Ġneighbor": 6119,
      "Ġinvolving": 6120,
      "ĠEC": 6121,
      "defined": 6122,
      "BL": 6123,
      "Ġmid": 6124,
      "Ġdest": 6125,
      "DT": 6126,
      "Ġcrystallographic": 6127,
      "Ġacid": 6128,
      "Ġmedia": 6129,
      "ĠSiC": 6130,
      "Ġnom": 6131,
      "Ġneighboring": 6132,
      "ulate": 6133,
      "Ġdescribing": 6134,
      "hat": 6135,
      "Ġ93": 6136,
      "etect": 6137,
      "ĠmW": 6138,
      "Ġnickel": 6139,
      "Sch": 6140,
      "Ġgran": 6141,
      "Ġïģ²": 6142,
      "Ġïģ³": 6143,
      "Ġ]": 6144,
      "Ġments": 6145,
      "Ġsemimetal": 6146,
      "Ġdon": 6147,
      "Ġextreme": 6148,
      "ĠYam": 6149,
      "Ġ94": 6150,
      "Ġvaried": 6151,
      "Ġtwist": 6152,
      "Supp": 6153,
      "Ġintercal": 6154,
      "Rh": 6155,
      "inations": 6156,
      "symmetry": 6157,
      "Ġïĥ§": 6158,
      "left": 6159,
      "Ġexcitons": 6160,
      "Ġconnection": 6161,
      "assive": 6162,
      "Ġoffset": 6163,
      "binding": 6164,
      "jug": 6165,
      "Ġadap": 6166,
      "acing": 6167,
      "Ġtum": 6168,
      "Ġmism": 6169,
      "Ġconfined": 6170,
      "Ġsystematic": 6171,
      "Ġhelical": 6172,
      "Ġminor": 6173,
      "Ġdegradation": 6174,
      "Ġcloser": 6175,
      "AFM": 6176,
      "Ġíĳ": 6177,
      "Ġproduction": 6178,
      "thick": 6179,
      "Ġsides": 6180,
      "Ġoffer": 6181,
      "Ġnonzero": 6182,
      "car": 6183,
      "rosymmetric": 6184,
      "SL": 6185,
      "Ġranges": 6186,
      "Ġinvolves": 6187,
      "ĠCalcul": 6188,
      "Ġinitially": 6189,
      "Ġthermoelectric": 6190,
      "HO": 6191,
      "ĠPV": 6192,
      "Ġpixel": 6193,
      "cipit": 6194,
      "ĭĨ": 6195,
      "Ġ63": 6196,
      "Ġformulation": 6197,
      "ĠSuperconducting": 6198,
      "ĠPy": 6199,
      "Ġreser": 6200,
      "Ġmeta": 6201,
      "Ġgiving": 6202,
      "Ġarc": 6203,
      "Ġprotected": 6204,
      "Ġcommercial": 6205,
      "Ġacknowledges": 6206,
      "triplet": 6207,
      "ĠÎ¼B": 6208,
      "oni": 6209,
      "ĠSA": 6210,
      "standing": 6211,
      "/âĪĨ": 6212,
      "Ġactivity": 6213,
      "ĠÎł": 6214,
      "2004": 6215,
      "which": 6216,
      "Ġfluores": 6217,
      "Ġcorrections": 6218,
      "omer": 6219,
      "uming": 6220,
      "ĠWatanabe": 6221,
      "osity": 6222,
      "ĠBesides": 6223,
      "Ġlithium": 6224,
      "Ġtable": 6225,
      "Ġbright": 6226,
      "ĠNak": 6227,
      "Ġrad": 6228,
      "Ġcompe": 6229,
      "IL": 6230,
      "lec": 6231,
      "Ġïģ±": 6232,
      "ĠStructure": 6233,
      "zy": 6234,
      "ĠSong": 6235,
      "Ġ84": 6236,
      "Ġvertex": 6237,
      "Ġshapes": 6238,
      "Ġleak": 6239,
      "coupling": 6240,
      "Ġsupplementary": 6241,
      "Ġrotational": 6242,
      "uel": 6243,
      "beam": 6244,
      "Ġlittle": 6245,
      "âĢĿ,": 6246,
      "auer": 6247,
      "kBT": 6248,
      "Â·Â·": 6249,
      "Ġfailure": 6250,
      "Ġduration": 6251,
      "Ġobjective": 6252,
      "Ġmodulated": 6253,
      "Ġclosely": 6254,
      "Ġcorner": 6255,
      "Ġtrace": 6256,
      "gener": 6257,
      "ĠEM": 6258,
      "Ġ82": 6259,
      "idal": 6260,
      "Ġuniversal": 6261,
      "Ġdisplacements": 6262,
      "Ġmoder": 6263,
      "Ã¶": 6264,
      "ĠLL": 6265,
      "ditional": 6266,
      "ander": 6267,
      "angular": 6268,
      "Ġvibrational": 6269,
      "iÏīn": 6270,
      "Ġ88": 6271,
      "ollowing": 6272,
      "mol": 6273,
      "ĠFis": 6274,
      "Ġmonolayers": 6275,
      "UR": 6276,
      "ĠRy": 6277,
      "Ġprevent": 6278,
      "âĸłâĸł": 6279,
      "Ġexper": 6280,
      "position": 6281,
      "Ġphosph": 6282,
      "Ġ49": 6283,
      "atives": 6284,
      "Ġincidence": 6285,
      "Ġ81": 6286,
      "esh": 6287,
      "ld": 6288,
      "ĠSurface": 6289,
      "Ġef": 6290,
      "ribed": 6291,
      "Ġ78": 6292,
      "aling": 6293,
      "Ġscattered": 6294,
      "Ġindu": 6295,
      "ĠSem": 6296,
      "ĠNormal": 6297,
      "Ġconve": 6298,
      "alls": 6299,
      "Ġnitride": 6300,
      "hyd": 6301,
      "Ġ89": 6302,
      "eram": 6303,
      "ĠTR": 6304,
      "roup": 6305,
      "Ġ111": 6306,
      "Ġvirt": 6307,
      "ubble": 6308,
      "ĠâĨĳ": 6309,
      "Ġgrant": 6310,
      "Ġrenormalization": 6311,
      "oming": 6312,
      "ĠKondo": 6313,
      "Ġ86": 6314,
      "ĠTiO": 6315,
      "Ġevaluation": 6316,
      "Ġhist": 6317,
      "Ġinhomogeneous": 6318,
      "Ġcontributed": 6319,
      "ĠCC": 6320,
      "ĠDiffe": 6321,
      "ĠRE": 6322,
      "Ġotherwise": 6323,
      "Ġfa": 6324,
      "Ġinclusion": 6325,
      "Ġultras": 6326,
      "Ġdecomposition": 6327,
      "Ġple": 6328,
      "Ġmer": 6329,
      "ĠBro": 6330,
      "Ġdecreased": 6331,
      "Ġneglect": 6332,
      "Ġpotentially": 6333,
      "ĠMW": 6334,
      "Ġhapp": 6335,
      "Ġthermally": 6336,
      "ĠBog": 6337,
      "voir": 6338,
      "ints": 6339,
      "Ġsimplified": 6340,
      "aj": 6341,
      "otic": 6342,
      "Ġadhe": 6343,
      "Ġevol": 6344,
      "ĠOther": 6345,
      "Ġgapless": 6346,
      "Ġestabl": 6347,
      "Ġchirality": 6348,
      "Ġinterfer": 6349,
      "Ġdetermination": 6350,
      "Ġrigid": 6351,
      "ĠAA": 6352,
      "Ġabsorb": 6353,
      "opic": 6354,
      "ien": 6355,
      "Ġtesting": 6356,
      "Ġattenu": 6357,
      "Ġpackage": 6358,
      "ule": 6359,
      "ĠKn": 6360,
      "Ġphotoemission": 6361,
      "Ġessentially": 6362,
      "ĠNA": 6363,
      "Ġengine": 6364,
      "perture": 6365,
      "HS": 6366,
      "size": 6367,
      "ĠNag": 6368,
      "Ġinstr": 6369,
      "Ġensemble": 6370,
      "Ġellip": 6371,
      "Ġfeedback": 6372,
      "FA": 6373,
      "Ġqualitative": 6374,
      "Ġminutes": 6375,
      "ĠChar": 6376,
      "Ġstarts": 6377,
      "Ġlimiting": 6378,
      "Ġdetectors": 6379,
      "Ġ56": 6380,
      "Ġinvestigations": 6381,
      "ĠFollowing": 6382,
      "Ġorthogonal": 6383,
      "Ġms": 6384,
      "Ġdetermining": 6385,
      "ĠSchool": 6386,
      "Ġprogram": 6387,
      "Ġ83": 6388,
      "Ġsingular": 6389,
      "ĠSol": 6390,
      "Ġreact": 6391,
      "ĠDesign": 6392,
      "ĠGraphene": 6393,
      "ĠRESUL": 6394,
      "ĠDa": 6395,
      "ĠGiven": 6396,
      "Th": 6397,
      "ĠCondensed": 6398,
      "Ġholds": 6399,
      "Ġradiative": 6400,
      "Ġmeaning": 6401,
      "Ġintroducing": 6402,
      "Ġmoir": 6403,
      "Ġinsight": 6404,
      "otechn": 6405,
      "Ġtechnologies": 6406,
      "SOC": 6407,
      "FeAs": 6408,
      "Ġergy": 6409,
      "Ġmanner": 6410,
      "Ġbuilt": 6411,
      "Ġillustrate": 6412,
      "Ġpropagating": 6413,
      "trans": 6414,
      "annier": 6415,
      "St": 6416,
      "Ġinteger": 6417,
      "ori": 6418,
      "Ġperforming": 6419,
      "ĠSample": 6420,
      "ĠAug": 6421,
      "ĠHO": 6422,
      "Ġbranches": 6423,
      "ĠOe": 6424,
      "ĠExt": 6425,
      "Ġ117": 6426,
      "Ð°": 6427,
      "orter": 6428,
      "Ġgates": 6429,
      "ĠDuring": 6430,
      "lattices": 6431,
      "PV": 6432,
      "ĠCB": 6433,
      "hand": 6434,
      "Ġtal": 6435,
      "TM": 6436,
      "atz": 6437,
      "Ġagg": 6438,
      "Ġprojected": 6439,
      "Ġcompeting": 6440,
      "Ġreads": 6441,
      "Ġspots": 6442,
      "EA": 6443,
      "ided": 6444,
      "orient": 6445,
      "Ġ700": 6446,
      "Ġchallenge": 6447,
      "Ġmut": 6448,
      "Ġmetast": 6449,
      "Ġprinciples": 6450,
      "Ġice": 6451,
      "Ġence": 6452,
      "Ġdiscrep": 6453,
      "ising": 6454,
      "ĠOx": 6455,
      "Ġ108": 6456,
      "Ġsecondary": 6457,
      "Ġboron": 6458,
      "Ġperovskites": 6459,
      "Ġcalculating": 6460,
      "ĠRESULTS": 6461,
      "arithm": 6462,
      "sup": 6463,
      "Ġcompris": 6464,
      "Ġ91": 6465,
      "ĠElectrical": 6466,
      "Ġtures": 6467,
      "Ġstatistical": 6468,
      "flow": 6469,
      "sti": 6470,
      "ĠdI": 6471,
      "Ġequally": 6472,
      "Ġmultilayer": 6473,
      "Ġconstraint": 6474,
      "ĠDMI": 6475,
      "Ġaxial": 6476,
      "Ġdif": 6477,
      "Ġpaths": 6478,
      "pre": 6479,
      "Ġsuperconduc": 6480,
      "Ġdetermines": 6481,
      "Ġanomaly": 6482,
      "dB": 6483,
      "Ġpurpose": 6484,
      "ĠEX": 6485,
      "continu": 6486,
      "ĠJohn": 6487,
      "Ġsublattice": 6488,
      "Ġexclu": 6489,
      "Ġdesigns": 6490,
      "Ġ113": 6491,
      "Ġlasers": 6492,
      "ermitian": 6493,
      "Phys": 6494,
      "pair": 6495,
      "hertz": 6496,
      "Ġ125": 6497,
      "za": 6498,
      "ĠGao": 6499,
      "Ġpurely": 6500,
      "words": 6501,
      "Ġaccept": 6502,
      "Ġfinally": 6503,
      "Ġducting": 6504,
      "pass": 6505,
      "Ġcomplexity": 6506,
      "ĠACKNOWLEDGMENT": 6507,
      "fit": 6508,
      "Ġwhy": 6509,
      "Ġlargely": 6510,
      "Ġcavities": 6511,
      "Ġdistinguish": 6512,
      "OL": 6513,
      "kk": 6514,
      "Ġcold": 6515,
      "Ġconstraints": 6516,
      "shif": 6517,
      "Ġtransmitted": 6518,
      "rief": 6519,
      "Ġexplan": 6520,
      "iti": 6521,
      "ĠMost": 6522,
      "versi": 6523,
      "Ġpumping": 6524,
      "Ġstripe": 6525,
      "arm": 6526,
      "ĠâĪĴâĪŀ": 6527,
      "ĠkBT": 6528,
      "elled": 6529,
      "Ġexamine": 6530,
      "cussion": 6531,
      "ĠTheoretical": 6532,
      "amin": 6533,
      "ducti": 6534,
      "bridge": 6535,
      "Ġemploying": 6536,
      "Ġlies": 6537,
      "Ġasymp": 6538,
      "ĠHF": 6539,
      "aturally": 6540,
      "idden": 6541,
      "Ġ|âĪĨ": 6542,
      "Ġdescript": 6543,
      "Ġstraightforward": 6544,
      "Ãģ": 6545,
      "Ġcam": 6546,
      "Ġ2015": 6547,
      "oint": 6548,
      "Ġsubject": 6549,
      "Ġreflections": 6550,
      "ensurate": 6551,
      "Ġgen": 6552,
      "Ġreferred": 6553,
      "isson": 6554,
      "lips": 6555,
      "sw": 6556,
      "Ġestimation": 6557,
      "ĠNC": 6558,
      "Ġsymbols": 6559,
      "hi": 6560,
      "ML": 6561,
      "organic": 6562,
      "Ġcorro": 6563,
      "ĠKeywords": 6564,
      "arg": 6565,
      "Ġkagome": 6566,
      "supr": 6567,
      "ĠLondon": 6568,
      "wavelength": 6569,
      "Ġmodeled": 6570,
      "ĠIsing": 6571,
      "Ġbuilding": 6572,
      "Ġremarkable": 6573,
      "iguchi": 6574,
      "ades": 6575,
      "Ġultr": 6576,
      "Ġbarriers": 6577,
      "ĠCurrent": 6578,
      "aren": 6579,
      "ĠRus": 6580,
      "Ġresistive": 6581,
      "imer": 6582,
      "Ġovercome": 6583,
      "ycomb": 6584,
      "2005": 6585,
      "Ġtheorem": 6586,
      ".:": 6587,
      "ened": 6588,
      "Ġprecipit": 6589,
      "Ġcreation": 6590,
      "unication": 6591,
      "ĠSP": 6592,
      "Ġfinan": 6593,
      "Ġeigenvalue": 6594,
      "ĠBeijing": 6595,
      "pris": 6596,
      "ĠâĨĵ": 6597,
      "ĠDISC": 6598,
      "Ġmismatch": 6599,
      "Ġyielding": 6600,
      "ĠMean": 6601,
      "ĠDiscussion": 6602,
      "rystals": 6603,
      "Ġclassification": 6604,
      "Ġreservoir": 6605,
      "Ġ51": 6606,
      "oltzmann": 6607,
      "Ġí": 6608,
      "hire": 6609,
      "ĠSW": 6610,
      "Ġexception": 6611,
      "Ġusual": 6612,
      "optical": 6613,
      "Ġmagnets": 6614,
      "Ġbalance": 6615,
      "Ġtrapping": 6616,
      "NC": 6617,
      "ternational": 6618,
      "Ġadding": 6619,
      "ĠFlo": 6620,
      "Ġconductor": 6621,
      "Ġexponent": 6622,
      "Ġreaching": 6623,
      "Ġwords": 6624,
      "ãĢ": 6625,
      "Ġnominal": 6626,
      "Ġtern": 6627,
      "NP": 6628,
      "ĠCompar": 6629,
      "uri": 6630,
      "RF": 6631,
      "Ġmig": 6632,
      "une": 6633,
      "Ġ52": 6634,
      "Ġsheets": 6635,
      "ĠCommunications": 6636,
      "ensitive": 6637,
      "Ġcriterion": 6638,
      "Ġnor": 6639,
      "ĠRen": 6640,
      "locks": 6641,
      "Ġdrops": 6642,
      "ĠConsidering": 6643,
      "Oe": 6644,
      "ĠRel": 6645,
      "isely": 6646,
      "esting": 6647,
      "ĠHy": 6648,
      "Ġfocusing": 6649,
      "Ġdz": 6650,
      "pean": 6651,
      "Ġselection": 6652,
      "iggs": 6653,
      "Ġep": 6654,
      "ĠÏīn": 6655,
      "ĠWithin": 6656,
      "Ġaluminum": 6657,
      "ĠFund": 6658,
      "Ġaffects": 6659,
      "||": 6660,
      "Ġmu": 6661,
      "Ġ59": 6662,
      "ĠKi": 6663,
      "Ġfigures": 6664,
      "USSION": 6665,
      "Ġpseudo": 6666,
      "Ġelectronics": 6667,
      "kal": 6668,
      "Ġequi": 6669,
      "Ġflake": 6670,
      "Ġmask": 6671,
      "Ġbubble": 6672,
      "ĠCom": 6673,
      "ovolt": 6674,
      "Ġsegment": 6675,
      "Ġsubstantial": 6676,
      "situ": 6677,
      "Ġorgan": 6678,
      "Ġcathod": 6679,
      "Ġrepeated": 6680,
      "Ġowing": 6681,
      "Ġextent": 6682,
      "ĠDISCUSSION": 6683,
      "Ġnanos": 6684,
      "periodic": 6685,
      "inzburg": 6686,
      "Ġattemp": 6687,
      "ĠBu": 6688,
      "Ġcandidates": 6689,
      "atical": 6690,
      "oneycomb": 6691,
      "iii": 6692,
      "MoS": 6693,
      "2023": 6694,
      "Ġsurrounding": 6695,
      "Ġcantile": 6696,
      "pressure": 6697,
      "Ġfect": 6698,
      "rog": 6699,
      "osa": 6700,
      "Ġbroadband": 6701,
      "ules": 6702,
      "ĠPE": 6703,
      "ĠRI": 6704,
      "Ġneglected": 6705,
      "cir": 6706,
      "oxide": 6707,
      "ux": 6708,
      "Ġaperture": 6709,
      "ĠMPa": 6710,
      "2001": 6711,
      "Ġign": 6712,
      "ĠSTO": 6713,
      "Ġphotocurrent": 6714,
      "Ġhum": 6715,
      "Ġdispersive": 6716,
      "anes": 6717,
      "ĠLO": 6718,
      "Ġrandomly": 6719,
      "ffice": 6720,
      "changed": 6721,
      "chip": 6722,
      "apphire": 6723,
      "ĠGuo": 6724,
      "Ġcouple": 6725,
      "ringer": 6726,
      "Ġarrangement": 6727,
      "ĠFL": 6728,
      "ĠkF": 6729,
      "ĠZnO": 6730,
      "Ġprimarily": 6731,
      "icti": 6732,
      "Ġhypot": 6733,
      "Ġearly": 6734,
      "ĠRi": 6735,
      "Ġtrained": 6736,
      "La": 6737,
      "Ġidea": 6738,
      "ĠAmong": 6739,
      "sport": 6740,
      "Ġprecision": 6741,
      "Ġadopted": 6742,
      "Ġcalibration": 6743,
      "Ġul": 6744,
      "ĠDensity": 6745,
      "liash": 6746,
      "ysi": 6747,
      "Ġ350": 6748,
      "XS": 6749,
      "Ġdedu": 6750,
      "Ġuses": 6751,
      "Ġpulsed": 6752,
      "Ġconjug": 6753,
      "ĠDE": 6754,
      "atile": 6755,
      "Ġconfirms": 6756,
      "ises": 6757,
      "ams": 6758,
      "ï£·ï£·": 6759,
      "ĠEs": 6760,
      "Ġweaker": 6761,
      "Ġperme": 6762,
      "Ġexposed": 6763,
      "vectors": 6764,
      "Ġunstable": 6765,
      "Ġcomplicated": 6766,
      "hel": 6767,
      "Ġproduces": 6768,
      "bye": 6769,
      "MP": 6770,
      "lant": 6771,
      "Grant": 6772,
      "Ġlock": 6773,
      "Ġextraction": 6774,
      "Ġreliable": 6775,
      "ï£¬ï£¬": 6776,
      "nas": 6777,
      "Ġpercent": 6778,
      "ĠElectro": 6779,
      "Ġinterpol": 6780,
      "times": 6781,
      "filled": 6782,
      "Ġfrustr": 6783,
      "Ġtin": 6784,
      "sivity": 6785,
      "Ġmoun": 6786,
      "Ġpend": 6787,
      "Ġï£®": 6788,
      "linic": 6789,
      "Ġmajority": 6790,
      "ĠTaniguchi": 6791,
      "Ġinherent": 6792,
      "Ġcatalyst": 6793,
      "uniform": 6794,
      "Ġdecoup": 6795,
      "ĠProgram": 6796,
      "Ġartificial": 6797,
      "Ġshorter": 6798,
      "Ġ53": 6799,
      "Ġyellow": 6800,
      "Ġtempera": 6801,
      "dz": 6802,
      "pz": 6803,
      "Ġcations": 6804,
      "Ġpolariz": 6805,
      "Ġsulf": 6806,
      "Ġdxy": 6807,
      "ĠFlu": 6808,
      "Ġadi": 6809,
      "Ġdry": 6810,
      "ĠMac": 6811,
      "Ġ58": 6812,
      "Ġoptics": 6813,
      "Ġtrapped": 6814,
      "Ġfibers": 6815,
      "ĠFang": 6816,
      "conductors": 6817,
      "Ġnanostructures": 6818,
      "Ġverify": 6819,
      "Ġcou": 6820,
      "Ġheated": 6821,
      "Ġtraditional": 6822,
      "Ġ(âĪ¼": 6823,
      "Ġextension": 6824,
      "Ġaccompan": 6825,
      "Ġature": 6826,
      "rehen": 6827,
      "Ġphotol": 6828,
      "Ġfractional": 6829,
      "Ġbath": 6830,
      "ĠCuO": 6831,
      "ĠDai": 6832,
      "ĠGold": 6833,
      "Ġcomposites": 6834,
      "Ġdeviations": 6835,
      "Ġchallenges": 6836,
      "Ġderivation": 6837,
      "Ġreplaced": 6838,
      "Ġcr": 6839,
      "lassical": 6840,
      "aff": 6841,
      "single": 6842,
      "igu": 6843,
      "Ġlocations": 6844,
      "+)": 6845,
      "Ġfore": 6846,
      "adily": 6847,
      "Ġcylindrical": 6848,
      "Ġinterpre": 6849,
      "ĠCurie": 6850,
      "*,": 6851,
      "component": 6852,
      "Ġmodification": 6853,
      "ĠNW": 6854,
      "ĠCao": 6855,
      "Ġlocally": 6856,
      "arse": 6857,
      "ĠIL": 6858,
      "ĠKer": 6859,
      "Ġ57": 6860,
      "Ġfeas": 6861,
      "Ġindirect": 6862,
      "Ġsignatures": 6863,
      "alcogenides": 6864,
      "Ġmomenta": 6865,
      "Ġrepresenting": 6866,
      "ĠWSe": 6867,
      "dependence": 6868,
      "ĠInstead": 6869,
      "Ġquantify": 6870,
      "Ġturns": 6871,
      "Ġreactions": 6872,
      "zh": 6873,
      "ĠBdG": 6874,
      "ĠâŁ©": 6875,
      "Ġrelaxed": 6876,
      "hematical": 6877,
      "ĠâģĦ": 6878,
      "Ġblocks": 6879,
      "ĠMI": 6880,
      "Ġï£¹": 6881,
      "ĠThermal": 6882,
      "Ġlabeled": 6883,
      "ĠThom": 6884,
      "Ġunus": 6885,
      "Ġtune": 6886,
      "stitut": 6887,
      "ading": 6888,
      "Ġmetastable": 6889,
      "Ġtic": 6890,
      "Ġbit": 6891,
      "Ġlogarithm": 6892,
      "ĠAnn": 6893,
      "anium": 6894,
      "Ġnaturally": 6895,
      "Ġconductive": 6896,
      "Ġabsent": 6897,
      "ĠAI": 6898,
      "ĠDel": 6899,
      "monics": 6900,
      "Ġscalar": 6901,
      "Ġschemes": 6902,
      "Ġadvantages": 6903,
      "ĠWannier": 6904,
      "ducible": 6905,
      "ova": 6906,
      "ats": 6907,
      "ĠAst": 6908,
      "Ġperiodicity": 6909,
      "Ġ79": 6910,
      "vit": 6911,
      "Ġmal": 6912,
      "Ġbehaviors": 6913,
      "Ġdivided": 6914,
      "surface": 6915,
      "ithms": 6916,
      "ĠDas": 6917,
      "Ġparametric": 6918,
      "Ġminima": 6919,
      "Ġunknown": 6920,
      "Ġrectangular": 6921,
      "ĠEuropean": 6922,
      "ĠACS": 6923,
      "Ġhoneycomb": 6924,
      "005": 6925,
      "Ġtemper": 6926,
      "ĠAnderson": 6927,
      "liashberg": 6928,
      "versely": 6929,
      "GO": 6930,
      "hai": 6931,
      "Ġphotodetect": 6932,
      "TB": 6933,
      "Ġve": 6934,
      "Ġcondensed": 6935,
      "Ġspecimen": 6936,
      "ĠSal": 6937,
      "ĠEL": 6938,
      "ĠLuo": 6939,
      "Ġdr": 6940,
      "ĠFeng": 6941,
      "Ġveloci": 6942,
      "ĠOffice": 6943,
      "rer": 6944,
      "ativ": 6945,
      "Ġbreaks": 6946,
      "NH": 6947,
      "ÑĤ": 6948,
      "ĠEk": 6949,
      "Ġverified": 6950,
      "yy": 6951,
      "Ġevid": 6952,
      "print": 6953,
      "independent": 6954,
      "ĠWen": 6955,
      "Ġ76": 6956,
      "Ġchanged": 6957,
      "Ġinterpretation": 6958,
      "ĠChe": 6959,
      "Ġheli": 6960,
      "Ġcooled": 6961,
      "Ġadvanced": 6962,
      "dot": 6963,
      "bias": 6964,
      "ĠHel": 6965,
      "Ġstrengths": 6966,
      "Ġatmosphere": 6967,
      "Ġnorm": 6968,
      "oration": 6969,
      "Ġâİ": 6970,
      "Ġ66": 6971,
      "ĠCheng": 6972,
      "ovolta": 6973,
      "px": 6974,
      "ĠVg": 6975,
      "Ġconstruction": 6976,
      "ĠSrTiO": 6977,
      "Ġsym": 6978,
      "Ġfrag": 6979,
      "ĠInset": 6980,
      "ĠDebye": 6981,
      "racti": 6982,
      "Ġreproduce": 6983,
      "Ġautom": 6984,
      "xS": 6985,
      "Ð½": 6986,
      "Ġstim": 6987,
      "Ġcaptured": 6988,
      "TF": 6989,
      "Ġ109": 6990,
      "Ġ72": 6991,
      "Ġbuffer": 6992,
      "Ġserve": 6993,
      "Ġlig": 6994,
      "Ġprecisely": 6995,
      "ĠTO": 6996,
      "Ġrings": 6997,
      "cool": 6998,
      "Ġmembranes": 6999,
      "Ġdram": 7000,
      "ĠSyn": 7001,
      "nia": 7002,
      "Ġoperations": 7003,
      "bel": 7004,
      "Ġaccumulation": 7005,
      "Ġconductors": 7006,
      "Ġmetamaterial": 7007,
      "ĠLC": 7008,
      "Ġcollection": 7009,
      "FO": 7010,
      "anar": 7011,
      "Ġopening": 7012,
      "Ġultrafast": 7013,
      "Ġporosity": 7014,
      "RC": 7015,
      "Ġ160": 7016,
      "Ġasympto": 7017,
      "ĠSome": 7018,
      "Ġvoid": 7019,
      "Ġkink": 7020,
      "Ġemerges": 7021,
      "termin": 7022,
      "Ġvelocities": 7023,
      "rene": 7024,
      "imental": 7025,
      "Ġsquares": 7026,
      "cosity": 7027,
      "link": 7028,
      "ibb": 7029,
      "SH": 7030,
      "Ġacts": 7031,
      "itons": 7032,
      "ĠURL": 7033,
      "ĠPoisson": 7034,
      "Ġrich": 7035,
      "150": 7036,
      "Ġpast": 7037,
      "Ġanni": 7038,
      "Ġstrains": 7039,
      "ĠPet": 7040,
      "Ġresol": 7041,
      "ĠGinzburg": 7042,
      "ola": 7043,
      "ĠBoltzmann": 7044,
      "oidal": 7045,
      "1103": 7046,
      "Ġsalt": 7047,
      "Ġsphe": 7048,
      "ĠBur": 7049,
      "itaev": 7050,
      "ĠMagn": 7051,
      "Ġquick": 7052,
      "neighb": 7053,
      "Ġpn": 7054,
      "Ġlimitations": 7055,
      "Ġtransparent": 7056,
      "Ġnanoparticle": 7057,
      "ĠXiao": 7058,
      "while": 7059,
      "Ġgeneric": 7060,
      "Ġelemental": 7061,
      "âĪĪ": 7062,
      "Ġcomprehen": 7063,
      "reaking": 7064,
      "ĠAcknowledge": 7065,
      "CNT": 7066,
      "gel": 7067,
      "Ġfinancial": 7068,
      "ogenic": 7069,
      "doping": 7070,
      "Ġgeometrical": 7071,
      "Ġlogical": 7072,
      "Ġattrib": 7073,
      "Ġball": 7074,
      "ĠkeV": 7075,
      "ĠACKNOWLEDGMENTS": 7076,
      "layers": 7077,
      "arb": 7078,
      "Ġcoated": 7079,
      "Ġothers": 7080,
      "Ġvolum": 7081,
      "Ġpossibly": 7082,
      "Ġever": 7083,
      "ĠLight": 7084,
      "Ġanharmonic": 7085,
      "Ġ114": 7086,
      "ĠInternational": 7087,
      "Ġantic": 7088,
      "Ġdiscovered": 7089,
      "Ġsimilarly": 7090,
      "Ġtension": 7091,
      "oll": 7092,
      "ĠGL": 7093,
      "Ġaccompanied": 7094,
      "TA": 7095,
      "ĠBaFe": 7096,
      "ĠâĬ¥": 7097,
      "diff": 7098,
      "Ġfriction": 7099,
      "ĠAM": 7100,
      "Ġpromin": 7101,
      "Eg": 7102,
      "Ġ61": 7103,
      "Ġprogress": 7104,
      "lab": 7105,
      "ĠLDOS": 7106,
      "Ġminimize": 7107,
      "vac": 7108,
      "rew": 7109,
      "arma": 7110,
      "Ġnanof": 7111,
      "Ġstudying": 7112,
      "probe": 7113,
      "ĠFac": 7114,
      "ĠvF": 7115,
      "resolution": 7116,
      "ensively": 7117,
      "ĠAuth": 7118,
      "ĠkV": 7119,
      "Ġquart": 7120,
      "Ġemitter": 7121,
      "Ġtively": 7122,
      "ĠYuan": 7123,
      "coupled": 7124,
      "Ġinelastic": 7125,
      "ĠTH": 7126,
      "Ġci": 7127,
      "Ġapproximated": 7128,
      "ĠoC": 7129,
      "rink": 7130,
      "Ġstatistics": 7131,
      "Ġbrief": 7132,
      "ands": 7133,
      "Ġ62": 7134,
      "Ġïģ§": 7135,
      "att": 7136,
      "ilayer": 7137,
      "Ġonline": 7138,
      "ĠBerg": 7139,
      "Ġeventually": 7140,
      "Ġcamera": 7141,
      "ĠBra": 7142,
      "lication": 7143,
      "valent": 7144,
      "SiO": 7145,
      "ĠTheir": 7146,
      "oment": 7147,
      "ĠHg": 7148,
      "ails": 7149,
      "2003": 7150,
      "Ġhetero": 7151,
      "Ġmodify": 7152,
      "Ïĥz": 7153,
      "ĠCVD": 7154,
      "ĠYBCO": 7155,
      "Ġsilver": 7156,
      "oted": 7157,
      "Ġabsorbed": 7158,
      "ĠNumer": 7159,
      "Ġmaximal": 7160,
      "Ġretain": 7161,
      "Ġintersti": 7162,
      "Ġcoordination": 7163,
      "ochastic": 7164,
      "Ġmetamaterials": 7165,
      "ĠPoly": 7166,
      "FF": 7167,
      "hy": 7168,
      "neg": 7169,
      "Ġsimulate": 7170,
      "Ġintegr": 7171,
      "MM": 7172,
      "Ġsect": 7173,
      "Ġclasses": 7174,
      "Ġsense": 7175,
      "ĠJpn": 7176,
      "Ġ67": 7177,
      "122": 7178,
      "Ds": 7179,
      "Hc": 7180,
      "Ġreflectance": 7181,
      "Ġsubsequently": 7182,
      "ĠPress": 7183,
      "Ġexhibited": 7184,
      "Ġends": 7185,
      "Ġexplanation": 7186,
      "Ġderivatives": 7187,
      "Ġexamined": 7188,
      "ulating": 7189,
      "ambridge": 7190,
      "Ġcompressive": 7191,
      "Ġplates": 7192,
      "Ġdense": 7193,
      "Ġdatab": 7194,
      "Rev": 7195,
      "ĠLif": 7196,
      "003": 7197,
      "Ġoffers": 7198,
      "Ġspectrometer": 7199,
      "Ġviscosity": 7200,
      "cut": 7201,
      "ny": 7202,
      "vered": 7203,
      "ĠLiang": 7204,
      "ĠÄ§Ïī": 7205,
      "Ġreconstruct": 7206,
      "ĠTor": 7207,
      "Ġstresses": 7208,
      "ariance": 7209,
      "uki": 7210,
      "xi": 7211,
      "Îĺ": 7212,
      "ĠZheng": 7213,
      "do": 7214,
      "Ġtermin": 7215,
      "ĠME": 7216,
      "Ġpoor": 7217,
      "Ġtivity": 7218,
      "irical": 7219,
      "rupt": 7220,
      "Ġinterband": 7221,
      "Ġannihil": 7222,
      "graph": 7223,
      "hl": 7224,
      "ĠNP": 7225,
      "Ġpredicts": 7226,
      "ĠInstr": 7227,
      "Ġsupports": 7228,
      "Ġapplicable": 7229,
      "ĠNanotechn": 7230,
      "Ġenabling": 7231,
      "mented": 7232,
      "teg": 7233,
      "Ġsputtering": 7234,
      "Ġ220": 7235,
      "ĠCT": 7236,
      "Ñģ": 7237,
      "ostat": 7238,
      "Ġpublished": 7239,
      "roy": 7240,
      "Ġfluorescence": 7241,
      "Ġtask": 7242,
      "ometers": 7243,
      "ĠPub": 7244,
      "Ġdiam": 7245,
      "Ġinstant": 7246,
      "dt": 7247,
      "ĠYork": 7248,
      "Ġmultip": 7249,
      "nn": 7250,
      "strain": 7251,
      "Ġorange": 7252,
      "Ġ68": 7253,
      "Ġemitters": 7254,
      "Ġagrees": 7255,
      "Ġhighlighted": 7256,
      "ĠJin": 7257,
      "Ġacces": 7258,
      "ĠITO": 7259,
      "ulty": 7260,
      "ĠComparison": 7261,
      "ĠHal": 7262,
      "gue": 7263,
      "vere": 7264,
      "ativistic": 7265,
      "stra": 7266,
      "owski": 7267,
      "Ġcovered": 7268,
      "alytic": 7269,
      "Supplementary": 7270,
      "netically": 7271,
      "Î¼B": 7272,
      "Ġscience": 7273,
      "det": 7274,
      "Ġwet": 7275,
      "Ġalter": 7276,
      "ream": 7277,
      "ĠHong": 7278,
      "Ġtry": 7279,
      "Ġgreatly": 7280,
      "ek": 7281,
      "Ġprobes": 7282,
      "oliubov": 7283,
      "ĠComputational": 7284,
      "ĠInAs": 7285,
      "âĹıâĹıâĹıâĹıâĹıâĹıâĹıâĹı": 7286,
      "step": 7287,
      "âĪĴ(": 7288,
      "Ġsolvent": 7289,
      "Ġconclusions": 7290,
      "ĠBen": 7291,
      "Ġlithography": 7292,
      "Ġreadily": 7293,
      "Ġcombining": 7294,
      "ĠEP": 7295,
      "ĠKar": 7296,
      "hedra": 7297,
      "Ġpracti": 7298,
      "Ġintroduction": 7299,
      "Ġprotocol": 7300,
      "Ġholog": 7301,
      "conne": 7302,
      "Ġremove": 7303,
      "Ġvibrations": 7304,
      "Ġtors": 7305,
      "Ġillustrates": 7306,
      "Ġepitax": 7307,
      "Ġrew": 7308,
      "ĠiÏīn": 7309,
      "Ġconsideration": 7310,
      "Ġfocal": 7311,
      "Ġpixels": 7312,
      "ĠLDA": 7313,
      "apse": 7314,
      "Ġtrends": 7315,
      ".%": 7316,
      "Ġcombinations": 7317,
      "ĠCompared": 7318,
      "Ġinstrument": 7319,
      "Ġnonlocal": 7320,
      "athin": 7321,
      "zag": 7322,
      "ĠTD": 7323,
      "Ġquadru": 7324,
      "Ġcompatible": 7325,
      "Ġtape": 7326,
      "regation": 7327,
      "ource": 7328,
      "Ġconservation": 7329,
      "omy": 7330,
      "Ġcharging": 7331,
      "Ġinsights": 7332,
      "âĪĨ(": 7333,
      "ĠmJ": 7334,
      "ĠGar": 7335,
      "ĠkB": 7336,
      "ĠWei": 7337,
      "Ġïģ°": 7338,
      "Ġcome": 7339,
      "501": 7340,
      "Ġcapable": 7341,
      "Ġsilica": 7342,
      "Ġoccupation": 7343,
      "IB": 7344,
      "ĠProper": 7345,
      "Ġsteel": 7346,
      "ĠPhotonics": 7347,
      "Ġshield": 7348,
      "Ġspecifically": 7349,
      "Ġheterogene": 7350,
      "Ġcylinder": 7351,
      "hard": 7352,
      "oty": 7353,
      "ĠES": 7354,
      "dew": 7355,
      "ancing": 7356,
      "Ġacting": 7357,
      "ented": 7358,
      "Ġramet": 7359,
      "cf": 7360,
      "ĠHiggs": 7361,
      "ĠSk": 7362,
      "ĠAP": 7363,
      "Ġselect": 7364,
      "Ġïģ¢": 7365,
      "ounts": 7366,
      "Ġpredomin": 7367,
      "GL": 7368,
      "Ġcontin": 7369,
      "Ġrecog": 7370,
      "Ġprogramm": 7371,
      "ĠTL": 7372,
      "ĠMi": 7373,
      "Ġexotic": 7374,
      "ĠYBa": 7375,
      "Ġnotation": 7376,
      "Ġvanish": 7377,
      "shell": 7378,
      "Ġdy": 7379,
      "char": 7380,
      "EMENT": 7381,
      "GPa": 7382,
      "Ġpores": 7383,
      "ĠFil": 7384,
      "channel": 7385,
      "Ġalgorithms": 7386,
      "iÏī": 7387,
      "actions": 7388,
      "Ġmonoc": 7389,
      "Ġbridge": 7390,
      "Ġbosonic": 7391,
      "kz": 7392,
      "},": 7393,
      "isenberg": 7394,
      "ĠTA": 7395,
      "ĠCav": 7396,
      "Ġproceed": 7397,
      "ĠSTEM": 7398,
      "Ġplateau": 7399,
      "Ġsubstantially": 7400,
      "Ġgenerates": 7401,
      "oxy": 7402,
      "omogeneity": 7403,
      "Ġaspects": 7404,
      "Ġestablish": 7405,
      "Ð¾Ð": 7406,
      "vil": 7407,
      "Ġprecursor": 7408,
      "spect": 7409,
      "Ġbring": 7410,
      "opot": 7411,
      "Ġdroplets": 7412,
      "Ġtanh": 7413,
      "Ġther": 7414,
      "Ġways": 7415,
      "Ġprinted": 7416,
      "Ġceram": 7417,
      "ĠWhere": 7418,
      "istors": 7419,
      "rotron": 7420,
      "idelity": 7421,
      "Sp": 7422,
      "Ġdisk": 7423,
      "ĠJul": 7424,
      "Ġnanotubes": 7425,
      "Ġwinding": 7426,
      "Ġaddi": 7427,
      "Ġreflectivity": 7428,
      "Ġunitary": 7429,
      "ĠThat": 7430,
      "domain": 7431,
      "mentioned": 7432,
      "ĠIts": 7433,
      "Ġcircle": 7434,
      "ĠHow": 7435,
      "Ġharmonics": 7436,
      "Ġdiffuse": 7437,
      "Ġinterpreted": 7438,
      "ĠpH": 7439,
      "Ġstation": 7440,
      "Ġtravel": 7441,
      "Ġcapability": 7442,
      "pa": 7443,
      "ĠGO": 7444,
      "ĠNN": 7445,
      "ĠThree": 7446,
      "Ġtilt": 7447,
      "ĠFar": 7448,
      "ĠOnce": 7449,
      "Ġten": 7450,
      "Ġ119": 7451,
      "ĠEc": 7452,
      "Ġwidths": 7453,
      "orphic": 7454,
      "CE": 7455,
      "ĠFunction": 7456,
      "rug": 7457,
      "2000": 7458,
      "Ġdigital": 7459,
      "ĠHart": 7460,
      "101": 7461,
      "Ġdimer": 7462,
      "ĠNPs": 7463,
      "nikov": 7464,
      "emp": 7465,
      "Ġdome": 7466,
      "peak": 7467,
      "Ġislands": 7468,
      "Ġmoderate": 7469,
      "ĠUniversit": 7470,
      "Ġanalogous": 7471,
      "Ġtit": 7472,
      "Ġdeple": 7473,
      "novation": 7474,
      "Ġsup": 7475,
      "Ġsemiconducting": 7476,
      "ĠPerdew": 7477,
      "ĠPH": 7478,
      "rier": 7479,
      "ĠiÏī": 7480,
      "Ġmonoton": 7481,
      "Ġdispersions": 7482,
      "Ġanalyses": 7483,
      "Ġturb": 7484,
      "ĠStates": 7485,
      "Ġachieving": 7486,
      "Ġled": 7487,
      "Ġ73": 7488,
      "Ġeigenstates": 7489,
      "Ġexceeds": 7490,
      "ider": 7491,
      "Ġchemistry": 7492,
      "Ġslowly": 7493,
      "Ġâī²": 7494,
      "Ġcompetition": 7495,
      "Ġmodule": 7496,
      "Ġemerge": 7497,
      "ĠIsh": 7498,
      "Ġexhibiting": 7499,
      "oo": 7500,
      "Ġsat": 7501,
      "umb": 7502,
      "aking": 7503,
      "eller": 7504,
      "ĠXia": 7505,
      "bottom": 7506,
      "Ġ900": 7507,
      "agnetization": 7508,
      "Ġflexible": 7509,
      "En": 7510,
      "pal": 7511,
      "rigu": 7512,
      "Ġsom": 7513,
      "Ġtang": 7514,
      "ĠNotably": 7515,
      "isition": 7516,
      "ĠPT": 7517,
      "ĠVG": 7518,
      "Ġcoexistence": 7519,
      "Ġprominent": 7520,
      "Ġlim": 7521,
      "Ġcontrolling": 7522,
      "Ġunchanged": 7523,
      "ĠShang": 7524,
      "Ġtends": 7525,
      "Ġdissoci": 7526,
      "/âĪĤ": 7527,
      "Ġproof": 7528,
      "Ġgoes": 7529,
      "Ġdemonstrating": 7530,
      "Ġlogic": 7531,
      "Ġprinting": 7532,
      "EMS": 7533,
      "control": 7534,
      "ĠRadi": 7535,
      "ĠFrance": 7536,
      "BC": 7537,
      "uller": 7538,
      "ĠYao": 7539,
      "Ġaveraging": 7540,
      "Ġrotating": 7541,
      "ls": 7542,
      "rim": 7543,
      "Ġcondensate": 7544,
      "mid": 7545,
      "perform": 7546,
      "Ġpolymers": 7547,
      "voltage": 7548,
      "GaN": 7549,
      "Ġunusual": 7550,
      "TH": 7551,
      "vable": 7552,
      "|,": 7553,
      "Ġgl": 7554,
      "Ġproton": 7555,
      "Ġsemimetals": 7556,
      "ĠAmer": 7557,
      "ĠTb": 7558,
      "Ġoriginates": 7559,
      "Ġpatterned": 7560,
      "Ġsupporting": 7561,
      "ĠDF": 7562,
      "ads": 7563,
      "SiC": 7564,
      "Ġweights": 7565,
      "âĨĳ,": 7566,
      "Ġpractice": 7567,
      "vF": 7568,
      "ĠLA": 7569,
      "104": 7570,
      "Ġapproximations": 7571,
      "Ġvanishing": 7572,
      "ec": 7573,
      "erial": 7574,
      "Ġkeeping": 7575,
      "ĠTRS": 7576,
      "Ġfunctionals": 7577,
      "Ġsmallest": 7578,
      "ixing": 7579,
      "Ġseparately": 7580,
      "umber": 7581,
      "ĠNuc": 7582,
      "ĠPR": 7583,
      "Ġdiscontinu": 7584,
      "Ġexcitonic": 7585,
      "feld": 7586,
      "Ġ112": 7587,
      "Ġfilters": 7588,
      "Ġpowers": 7589,
      "luc": 7590,
      "106": 7591,
      "Ġaddressed": 7592,
      "Ġreplace": 7593,
      "Ġcantilever": 7594,
      "ĠRH": 7595,
      "ĠEliashberg": 7596,
      "inear": 7597,
      "BA": 7598,
      "ĠAL": 7599,
      "Ġschematically": 7600,
      "Ġroute": 7601,
      "Ġferromagnet": 7602,
      "Ġ71": 7603,
      "Ïĥy": 7604,
      "401": 7605,
      "Ġbuild": 7606,
      "Ġissues": 7607,
      "ĠKitaev": 7608,
      "Di": 7609,
      "tes": 7610,
      "ya": 7611,
      "âĸ²": 7612,
      "Ġaug": 7613,
      "Ġcontour": 7614,
      "Ġregarding": 7615,
      "ennes": 7616,
      "Ġ2014": 7617,
      "Ġ130": 7618,
      "Ġinteract": 7619,
      "aled": 7620,
      "Ġreverse": 7621,
      "ank": 7622,
      "Ġactually": 7623,
      "Ġmanipulation": 7624,
      "Ġsand": 7625,
      "Ø§": 7626,
      "Ġbench": 7627,
      "Ġscans": 7628,
      "electro": 7629,
      "Ġoptically": 7630,
      "Ġtransparen": 7631,
      "irable": 7632,
      "Ġson": 7633,
      "unt": 7634,
      "unnel": 7635,
      "Ġdetermin": 7636,
      "Ġtrig": 7637,
      "Ġemitted": 7638,
      "prop": 7639,
      "ÃĬ": 7640,
      "reciprocal": 7641,
      "Ġsole": 7642,
      "odal": 7643,
      "Ġconsiderable": 7644,
      "shitz": 7645,
      "ÑĢ": 7646,
      "Ġsig": 7647,
      "rot": 7648,
      "Ġnp": 7649,
      "ĠFur": 7650,
      "wards": 7651,
      "Ġemerging": 7652,
      "breaking": 7653,
      "ĠDr": 7654,
      "Ġpolyn": 7655,
      "ĠBogoliubov": 7656,
      "ĠYe": 7657,
      "Ġdrift": 7658,
      "Ġcontinuously": 7659,
      "Ġble": 7660,
      "âĪĹ,": 7661,
      "Ġquantitatively": 7662,
      "ĠSystems": 7663,
      "GHz": 7664,
      "Ġcorrespondence": 7665,
      "Ġï¿½ï¿½ï¿½ï¿½ï¿½": 7666,
      "MT": 7667,
      "TEM": 7668,
      "Ġcarb": 7669,
      "atoms": 7670,
      "(âĪĨ": 7671,
      "Ġinjected": 7672,
      "Ġindependently": 7673,
      "ĠIntensity": 7674,
      "Ġoctahedral": 7675,
      "ĠAtomic": 7676,
      "Ġmigration": 7677,
      "ĠCrystal": 7678,
      "ï£´": 7679,
      "Ġquantized": 7680,
      "ĠFWHM": 7681,
      "105": 7682,
      "valu": 7683,
      "Ġniob": 7684,
      "ĠTS": 7685,
      "Ġstochastic": 7686,
      "usti": 7687,
      "Ġpling": 7688,
      "Ġarri": 7689,
      "Ġcommunication": 7690,
      "XRD": 7691,
      "Ġneur": 7692,
      "ources": 7693,
      "used": 7694,
      "LO": 7695,
      "Ã¡": 7696,
      "lay": 7697,
      "Ġmelt": 7698,
      "Ġgrowing": 7699,
      "Ġ116": 7700,
      "Ġselective": 7701,
      "Ġdominates": 7702,
      "NE": 7703,
      "normal": 7704,
      "IV": 7705,
      "ĠCas": 7706,
      "Ġelectrically": 7707,
      "luding": 7708,
      "uda": 7709,
      "Ġnonlinearity": 7710,
      "Ġefforts": 7711,
      "aver": 7712,
      "1996": 7713,
      "Ġprototy": 7714,
      "Ġimplant": 7715,
      "Ġkinetics": 7716,
      "ĠCorresponding": 7717,
      "bor": 7718,
      "kel": 7719,
      "Ġsity": 7720,
      "Ġabrupt": 7721,
      "Ġcreating": 7722,
      "Ġreflects": 7723,
      "-,": 7724,
      "Ġstem": 7725,
      "Ġreasons": 7726,
      "Ġadiabatic": 7727,
      "ĠShe": 7728,
      "Ġstored": 7729,
      "Ġ69": 7730,
      "Ġgray": 7731,
      "Ġtraces": 7732,
      "BSs": 7733,
      "ĠConclusions": 7734,
      "inite": 7735,
      "Ġtheories": 7736,
      "ĠYIG": 7737,
      "Ġultrathin": 7738,
      "Ġaccessible": 7739,
      "'s": 7740,
      "Ġprobed": 7741,
      "ifor": 7742,
      "Ġbreakdown": 7743,
      "ECT": 7744,
      "diagonal": 7745,
      "ĠUpon": 7746,
      "ĠSever": 7747,
      "Ġtranslation": 7748,
      "singlet": 7749,
      "yan": 7750,
      "ĠHir": 7751,
      "ottky": 7752,
      "Ġcoverage": 7753,
      "Ġbehind": 7754,
      "Ġlib": 7755,
      "ĠPhysica": 7756,
      "Figs": 7757,
      "Ġ'": 7758,
      "ĠLaser": 7759,
      "ĠEE": 7760,
      "liquid": 7761,
      "ĠAnalysis": 7762,
      "ĠPressure": 7763,
      "ĠRS": 7764,
      "occ": 7765,
      "film": 7766,
      "ying": 7767,
      "ĠRG": 7768,
      "Ġ:=": 7769,
      "Ġstabilized": 7770,
      "spe": 7771,
      "ĠPeng": 7772,
      "ĠEm": 7773,
      "ĠPMMA": 7774,
      "ĠTm": 7775,
      "ĠHR": 7776,
      "ften": 7777,
      "Ġperfectly": 7778,
      "ĠDevice": 7779,
      "Ġmediated": 7780,
      "ĠSig": 7781,
      "OM": 7782,
      "hu": 7783,
      "ĠDong": 7784,
      "Ġsomew": 7785,
      "cel": 7786,
      "Ġparab": 7787,
      "integ": 7788,
      "Ġscatter": 7789,
      "Ġpseudopot": 7790,
      "ĠObser": 7791,
      "HT": 7792,
      "grown": 7793,
      "amoto": 7794,
      "Ġ2013": 7795,
      "Ġrepulsive": 7796,
      "Ġvirtual": 7797,
      "ranged": 7798,
      "Ġopens": 7799,
      "Ġimmedi": 7800,
      "2002": 7801,
      "ĠGR": 7802,
      "Ġresulted": 7803,
      "Ġcollo": 7804,
      "Îµn": 7805,
      "ifornia": 7806,
      "Landau": 7807,
      "hof": 7808,
      "ulse": 7809,
      "ĠGW": 7810,
      "Ġattached": 7811,
      "âĭĨ": 7812,
      "Ġvon": 7813,
      "hol": 7814,
      "limit": 7815,
      "Ġsition": 7816,
      "Ġperspective": 7817,
      "Ġspheres": 7818,
      "ahertz": 7819,
      "cribed": 7820,
      "optic": 7821,
      "ĠTransition": 7822,
      "Ġmaxima": 7823,
      "Ġassigned": 7824,
      "dep": 7825,
      "FP": 7826,
      "PBE": 7827,
      "Ġcate": 7828,
      "aterials": 7829,
      "ĠKerr": 7830,
      "220": 7831,
      "ĠIS": 7832,
      "ĠYosh": 7833,
      "Ġnecessarily": 7834,
      "ĠMgO": 7835,
      "Ġutilizing": 7836,
      "Ġscenarios": 7837,
      "Ġsuccessful": 7838,
      "Ġmethodology": 7839,
      "ïĥ": 7840,
      "entation": 7841,
      "Ġgenerating": 7842,
      "ĠBelow": 7843,
      "Ġentanglement": 7844,
      "Ġpolynom": 7845,
      "ĠHS": 7846,
      "ĠPhot": 7847,
      "Ġaccord": 7848,
      "Ġcryogenic": 7849,
      "ĠSingh": 7850,
      "Ġanalytically": 7851,
      "ĠAssuming": 7852,
      "ĠComb": 7853,
      "Ġacquisition": 7854,
      "correlation": 7855,
      "ĠMZMs": 7856,
      "figur": 7857,
      "Ġsec": 7858,
      "ĠImport": 7859,
      "ĠTT": 7860,
      "ĠTanaka": 7861,
      "Ġductivity": 7862,
      "Ġleakage": 7863,
      "Ġaz": 7864,
      "Ġtransparency": 7865,
      "atus": 7866,
      "eda": 7867,
      "ether": 7868,
      "Ïĥx": 7869,
      "Ġspecified": 7870,
      "ĠCalifornia": 7871,
      "from": 7872,
      "system": 7873,
      "Ġfcc": 7874,
      "Ġland": 7875,
      "Ġdays": 7876,
      "ĠAlex": 7877,
      "ĠJe": 7878,
      "Ġgoal": 7879,
      "Ġtial": 7880,
      "ethe": 7881,
      "ĠDire": 7882,
      "Ġscaled": 7883,
      "ĠSz": 7884,
      "ĠIC": 7885,
      "Ġintense": 7886,
      "Ġassump": 7887,
      "ĠSeveral": 7888,
      "ĠMP": 7889,
      "ĠBose": 7890,
      "gered": 7891,
      "Ġzig": 7892,
      "ĠLorentzian": 7893,
      "rude": 7894,
      "ĠHeisenberg": 7895,
      "NPs": 7896,
      "parity": 7897,
      "Ġefficiently": 7898,
      "iller": 7899,
      "orption": 7900,
      "cia": 7901,
      "Ġattracted": 7902,
      "ael": 7903,
      "fs": 7904,
      "roelectric": 7905,
      "Ġmoves": 7906,
      "Ġultim": 7907,
      "Ġroot": 7908,
      "aa": 7909,
      "Ġreceived": 7910,
      "ĠdV": 7911,
      "ĠHil": 7912,
      "add": 7913,
      "ĠAk": 7914,
      "Ġattain": 7915,
      "Ġcone": 7916,
      "ĠDy": 7917,
      "ĠXie": 7918,
      "Ġstrained": 7919,
      "Ġspecimens": 7920,
      "ĠMartin": 7921,
      "Ġfavorable": 7922,
      "hn": 7923,
      "ĠGGA": 7924,
      "Ġdiscreti": 7925,
      "ez": 7926,
      "ĠNov": 7927,
      "ffective": 7928,
      "Ġrequirements": 7929,
      "Ġimmediately": 7930,
      "Ġmutual": 7931,
      "Ġdiscrepancy": 7932,
      "apping": 7933,
      "ĠHT": 7934,
      "ĠOP": 7935,
      "rowth": 7936,
      "beck": 7937,
      "centrosymmetric": 7938,
      "inese": 7939,
      "Î¼Î½": 7940,
      "Ġguide": 7941,
      "Ġsapphire": 7942,
      "ĠThrough": 7943,
      "Ġgrows": 7944,
      "ĠDepend": 7945,
      "Ġantennas": 7946,
      "ĠQDs": 7947,
      "fers": 7948,
      "esian": 7949,
      "Ġstring": 7950,
      "ĠKl": 7951,
      "Ġperconducting": 7952,
      "Ġetch": 7953,
      "ĠâĢ²)": 7954,
      "sol": 7955,
      "Ġfig": 7956,
      "Ġvariance": 7957,
      "Ġexpectation": 7958,
      "âĨĳ(": 7959,
      "ASP": 7960,
      "ĠMET": 7961,
      "Ġconvenient": 7962,
      "ĠVari": 7963,
      "omechanical": 7964,
      "pended": 7965,
      "Ġsoliton": 7966,
      "Ġcapacitor": 7967,
      "sively": 7968,
      "Ġtransduc": 7969,
      "itch": 7970,
      "imuth": 7971,
      "ĠOpt": 7972,
      "Ġtwin": 7973,
      "Ġexponentially": 7974,
      "Ġanode": 7975,
      "ĠChinese": 7976,
      "Ġencod": 7977,
      "âĹ¦,": 7978,
      "ĠRa": 7979,
      "rict": 7980,
      "ĠProject": 7981,
      "ĠSimulation": 7982,
      "Ġtransformed": 7983,
      "Es": 7984,
      "ĠVB": 7985,
      "insulator": 7986,
      "Ġillumin": 7987,
      "Ġobjects": 7988,
      "olet": 7989,
      "ĠNatural": 7990,
      "cr": 7991,
      "Ġatomically": 7992,
      "Ġwavevector": 7993,
      "Ġoccurring": 7994,
      "ĠSOT": 7995,
      "amura": 7996,
      "Ġremoval": 7997,
      "+(": 7998,
      "Ġnoting": 7999,
      "Ġsurpris": 8000,
      "Ġdecades": 8001,
      "Ġintegrating": 8002,
      "ĠRed": 8003,
      "120": 8004,
      "Ġtim": 8005,
      "Ġwor": 8006,
      "icated": 8007,
      "ĠBL": 8008,
      "ĠKum": 8009,
      "ĠDiff": 8010,
      "ĠWol": 8011,
      "Ġconsiderably": 8012,
      "ĠTl": 8013,
      "amped": 8014,
      "Ġrepresentations": 8015,
      "Ġreversible": 8016,
      "ĠUs": 8017,
      "Ġsystematically": 8018,
      "fying": 8019,
      "DD": 8020,
      "crystal": 8021,
      "log": 8022,
      "undred": 8023,
      "ĠXPS": 8024,
      "Ġxx": 8025,
      "Ġtric": 8026,
      "Ġraw": 8027,
      "othermal": 8028,
      "Ġequipped": 8029,
      "ĠSchottky": 8030,
      "CDW": 8031,
      "fi": 8032,
      "ĠMX": 8033,
      "Ġcurrently": 8034,
      "Ġflows": 8035,
      "phen": 8036,
      "sis": 8037,
      "romatic": 8038,
      "Ġii": 8039,
      "103": 8040,
      "Ġthanks": 8041,
      "ĠRC": 8042,
      "mitted": 8043,
      "ĠDing": 8044,
      "parallel": 8045,
      "Ġquickly": 8046,
      "opy": 8047,
      "ËĨc": 8048,
      "ructive": 8049,
      "Ġactivated": 8050,
      "nan": 8051,
      "sy": 8052,
      "Ġunity": 8053,
      "Ġtriple": 8054,
      "Ġphotonics": 8055,
      "Ġdistortions": 8056,
      "omentum": 8057,
      "ĠSato": 8058,
      "ado": 8059,
      "abrication": 8060,
      "âĸ²âĸ²": 8061,
      "eper": 8062,
      "ially": 8063,
      "lined": 8064,
      "ĠSR": 8065,
      "ĠCS": 8066,
      "Ġcondensation": 8067,
      "IF": 8068,
      "Ġcomputer": 8069,
      "Ġliquids": 8070,
      "Ġenvironments": 8071,
      "Ġdate": 8072,
      "Ġcomprehensive": 8073,
      "ĠYb": 8074,
      "Ġïģ¤": 8075,
      "Ġgradients": 8076,
      "Ġquartz": 8077,
      "Ġsomewhat": 8078,
      "ĠEf": 8079,
      "Ġextensively": 8080,
      "Ġabsorber": 8081,
      "ĠReson": 8082,
      "bands": 8083,
      "Ġoptoelectronic": 8084,
      "Ġflo": 8085,
      "Ġrevers": 8086,
      "Ġgy": 8087,
      "gn": 8088,
      "Ġjusti": 8089,
      "pur": 8090,
      "Ġïĥ¶": 8091,
      "metallic": 8092,
      "Ġpersist": 8093,
      "noise": 8094,
      "bile": 8095,
      "pher": 8096,
      "Ġcommun": 8097,
      "ĠCamp": 8098,
      "cially": 8099,
      "Ġtransistor": 8100,
      "Ġamounts": 8101,
      "Ġmounted": 8102,
      "dc": 8103,
      "Ġintrigu": 8104,
      "Ġcontributes": 8105,
      "Ġbattery": 8106,
      "ming": 8107,
      "nzer": 8108,
      "ÃŃ": 8109,
      "Ġcour": 8110,
      "Ġrestricted": 8111,
      "Ġcathode": 8112,
      "PG": 8113,
      "ĠJun": 8114,
      "Ġconverted": 8115,
      "ĠÃĬÃĬ": 8116,
      "iconductor": 8117,
      "Ġaccounts": 8118,
      "Ġ118": 8119,
      "term": 8120,
      "ĠJi": 8121,
      "Ġanalytic": 8122,
      "Â°,": 8123,
      "Ġinteratomic": 8124,
      "Ġ2012": 8125,
      "Ġinstabilities": 8126,
      "Ġfunding": 8127,
      "Ġpurity": 8128,
      "dxy": 8129,
      "Ġimposed": 8130,
      "Ġrefers": 8131,
      "Ġexpress": 8132,
      "ĠMed": 8133,
      "ĠËĨG": 8134,
      "Ġgoverned": 8135,
      "Ġbelieve": 8136,
      "Ġinterstitial": 8137,
      "rr": 8138,
      "ĠDiv": 8139,
      "ºï£ºï£ºï£ºï£": 8140,
      "Hf": 8141,
      "Ġpassi": 8142,
      "Ġrules": 8143,
      "Ġcolors": 8144,
      "¯ï£¯ï£¯ï£¯ï£": 8145,
      "ĠSha": 8146,
      "Ġtransistors": 8147,
      "Ġreferen": 8148,
      "ude": 8149,
      "ĠNam": 8150,
      "ĠDL": 8151,
      "istribution": 8152,
      "Ġphenomenological": 8153,
      "fl": 8154,
      "ĠMu": 8155,
      "ĠMich": 8156,
      "neighbor": 8157,
      "Ġconcern": 8158,
      "chen": 8159,
      "Ġties": 8160,
      "ĠPal": 8161,
      "haus": 8162,
      "Ġïĥ¸": 8163,
      "ï¿½ï¿½ï¿½ï¿½ï¿½ï¿½ï¿½ï¿½": 8164,
      "ĠAstron": 8165,
      "ĠTri": 8166,
      "SEM": 8167,
      "ĠBN": 8168,
      "skii": 8169,
      "Ġlinked": 8170,
      "Cor": 8171,
      "ĠFab": 8172,
      "rup": 8173,
      "Ġmono": 8174,
      "STEM": 8175,
      "Ġletters": 8176,
      "through": 8177,
      "hiba": 8178,
      "ĠProc": 8179,
      "ĠMaxwell": 8180,
      "Ġsynchron": 8181,
      "Ġternary": 8182,
      "ĠNumerical": 8183,
      "LL": 8184,
      "alk": 8185,
      "cho": 8186,
      "Ġphotovolta": 8187,
      "Ġïĥ¦": 8188,
      "Ġknow": 8189,
      "Ġdivergence": 8190,
      "Ġempty": 8191,
      "ĠMetal": 8192,
      "Ġconsequently": 8193,
      "Ġundoped": 8194,
      "Ġ122": 8195,
      "enko": 8196,
      "Ġbur": 8197,
      "Ġmonoch": 8198,
      "âĪĹ(": 8199,
      "Ġeth": 8200,
      "Ġcoupler": 8201,
      "Ġresemb": 8202,
      "dyz": 8203,
      "ĠFC": 8204,
      "ĠFan": 8205,
      "ĠGre": 8206,
      "Ġdecl": 8207,
      "ĠÎµk": 8208,
      "ĠOnly": 8209,
      "Ġdatasets": 8210,
      "trl": 8211,
      "Ġhelium": 8212,
      "Ġsolely": 8213,
      "icity": 8214,
      "Ġdipolar": 8215,
      "Ġhydrides": 8216,
      "ĠPn": 8217,
      "Institute": 8218,
      "eno": 8219,
      "Ġhundred": 8220,
      "Ġcontrary": 8221,
      "Ġisot": 8222,
      "Ġassembly": 8223,
      "No": 8224,
      "rete": 8225,
      "anol": 8226,
      "Ġnever": 8227,
      "Ġsatisfied": 8228,
      "cession": 8229,
      "ĠCharacter": 8230,
      "tin": 8231,
      "ĠID": 8232,
      "ĠMats": 8233,
      "anche": 8234,
      "Ġserved": 8235,
      "ĠSHG": 8236,
      "PhysRev": 8237,
      "Ġmonoclinic": 8238,
      "Ġ(%)": 8239,
      "ĠFl": 8240,
      "Ġcriteria": 8241,
      "Ġiniti": 8242,
      "structures": 8243,
      "Ġtrajectory": 8244,
      "Ġage": 8245,
      "Ġsubjected": 8246,
      "ĠMatsub": 8247,
      "process": 8248,
      "Col": 8249,
      "Ġlated": 8250,
      "Ġconsumption": 8251,
      "Ġradii": 8252,
      "ĠPrevious": 8253,
      "Ġreturn": 8254,
      "ĠAlN": 8255,
      "Ġïĥ¨": 8256,
      "Ġsynthetic": 8257,
      "bound": 8258,
      "ĠSum": 8259,
      "502": 8260,
      "Ġbenchmark": 8261,
      "nzerhof": 8262,
      "spl": 8263,
      "ĠFF": 8264,
      "rep": 8265,
      "Ġce": 8266,
      "Ġgets": 8267,
      "atigue": 8268,
      "ipolar": 8269,
      "ĠMag": 8270,
      "Ġextensive": 8271,
      "Ġestimates": 8272,
      "Ġasymptotic": 8273,
      "vis": 8274,
      "ont": 8275,
      "quality": 8276,
      "ĠDS": 8277,
      "Ġmanifest": 8278,
      "ĠMay": 8279,
      "ĠOAM": 8280,
      "Ġarm": 8281,
      "Ġpermeability": 8282,
      "ests": 8283,
      "Ġunex": 8284,
      "004": 8285,
      "ogram": 8286,
      "Ġtransmon": 8287,
      "Ġvalidation": 8288,
      "erci": 8289,
      "Ġdrain": 8290,
      "version": 8291,
      "Ġspring": 8292,
      "lation": 8293,
      "Ġsam": 8294,
      "Ġstages": 8295,
      "Ġgenerator": 8296,
      "Ġresear": 8297,
      "ĠMgB": 8298,
      "Ġhttp": 8299,
      "Ġtwice": 8300,
      "kyo": 8301,
      "eral": 8302,
      "Ġfourth": 8303,
      "Ġinvolve": 8304,
      "entials": 8305,
      "Ġclock": 8306,
      "ĠCharge": 8307,
      "Ġprobably": 8308,
      "Ġhydroph": 8309,
      "oscopic": 8310,
      "Ġsuperior": 8311,
      "reep": 8312,
      "ĠBefore": 8313,
      "ĠUnited": 8314,
      "Ġattenuation": 8315,
      "aim": 8316,
      "ĠRich": 8317,
      "ĠLifshitz": 8318,
      "mes": 8319,
      "Ġquency": 8320,
      "Ġïĥº": 8321,
      "Ġï£±": 8322,
      "1999": 8323,
      "Ġtriangles": 8324,
      "Ġassumptions": 8325,
      "mn": 8326,
      "Ġmobile": 8327,
      "Ġïĥª": 8328,
      "Ġportion": 8329,
      "Ġdescriptors": 8330,
      "figure": 8331,
      "ican": 8332,
      "Elect": 8333,
      "ĠPG": 8334,
      "mmm": 8335,
      "Ġsilic": 8336,
      "ĠDifferent": 8337,
      "Ġlie": 8338,
      "Ġopt": 8339,
      "Ġobtaining": 8340,
      "Ġdifferenti": 8341,
      "Ġwriting": 8342,
      "oom": 8343,
      "wan": 8344,
      "Ġtrajectories": 8345,
      "Ġnanoshe": 8346,
      "lucid": 8347,
      "An": 8348,
      "Ġton": 8349,
      "Ġpassive": 8350,
      "Ġnal": 8351,
      "ĠNWs": 8352,
      "Ġalkal": 8353,
      "Ġord": 8354,
      "long": 8355,
      "vents": 8356,
      "ĠGh": 8357,
      "ĠKaw": 8358,
      "Ġcourse": 8359,
      "zi": 8360,
      "Ġmechanics": 8361,
      "Ġoperated": 8362,
      "ĠTaking": 8363,
      "Ġferromagnetism": 8364,
      "Ġdatabase": 8365,
      "ĠCV": 8366,
      "ĠAng": 8367,
      "oule": 8368,
      "Ġdemonstration": 8369,
      "Ġemphasize": 8370,
      "Ġexfoliated": 8371,
      "Ġimplying": 8372,
      "125": 8373,
      "Ġcentre": 8374,
      "ĠNbN": 8375,
      "GaAs": 8376,
      "âĸ¡": 8377,
      "Ġmanufacturing": 8378,
      "ĠHC": 8379,
      "ĠDrude": 8380,
      "Ġsuperposition": 8381,
      "ĠUnlike": 8382,
      "Ġconnecting": 8383,
      "ĠFloquet": 8384,
      "Ġafore": 8385,
      "ĠOct": 8386,
      "Ġsuspended": 8387,
      "fe": 8388,
      "sten": 8389,
      "ĠOk": 8390,
      "Ġtraps": 8391,
      "asks": 8392,
      "ĠFuj": 8393,
      "Ġdrawn": 8394,
      "ĠImportantly": 8395,
      "unit": 8396,
      "Ġsummation": 8397,
      "vision": 8398,
      "Ġanalyzer": 8399,
      "Ġguar": 8400,
      "Ġcollapse": 8401,
      "Ġnesting": 8402,
      "ĠProceed": 8403,
      "Ġtechnical": 8404,
      "cale": 8405,
      "non": 8406,
      "Ġsatisfies": 8407,
      "Ġlogarithmic": 8408,
      "Ġvalu": 8409,
      "lus": 8410,
      "Ġfold": 8411,
      "ici": 8412,
      "ĠPDW": 8413,
      "Ġdetuning": 8414,
      "Ġetched": 8415,
      "ĠMad": 8416,
      "formed": 8417,
      "ĠInteg": 8418,
      "Ġscreened": 8419,
      "ĠSubsequ": 8420,
      "Hermitian": 8421,
      "ĠBasic": 8422,
      "ĠJo": 8423,
      "Ġdischarge": 8424,
      "Ġintriguing": 8425,
      "BCS": 8426,
      "ĠTLS": 8427,
      "Ġexplains": 8428,
      "Ġenabled": 8429,
      "Ġelucid": 8430,
      "Ġphotoluminescence": 8431,
      "Ġmathematical": 8432,
      "Ġopportun": 8433,
      "500": 8434,
      "402": 8435,
      "Ġalternating": 8436,
      "dxz": 8437,
      "imoto": 8438,
      "Ġempirical": 8439,
      "Ġbuck": 8440,
      "Ġadhesion": 8441,
      "Ġmuon": 8442,
      "ĠFre": 8443,
      "ĠMolecular": 8444,
      "Ġspectroscopic": 8445,
      "Ġsoften": 8446,
      "Ġpx": 8447,
      "ĠGo": 8448,
      "Ġrotated": 8449,
      "functional": 8450,
      "Ġinsertion": 8451,
      "ĠAcknowledgements": 8452,
      "Ġzigzag": 8453,
      "inv": 8454,
      "Ġrepetition": 8455,
      "mtrl": 8456,
      "Ġreactive": 8457,
      "Ġargument": 8458,
      "ĠTang": 8459,
      "ĠSiN": 8460,
      "TIC": 8461,
      "ĠCMOS": 8462,
      "Ġwider": 8463,
      "interacting": 8464,
      "Ġhappens": 8465,
      "amination": 8466,
      "Ġmetry": 8467,
      "Ġirradiated": 8468,
      "HI": 8469,
      "rome": 8470,
      "Ġprincipal": 8471,
      "ĠâĪ«": 8472,
      "ĠÎ¼A": 8473,
      "Ġexpanded": 8474,
      "-(": 8475,
      "Qu": 8476,
      "Ġanion": 8477,
      "ĠHSE": 8478,
      "Ġmagnons": 8479,
      "ĠMeanwhile": 8480,
      "Ch": 8481,
      "Ġidentification": 8482,
      "ĠPlan": 8483,
      "riger": 8484,
      "vised": 8485,
      "Ġsuperlattice": 8486,
      "ĠMechanical": 8487,
      "ĠMur": 8488,
      "ĠChi": 8489,
      "Ġïĥ¯": 8490,
      "Ġrequirement": 8491,
      "Ġobservable": 8492,
      "mV": 8493,
      "Ġgrate": 8494,
      "Ġ04": 8495,
      "Ġquar": 8496,
      "Ġproducts": 8497,
      "ĠOverall": 8498,
      "Ġrf": 8499,
      "Na": 8500,
      "roz": 8501,
      "Ġdiodes": 8502,
      "PSS": 8503,
      "Ġprimitive": 8504,
      "cing": 8505,
      "Ġmention": 8506,
      "Ġcalcu": 8507,
      "Ġprecession": 8508,
      "squ": 8509,
      "Ġtom": 8510,
      "âĸ¼": 8511,
      "Ġreproduced": 8512,
      "We": 8513,
      "Ġfol": 8514,
      "Ġ(<": 8515,
      "âŁ©.": 8516,
      "Ġcollect": 8517,
      "ZT": 8518,
      "uck": 8519,
      "Ġdose": 8520,
      "ĠRMS": 8521,
      "Ġdip": 8522,
      "Ġdesirable": 8523,
      "Ġcausing": 8524,
      "Ġsn": 8525,
      "0001": 8526,
      "Ġthicker": 8527,
      "Ġhomogen": 8528,
      "ĠLag": 8529,
      "Ġcreates": 8530,
      "Ġeight": 8531,
      "Ġrelies": 8532,
      "ĠâĢĻ": 8533,
      "imeter": 8534,
      "ING": 8535,
      "Ġintegrals": 8536,
      "ĠIP": 8537,
      "Ġnanom": 8538,
      "Ġattraction": 8539,
      "Ġhalide": 8540,
      "Ġtendency": 8541,
      "Ġpat": 8542,
      "Ġ450": 8543,
      "Ġnumerous": 8544,
      "OP": 8545,
      "ossible": 8546,
      "Ġfacilitate": 8547,
      "ĠBon": 8548,
      "hedron": 8549,
      "Ġenhances": 8550,
      "Ġcircum": 8551,
      "hanced": 8552,
      "Ġrecti": 8553,
      "ĠKane": 8554,
      "ĠTyp": 8555,
      "ners": 8556,
      "Ġfall": 8557,
      "ĠPolar": 8558,
      "ĠRL": 8559,
      "ĠHund": 8560,
      "dynamic": 8561,
      "ĠMany": 8562,
      "Ġshaded": 8563,
      "Ġrespec": 8564,
      "BZ": 8565,
      "Ġbilayers": 8566,
      "Im": 8567,
      "rik": 8568,
      "opes": 8569,
      "onds": 8570,
      "ĠChu": 8571,
      "Ġsimilarity": 8572,
      "Ġneighbors": 8573,
      "Ġrobustness": 8574,
      "ids": 8575,
      "ĠRay": 8576,
      "ĠJia": 8577,
      "Ġsegments": 8578,
      "Ġsigns": 8579,
      "Ġstands": 8580,
      "Ġtextures": 8581,
      "ĠLED": 8582,
      "ĠExc": 8583,
      "Ġazimuth": 8584,
      "ĠMETHO": 8585,
      "ales": 8586,
      "Ġâĭ": 8587,
      "Ġcoerci": 8588,
      "Ġattribute": 8589,
      "ĠReports": 8590,
      "Ġenergetically": 8591,
      ")+": 8592,
      "KT": 8593,
      "xz": 8594,
      "essel": 8595,
      "Ġunlike": 8596,
      "Ġupd": 8597,
      "Ġmini": 8598,
      "Ġundergoes": 8599,
      "Ġgases": 8600,
      "ospin": 8601,
      "Ġcreep": 8602,
      "ĠSign": 8603,
      "ĠMark": 8604,
      "ĠGroup": 8605,
      "Ġâĸł": 8606,
      "arded": 8607,
      "law": 8608,
      "ĠInSe": 8609,
      "Ġmodelling": 8610,
      "Ġthermo": 8611,
      "instein": 8612,
      "ĠAv": 8613,
      "ĠPower": 8614,
      "Ġconvolution": 8615,
      "ĠNbSe": 8616,
      "electronics": 8617,
      "DEG": 8618,
      "strial": 8619,
      "Ġcores": 8620,
      "Ġ1500": 8621,
      "ĠCambridge": 8622,
      "ĠPi": 8623,
      "ĠUH": 8624,
      "ambu": 8625,
      "Rs": 8626,
      "Ġ240": 8627,
      "Ġperturbations": 8628,
      "Ġclarity": 8629,
      "Ex": 8630,
      "Ġalone": 8631,
      "Ġcount": 8632,
      "ĠCentre": 8633,
      "Ġcoils": 8634,
      "ĠCNTs": 8635,
      "xC": 8636,
      "Ġ214": 8637,
      "ĠCW": 8638,
      "ĠBas": 8639,
      "Ġfluor": 8640,
      "Ġelong": 8641,
      "Ġbiological": 8642,
      "Ġdisappear": 8643,
      "Ġtance": 8644,
      "Ġincoming": 8645,
      "Ġintercalation": 8646,
      "after": 8647,
      "Js": 8648,
      "bl": 8649,
      "ĠMagnet": 8650,
      "ĠLat": 8651,
      "ella": 8652,
      "Ġmagnitudes": 8653,
      "Ġadsorbed": 8654,
      "HC": 8655,
      "Ġfam": 8656,
      "Ġenthal": 8657,
      "ctional": 8658,
      "ĠKram": 8659,
      "Ġpropos": 8660,
      "Ġcrystallization": 8661,
      "ĠKohn": 8662,
      "Ġmeasures": 8663,
      "Ġpermission": 8664,
      "ĠFA": 8665,
      "abi": 8666,
      "poles": 8667,
      "ĠAuthor": 8668,
      "cap": 8669,
      "chi": 8670,
      "ĠLP": 8671,
      "ĠOptim": 8672,
      "Ġadjusted": 8673,
      "thermal": 8674,
      "Ġheavi": 8675,
      "Ġterahertz": 8676,
      "Ġmonotonically": 8677,
      "planar": 8678,
      "Ġregardless": 8679,
      "ĠShanghai": 8680,
      "ĠComputer": 8681,
      "Ġflowing": 8682,
      "Ġemergent": 8683,
      "Ġplatforms": 8684,
      "ĠMatsubara": 8685,
      "ĠCR": 8686,
      "Ġcircul": 8687,
      "Ġfaces": 8688,
      "issner": 8689,
      "Ġtoler": 8690,
      "ĠHP": 8691,
      "ĠPhil": 8692,
      "ĠÃģÃģ": 8693,
      "Ġguarant": 8694,
      "âĢĿ.": 8695,
      "Ġmicrograph": 8696,
      "Ġencaps": 8697,
      "UV": 8698,
      "mi": 8699,
      "Ġ(âī": 8700,
      "coated": 8701,
      "ĠShim": 8702,
      "Ġtronic": 8703,
      "ĠWave": 8704,
      "Ġdistorted": 8705,
      "Ġmodulator": 8706,
      "points": 8707,
      "Ġepitaxy": 8708,
      "Ġstationary": 8709,
      "ested": 8710,
      "ĠBlack": 8711,
      "ĠLut": 8712,
      "Ġcapabilities": 8713,
      "ster": 8714,
      "Ġhc": 8715,
      "otal": 8716,
      "lov": 8717,
      "Ġrefinement": 8718,
      "Ġcorrected": 8719,
      "Ġdeveloping": 8720,
      "Ġoscillators": 8721,
      "Ġrelease": 8722,
      "ĠTian": 8723,
      "tw": 8724,
      "ĠCONCLUSIONS": 8725,
      "Ġ05": 8726,
      "ĠIndia": 8727,
      "itt": 8728,
      "Ġ014": 8729,
      "ĠYin": 8730,
      "Ġtransforms": 8731,
      "Ġreceiver": 8732,
      "iling": 8733,
      "ĠKir": 8734,
      "Ġdonor": 8735,
      "ĠProceedings": 8736,
      "Ġinequ": 8737,
      "ĠItaly": 8738,
      "aux": 8739,
      "Ġmasses": 8740,
      "chers": 8741,
      "infrared": 8742,
      "ĠTra": 8743,
      "Ġhidden": 8744,
      "idire": 8745,
      "Ġscope": 8746,
      "Ġatomistic": 8747,
      "ĠCoup": 8748,
      "Ġ||": 8749,
      "Ġoccurrence": 8750,
      "ĠNotice": 8751,
      "Ġspintronics": 8752,
      "Ġtechnological": 8753,
      "Ġstrategies": 8754,
      "Bs": 8755,
      "THz": 8756,
      "ĠâĪĻ": 8757,
      "cuit": 8758,
      "Ġloaded": 8759,
      "Ġpassing": 8760,
      "Ġcus": 8761,
      "Ġfurn": 8762,
      "ĠLN": 8763,
      "102": 8764,
      "STO": 8765,
      "FLO": 8766,
      "Ġconstrained": 8767,
      "Ġparabolic": 8768,
      "ĠRh": 8769,
      "Ġinterac": 8770,
      "elli": 8771,
      "Ġproperly": 8772,
      "Ġpnicti": 8773,
      "Ġannihilation": 8774,
      "prin": 8775,
      "lest": 8776,
      "Ġlocking": 8777,
      "ĠAndre": 8778,
      "ĠOptics": 8779,
      "Ġconfirming": 8780,
      "graphene": 8781,
      "core": 8782,
      "ĠFFT": 8783,
      "Ġstrict": 8784,
      "ĠMass": 8785,
      "ĠTok": 8786,
      "âĨĵ(": 8787,
      "igger": 8788,
      "DR": 8789,
      "ĠRoy": 8790,
      "Ġtransmittance": 8791,
      "ĠFed": 8792,
      "ĠIns": 8793,
      "Ġtrunc": 8794,
      "Ġgrey": 8795,
      "dI": 8796,
      "ĠkOe": 8797,
      "Ġpowders": 8798,
      "QE": 8799,
      "ices": 8800,
      "Ġresources": 8801,
      "Ġplus": 8802,
      "Ġapproaching": 8803,
      "ĠStructural": 8804,
      "cepted": 8805,
      "Ġaforementioned": 8806,
      "Ġcasc": 8807,
      "Ġoriginating": 8808,
      "Ġvalidity": 8809,
      "Table": 8810,
      "Ġaff": 8811,
      "ĠGP": 8812,
      "ĠRemark": 8813,
      "xN": 8814,
      "ĠBP": 8815,
      "romet": 8816,
      "abs": 8817,
      "Ġlimitation": 8818,
      "Ġcollis": 8819,
      "Ġstoichiometric": 8820,
      "Ġdeduced": 8821,
      "Ġballistic": 8822,
      "Ġinstantaneous": 8823,
      "IM": 8824,
      "ĠCap": 8825,
      "ĠdBm": 8826,
      "bro": 8827,
      "Ġferent": 8828,
      "ĠAdvances": 8829,
      "pension": 8830,
      "ĠSant": 8831,
      "ĠKle": 8832,
      "emt": 8833,
      "Ġdissipative": 8834,
      "lar": 8835,
      "Ġfuel": 8836,
      "Ġregression": 8837,
      "Ġglasses": 8838,
      "Ġrent": 8839,
      "Ġserves": 8840,
      "Ġ02": 8841,
      "Ġdefines": 8842,
      "ĠCounc": 8843,
      "Ġoperate": 8844,
      "ĠCouncil": 8845,
      "lege": 8846,
      "ĠâĪĴ(": 8847,
      "Ġrely": 8848,
      "elves": 8849,
      "ĠKr": 8850,
      "Ġrenormalized": 8851,
      "Ġjoint": 8852,
      "chanics": 8853,
      "Ġdepletion": 8854,
      "Ġfatigue": 8855,
      "pected": 8856,
      "Ġsingularity": 8857,
      "dy": 8858,
      "tier": 8859,
      "Ġinsets": 8860,
      "queous": 8861,
      "Ġanalyzing": 8862,
      "Ġnanocomp": 8863,
      "Ġsket": 8864,
      "Ġrib": 8865,
      "Vs": 8866,
      "Ġ1200": 8867,
      "Ġplasticity": 8868,
      "onical": 8869,
      "Ġrear": 8870,
      "Ġprove": 8871,
      "...": 8872,
      "Ġdelocal": 8873,
      "ĠïĤ´": 8874,
      "align": 8875,
      "ĠSl": 8876,
      "Ġincomp": 8877,
      "Ġoptimum": 8878,
      "EDOT": 8879,
      "Ġdiffusive": 8880,
      "Ġdisappears": 8881,
      "Ġpick": 8882,
      "ĠBC": 8883,
      "ĠiÏĥ": 8884,
      "Ġdopant": 8885,
      "Ġthor": 8886,
      "idge": 8887,
      "ĠKong": 8888,
      "Ġoptimize": 8889,
      "âĹ¦âĹ¦âĹ¦âĹ¦": 8890,
      "Springer": 8891,
      "tun": 8892,
      "Ġ(ïģ": 8893,
      "ĠDem": 8894,
      "net": 8895,
      "wall": 8896,
      "ĠLaw": 8897,
      "ĠEJ": 8898,
      "Ġproducing": 8899,
      "oki": 8900,
      "Ġdiffusi": 8901,
      "ĠThomas": 8902,
      "ĠProperties": 8903,
      "Ġsandw": 8904,
      "bra": 8905,
      "Ġ00": 8906,
      "ĠHol": 8907,
      "Ġsimplest": 8908,
      "Ġsatell": 8909,
      "Ġtained": 8910,
      "ĠSur": 8911,
      "Ġelast": 8912,
      "Ġquantization": 8913,
      "Ġtrilayer": 8914,
      "Ġdissociation": 8915,
      "GW": 8916,
      "ĠLap": 8917,
      "Ġpowerful": 8918,
      "shift": 8919,
      "ĠMol": 8920,
      "mme": 8921,
      "ustom": 8922,
      "Ġrecogn": 8923,
      "Ġ03": 8924,
      "Ġcyclic": 8925,
      "force": 8926,
      "sorption": 8927,
      "Ġbegin": 8928,
      "controlled": 8929,
      "Ġber": 8930,
      "parts": 8931,
      "Ġcouples": 8932,
      "anned": 8933,
      "Ġdiffractive": 8934,
      "Ġuniformly": 8935,
      "Is": 8936,
      "Ġround": 8937,
      "assisted": 8938,
      "Ġradio": 8939,
      "Ġefficiencies": 8940,
      "sectional": 8941,
      "ĠAstronomy": 8942,
      "itely": 8943,
      "Ġfluxes": 8944,
      "ĠCrI": 8945,
      "Ġmitig": 8946,
      "HA": 8947,
      "rand": 8948,
      "âĢł,": 8949,
      "ĠProf": 8950,
      "ĠAcknowled": 8951,
      "ĠVi": 8952,
      "Ġdoi": 8953,
      "trie": 8954,
      "ĠControl": 8955,
      "dynamics": 8956,
      "Ġconducti": 8957,
      "cha": 8958,
      "ĠGST": 8959,
      "izable": 8960,
      "Ġports": 8961,
      "ubbles": 8962,
      "Ġentirely": 8963,
      "Ġsummarize": 8964,
      "ĠGeneral": 8965,
      "ĠMeasurement": 8966,
      "Ġlation": 8967,
      "imen": 8968,
      "ĠMF": 8969,
      "osi": 8970,
      "Ġcall": 8971,
      "orov": 8972,
      "Ġpurposes": 8973,
      "Ġflexibility": 8974,
      "Ġacceleration": 8975,
      "Ġsulfur": 8976,
      "âĸ¼âĸ¼": 8977,
      "rd": 8978,
      "ĠNH": 8979,
      "ĠKh": 8980,
      "Ġï£²": 8981,
      "Ġjumps": 8982,
      "DL": 8983,
      "MF": 8984,
      "vortex": 8985,
      "Ġoil": 8986,
      "ĠHard": 8987,
      "Ġconstitutive": 8988,
      "Ġreconstructed": 8989,
      "Ġï£³": 8990,
      "feren": 8991,
      "ĠTemp": 8992,
      "Ġdxz": 8993,
      "Sc": 8994,
      "fine": 8995,
      "rint": 8996,
      "ĠVBM": 8997,
      "Ġbonded": 8998,
      "Ġaccordance": 8999,
      "BdG": 9000,
      "ĠSak": 9001,
      "redic": 9002,
      "ifications": 9003,
      "Ġï¿½âĪĴ": 9004,
      "Ġsevere": 9005,
      "Ġparticip": 9006,
      "Ġtransformations": 9007,
      "Ġstoichiometry": 9008,
      "ĠAcknowledg": 9009,
      "iÏĨ": 9010,
      "Ġcally": 9011,
      "oric": 9012,
      "racting": 9013,
      "Ġamplification": 9014,
      "ĠChoi": 9015,
      "ĠDavid": 9016,
      "Ġholograph": 9017,
      "Ġdeclare": 9018,
      "Ġfinger": 9019,
      "Ġdens": 9020,
      "ĠdÎµ": 9021,
      "Ġppm": 9022,
      "ĠDivision": 9023,
      "ĠTom": 9024,
      "ĠHE": 9025,
      "Ġmatches": 9026,
      "Ġpreferred": 9027,
      "ĠAmerican": 9028,
      "zin": 9029,
      "ĠMas": 9030,
      "ĠCF": 9031,
      "ĠRob": 9032,
      "ĠLong": 9033,
      "107": 9034,
      "Ġsuspension": 9035,
      "Ġmaintained": 9036,
      "hev": 9037,
      "Ġlaboratory": 9038,
      "DMFT": 9039,
      "ĠDirect": 9040,
      "aylor": 9041,
      "Ġnonmagnetic": 9042,
      "Ġpointed": 9043,
      "effer": 9044,
      "Ġpolynomial": 9045,
      ",âĨĵ": 9046,
      "ĠOf": 9047,
      "Ġtopo": 9048,
      "Ġpossesses": 9049,
      "ĠFEM": 9050,
      "ĠMal": 9051,
      "ĠNambu": 9052,
      "deg": 9053,
      "hape": 9054,
      "Ġvariational": 9055,
      "Ġdominate": 9056,
      "Ġfractions": 9057,
      "CA": 9058,
      "Ġmg": 9059,
      "Ġsubgap": 9060,
      "ln": 9061,
      "Ġirreducible": 9062,
      "filling": 9063,
      "CN": 9064,
      "HP": 9065,
      "Ġtools": 9066,
      "Ġintroduces": 9067,
      "Ġcontroll": 9068,
      "ĠAccordingly": 9069,
      "Ġpinned": 9070,
      "Ġfeasible": 9071,
      "city": 9072,
      "Ġ(-": 9073,
      "Ġ750": 9074,
      "Ġlowering": 9075,
      "Ġenvironmental": 9076,
      "VE": 9077,
      "ĠLE": 9078,
      "STM": 9079,
      "pm": 9080,
      "Ġmation": 9081,
      "sia": 9082,
      "ĠON": 9083,
      "Ġconsiderations": 9084,
      "Ġfabricate": 9085,
      "ĠSNR": 9086,
      "ĠAHE": 9087,
      "ĠPhysi": 9088,
      "Ġinco": 9089,
      "Ġdirectional": 9090,
      "ĠÏĥz": 9091,
      "Ġimproving": 9092,
      "loss": 9093,
      "illary": 9094,
      "Ġinputs": 9095,
      "Ġdeformed": 9096,
      "Ġsector": 9097,
      "dT": 9098,
      "ĠHig": 9099,
      "scattering": 9100,
      "Ġwaven": 9101,
      "Ġoscillating": 9102,
      "ĠSeebeck": 9103,
      "ĠËĨS": 9104,
      "Ġruns": 9105,
      "Ġcarefully": 9106,
      "iza": 9107,
      "ĠOs": 9108,
      "isting": 9109,
      "Ġcomplexes": 9110,
      "PbBr": 9111,
      "ĠCL": 9112,
      "nik": 9113,
      "Ġrealizing": 9114,
      "ï£´ï£´": 9115,
      "ĠTer": 9116,
      "ĠRod": 9117,
      "ayashi": 9118,
      "Ġimper": 9119,
      "Ġdecays": 9120,
      "Ġnormalization": 9121,
      "Ġelse": 9122,
      "Ġphysically": 9123,
      "Ġfoil": 9124,
      "Ġeye": 9125,
      "Ġhydride": 9126,
      "Ġoriginate": 9127,
      "Ġdiamagnetic": 9128,
      "Ġcoarse": 9129,
      "Ġshaped": 9130,
      "ĠMeissner": 9131,
      "eel": 9132,
      "ifies": 9133,
      "ĠHamiltonians": 9134,
      "ĠWilson": 9135,
      "BG": 9136,
      "herence": 9137,
      "ĠOut": 9138,
      "Ġquasic": 9139,
      "Ġdependences": 9140,
      "Ġrefriger": 9141,
      "ĠType": 9142,
      "RA": 9143,
      "UT": 9144,
      "Ġcustom": 9145,
      "ĠForm": 9146,
      "ĠRs": 9147,
      "Ġdiffers": 9148,
      "Srx": 9149,
      "400": 9150,
      "ĠSchmid": 9151,
      "Ġcalibrated": 9152,
      "NI": 9153,
      "asting": 9154,
      "Ġ2011": 9155,
      "ards": 9156,
      "Ġsaturated": 9157,
      "ĠRPA": 9158,
      "due": 9159,
      "ĠHartree": 9160,
      "ĠËĨg": 9161,
      "Ġtilted": 9162,
      "Ġcycling": 9163,
      "ĠStrong": 9164,
      "Ġseconds": 9165,
      "WS": 9166,
      "ĠPot": 9167,
      "ĠKore": 9168,
      "Ġimply": 9169,
      "Ġaux": 9170,
      "eria": 9171,
      "DI": 9172,
      "DMR": 9173,
      "reci": 9174,
      "ĠKres": 9175,
      "Ġkg": 9176,
      "Ġitiner": 9177,
      "Ġscientific": 9178,
      "bonding": 9179,
      "Ġmarg": 9180,
      "ĠYi": 9181,
      "ĠAltern": 9182,
      "Ġdesigning": 9183,
      "Ġ121": 9184,
      "Ġmicrostructures": 9185,
      "ortunately": 9186,
      "ĠHer": 9187,
      "Ġrotations": 9188,
      "fermion": 9189,
      "front": 9190,
      "Ġmodern": 9191,
      "illar": 9192,
      "Ġholder": 9193,
      "HF": 9194,
      "Ã³": 9195,
      "Ġgoing": 9196,
      "ĠScanning": 9197,
      "Ġmissing": 9198,
      "AF": 9199,
      "ĠSRO": 9200,
      "SCO": 9201,
      "Ġrevealing": 9202,
      "matrix": 9203,
      "mediated": 9204,
      "ĠSan": 9205,
      "ĠClear": 9206,
      "109": 9207,
      "ĠChrist": 9208,
      "Ġphononic": 9209,
      "Ġimportantly": 9210,
      "ĠBay": 9211,
      "Ġcess": 9212,
[...]
