{
  "version": "1.0",
  "truncation": null,
  "padding": null,
  "added_tokens": [
    {
      "id": 0,
      "content": "<s>",
      "single_word": false,
      "lstrip": false,
      "rstrip": false,
      "normalized": false,
      "special": true
    },
    {
      "id": 1,
      "content": "<pad>",
      "single_word": false,
      "lstrip": false,
      "rstrip": false,
      "normalized": false,
      "special": true
    },
    {
      "id": 2,
      "content": "</s>",
      "single_word": false,
      "lstrip": false,
      "rstrip": false,
      "normalized": false,
      "special": true
    },
    {
      "id": 3,
      "content": "<unk>",
      "single_word": false,
      "lstrip": false,
      "rstrip": false,
      "normalized": false,
      "special": true
    },
    {
      "id": 4,
      "content": "<mask>",
      "single_word": false,
      "lstrip": false,
      "rstrip": false,
      "normalized": false,
      "special": true
    }
  ],
  "normalizer": null,
  "pre_tokenizer": {
    "type": "ByteLevel",
    "add_prefix_space": true,
    "trim_offsets": true,
    "use_regex": true
  },
  "post_processor": null,
  "decoder": null,
  "model": {
    "type": "BPE",
    "dropout": null,
    "unk_token": null,
    "continuing_subword_prefix": null,
    "end_of_word_suffix": null,
    "fuse_unk": false,
    "byte_fallback": false,
    "ignore_merges": false,
    "vocab": {
      "<s>": 0,
      "<pad>": 1,
      "</s>": 2,
      "<unk>": 3,
      "<mask>": 4,
      "!": 5,
      "\"": 6,
      "#": 7,
      "$": 8,
      "%": 9,
      "&": 10,
      "'": 11,
      "(": 12,
      ")": 13,
      "*": 14,
      "+": 15,
      ",": 16,
      "-": 17,
      ".": 18,
      "/": 19,
      "0": 20,
      "1": 21,
      "2": 22,
      "3": 23,
      "4": 24,
      "5": 25,
      "6": 26,
      "7": 27,
      "8": 28,
      "9": 29,
      ":": 30,
      ";": 31,
      "<": 32,
      "=": 33,
      ">": 34,
      "?": 35,
      "@": 36,
      "A": 37,
      "B": 38,
      "C": 39,
      "D": 40,
      "E": 41,
      "F": 42,
      "G": 43,
      "H": 44,
      "I": 45,
      "J": 46,
      "K": 47,
      "L": 48,
      "M": 49,
      "N": 50,
      "O": 51,
      "P": 52,
      "Q": 53,
      "R": 54,
      "S": 55,
      "T": 56,
      "U": 57,
      "V": 58,
      "W": 59,
      "X": 60,
      "Y": 61,
      "Z": 62,
      "[": 63,
      "\\": 64,
      "]": 65,
      "^": 66,
      "_": 67,
      "`": 68,
      "a": 69,
      "b": 70,
      "c": 71,
      "d": 72,
      "e": 73,
      "f": 74,
      "g": 75,
      "h": 76,
      "i": 77,
      "j": 78,
      "k": 79,
      "l": 80,
      "m": 81,
      "n": 82,
      "o": 83,
      "p": 84,
      "q": 85,
      "r": 86,
      "s": 87,
      "t": 88,
      "u": 89,
      "v": 90,
      "w": 91,
      "x": 92,
      "y": 93,
      "z": 94,
      "{": 95,
      "|": 96,
      "}": 97,
      "~": 98,
      "¡": 99,
      "¢": 100,
      "£": 101,
      "¤": 102,
      "¥": 103,
      "¦": 104,
      "§": 105,
      "¨": 106,
      "©": 107,
      "ª": 108,
      "«": 109,
      "¬": 110,
      "®": 111,
      "¯": 112,
      "°": 113,
      "±": 114,
      "²": 115,
      "³": 116,
      "´": 117,
      "µ": 118,
      "¶": 119,
      "·": 120,
      "¸": 121,
      "¹": 122,
      "º": 123,
      "»": 124,
      "¼": 125,
      "½": 126,
      "¾": 127,
      "¿": 128,
      "Â": 129,
      "Ã": 130,
      "Ä": 131,
      "Å": 132,
      "Æ": 133,
      "Ç": 134,
      "È": 135,
      "É": 136,
      "Ê": 137,
      "Ë": 138,
      "Ì": 139,
      "Í": 140,
      "Î": 141,
      "Ï": 142,
      "Ð": 143,
      "Ñ": 144,
      "Ò": 145,
      "Ó": 146,
      "Ô": 147,
      "Õ": 148,
      "Ö": 149,
      "×": 150,
      "Ø": 151,
      "Ù": 152,
      "Û": 153,
      "Ü": 154,
      "Ý": 155,
      "Þ": 156,
      "ß": 157,
      "à": 158,
      "á": 159,
      "â": 160,
      "ã": 161,
      "ä": 162,
      "å": 163,
      "æ": 164,
      "ç": 165,
      "è": 166,
      "é": 167,
      "ê": 168,
      "ë": 169,
      "ì": 170,
      "í": 171,
      "î": 172,
      "ï": 173,
      "ð": 174,
      "ô": 175,
      "Ā": 176,
      "ā": 177,
      "Ă": 178,
      "ă": 179,
      "Ą": 180,
      "ą": 181,
      "Ć": 182,
      "ć": 183,
      "Ĉ": 184,
      "Ď": 185,
      "ď": 186,
      "Đ": 187,
      "đ": 188,
      "Ē": 189,
      "ē": 190,
      "Ĕ": 191,
      "ĕ": 192,
      "Ė": 193,
      "ė": 194,
      "Ę": 195,
      "ę": 196,
      "Ě": 197,
      "ě": 198,
      "Ġ": 199,
      "ġ": 200,
      "Ģ": 201,
      "ģ": 202,
      "Ĥ": 203,
      "ĥ": 204,
      "Ħ": 205,
      "ħ": 206,
      "Ĩ": 207,
      "ĩ": 208,
      "Ī": 209,
      "ī": 210,
      "Ĭ": 211,
      "ĭ": 212,
      "Į": 213,
      "į": 214,
      "İ": 215,
      "ı": 216,
      "Ĳ": 217,
      "ĳ": 218,
      "Ĵ": 219,
      "ĵ": 220,
      "Ķ": 221,
      "ķ": 222,
      "ĸ": 223,
      "Ĺ": 224,
      "ĺ": 225,
      "Ļ": 226,
      "ļ": 227,
      "Ľ": 228,
      "ľ": 229,
      "Ŀ": 230,
      "ŀ": 231,
      "Ł": 232,
      "ł": 233,
      "Ń": 234,
      "Ġt": 235,
      "he": 236,
      "Ġa": 237,
      "in": 238,
      "on": 239,
      "Ġthe": 240,
      "re": 241,
      "er": 242,
      "ti": 243,
      "Ġs": 244,
      "Ġo": 245,
      "en": 246,
      "Ġc": 247,
      "al": 248,
      "at": 249,
      "an": 250,
      "or": 251,
      "Ġf": 252,
      "Ġp": 253,
      "ed": 254,
      "Ġin": 255,
      "Ġof": 256,
      "Ġan": 257,
      "is": 258,
      "Ġ(": 259,
      "it": 260,
      "es": 261,
      "Ġd": 262,
      "tion": 263,
      "Ġw": 264,
      "Ġm": 265,
      "Ġb": 266,
      "Ġand": 267,
      "ing": 268,
      "ic": 269,
      "ar": 270,
      "ro": 271,
      "le": 272,
      "Ġe": 273,
      "ĠT": 274,
      "ct": 275,
      "as": 276,
      "Ġ1": 277,
      "Ġto": 278,
      "Ġre": 279,
      "ation": 280,
      "ĠS": 281,
      "el": 282,
      "et": 283,
      "ent": 284,
      "Ġn": 285,
      "Ġl": 286,
      "Ġâ": 287,
      "Ġis": 288,
      "ĠA": 289,
      "Ġ2": 290,
      "Ġth": 291,
      "mp": 292,
      "ce": 293,
      "ig": 294,
      "ul": 295,
      "ur": 296,
      "st": 297,
      "ĠM": 298,
      "ĠF": 299,
      "ol": 300,
      "un": 301,
      "Ġ0": 302,
      "ĠC": 303,
      "Ġfor": 304,
      "ĠP": 305,
      "Ġh": 306,
      "im": 307,
      "ow": 308,
      "Ġst": 309,
      "ure": 310,
      "us": 311,
      "ve": 312,
      "ra": 313,
      "ith": 314,
      "ly": 315,
      "Ġ=": 316,
      "Ġ[": 317,
      "ĠThe": 318,
      "tic": 319,
      "Ġcon": 320,
      "Ġg": 321,
      "si": 322,
      "ĠI": 323,
      "Ġwith": 324,
      "ot": 325,
      "ĠâĪ": 326,
      "il": 327,
      "Ġco": 328,
      "ĠR": 329,
      "ch": 330,
      "Ġv": 331,
      "ĠB": 332,
      "ĠH": 333,
      "ðĿ": 334,
      "ag": 335,
      "Ġbe": 336,
      "per": 337,
      "qu": 338,
      "ĠL": 339,
      "id": 340,
      ").": 341,
      "ĠÎ": 342,
      "ity": 343,
      "om": 344,
      "Ġex": 345,
      "Ġas": 346,
      "Ġsu": 347,
      "od": 348,
      "ter": 349,
      "Ġon": 350,
      "ction": 351,
      "ĠE": 352,
      "Ġat": 353,
      "ĠN": 354,
      "ĠD": 355,
      "Ġde": 356,
      "ff": 357,
      "ri": 358,
      "am": 359,
      "00": 360,
      "res": 361,
      "um": 362,
      "du": 363,
      "ut": 364,
      "Ġby": 365,
      "Ġ3": 366,
      "Ġthat": 367,
      "pe": 368,
      "ĠW": 369,
      "Ġare": 370,
      "ate": 371,
      "se": 372,
      "ĠJ": 373,
      "Ġwe": 374,
      "Ġal": 375,
      "ĠK": 376,
      "ĠG": 377,
      "Ġpro": 378,
      "âĢ": 379,
      "Ġdi": 380,
      "ir": 381,
      "ver": 382,
      "ran": 383,
      "ys": 384,
      "Ġres": 385,
      "pp": 386,
      "ĠâĪĴ": 387,
      "rom": 388,
      "ren": 389,
      "ab": 390,
      "ðĿĳ": 391,
      "lect": 392,
      "Ġ,": 393,
      "20": 394,
      "Ġsh": 395,
      "ĠÏ": 396,
      "ated": 397,
      "Ġ4": 398,
      "Ġi": 399,
      "ne": 400,
      "ĠIn": 401,
      "Ġ)": 402,
      "ge": 403,
      "iz": 404,
      "und": 405,
      "âĪ": 406,
      "Ġwh": 407,
      "ical": 408,
      "ment": 409,
      "ffe": 410,
      "Ġen": 411,
      "Ġor": 412,
      "con": 413,
      "ac": 414,
      "ay": 415,
      "ain": 416,
      "igh": 417,
      "Ġph": 418,
      "Ġfrom": 419,
      "Ġ+": 420,
      "and": 421,
      "os": 422,
      "Ġch": 423,
      "Ġ.": 424,
      "ron": 425,
      "ations": 426,
      "ase": 427,
      "ature": 428,
      "her": 429,
      "ant": 430,
      "ich": 431,
      "Ġdis": 432,
      "ĠPh": 433,
      "Ġmod": 434,
      "Ġsp": 435,
      "di": 436,
      "Ġcomp": 437,
      "Ġ5": 438,
      "de": 439,
      "Ġus": 440,
      "cti": 441,
      "ru": 442,
      "Ġcan": 443,
      "Ġme": 444,
      "ak": 445,
      "ĠV": 446,
      "ine": 447,
      "ave": 448,
      "ci": 449,
      "ĠO": 450,
      "erg": 451,
      "ĠPhys": 452,
      "th": 453,
      "ts": 454,
      "Ġse": 455,
      "up": 456,
      "op": 457,
      "),": 458,
      "Ġpar": 459,
      "ĠRe": 460,
      "yst": 461,
      "Ġte": 462,
      "ers": 463,
      "red": 464,
      "Ġwhich": 465,
      "Ġelect": 466,
      "eri": 467,
      "Ġï": 468,
      "ap": 469,
      "eld": 470,
      "ĠY": 471,
      "ĠZ": 472,
      "Ġk": 473,
      "ess": 474,
      "rent": 475,
      "orm": 476,
      "all": 477,
      "Ġshow": 478,
      "sion": 479,
      "vel": 480,
      "Ġwhe": 481,
      "ence": 482,
      "ĠFig": 483,
      "lu": 484,
      "Ġtran": 485,
      "ad": 486,
      "ield": 487,
      "10": 488,
      "ore": 489,
      "Ġmag": 490,
      "ace": 491,
      "Ġthis": 492,
      "og": 493,
      "erm": 494,
      "oc": 495,
      "Ġ10": 496,
      "Ġsuper": 497,
      "ion": 498,
      "Ġint": 499,
      "Ġne": 500,
      "Ġ6": 501,
      "âĪĴ": 502,
      "ates": 503,
      "der": 504,
      "tical": 505,
      "ang": 506,
      "Ġinter": 507,
      "ruct": 508,
      "Ġob": 509,
      "ens": 510,
      "].": 511,
      "duct": 512,
      "erature": 513,
      "ance": 514,
      "ort": 515,
      "Ġit": 516,
      "act": 517,
      "ĠÂ": 518,
      "ĠU": 519,
      "Ġ-": 520,
      "Ġqu": 521,
      "ĠâĢ": 522,
      "als": 523,
      "em": 524,
      "Ġcont": 525,
      "mperature": 526,
      "Ġr": 527,
      "Ġapp": 528,
      "ergy": 529,
      "end": 530,
      "ĠTh": 531,
      "li": 532,
      "ati": 533,
      "unction": 534,
      "netic": 535,
      "ĠX": 536,
      "201": 537,
      "ell": 538,
      "Ġtw": 539,
      "pect": 540,
      "ric": 541,
      "Ġinc": 542,
      "Ġfield": 543,
      "ue": 544,
      "vi": 545,
      "ous": 546,
      "form": 547,
      "amp": 548,
      "ructure": 549,
      "Ġtemperature": 550,
      "Ġmat": 551,
      "Ġpl": 552,
      "ign": 553,
      "Ġsupercon": 554,
      "ist": 555,
      "Ġ8": 556,
      "ution": 557,
      "able": 558,
      "ĠWe": 559,
      "Ġwas": 560,
      "ond": 561,
      "ors": 562,
      "Ġval": 563,
      "Ġwhere": 564,
      "Ġmet": 565,
      "mm": 566,
      "so": 567,
      "etw": 568,
      "cul": 569,
      "Ġsc": 570,
      "Ġab": 571,
      "rib": 572,
      "Ġtwo": 573,
      "Ġ20": 574,
      "sition": 575,
      "ally": 576,
      "âĢĵ": 577,
      "Ġnot": 578,
      "Ġle": 579,
      "Ġun": 580,
      "Ġenergy": 581,
      "Ġ7": 582,
      "vity": 583,
      "Ġhe": 584,
      "pl": 585,
      "Ġpo": 586,
      "ven": 587,
      "ong": 588,
      "11": 589,
      "een": 590,
      "ill": 591,
      "Ġelectron": 592,
      "Ġpres": 593,
      "cc": 594,
      "ther": 595,
      "Ġdiffe": 596,
      "Ġcor": 597,
      "Ġper": 598,
      "Ġresul": 599,
      "ight": 600,
      "face": 601,
      "Ġcur": 602,
      "Ġeffe": 603,
      "Ġspin": 604,
      "ite": 605,
      "ystem": 606,
      "ĠðĿĳ": 607,
      "etween": 608,
      "Ġtrans": 609,
      "asure": 610,
      "ĠRev": 611,
      "Ġbetween": 612,
      "Ġphase": 613,
      "pend": 614,
      "ved": 615,
      "ĠThis": 616,
      "enc": 617,
      "ach": 618,
      "ary": 619,
      "Ġhave": 620,
      "ry": 621,
      "Ġmodel": 622,
      "Ġ9": 623,
      "Ġ|": 624,
      "ound": 625,
      "ari": 626,
      "ties": 627,
      ".,": 628,
      "low": 629,
      "ib": 630,
      "Ġfunction": 631,
      "19": 632,
      "ree": 633,
      "Ġsystem": 634,
      "Ġmeasure": 635,
      "Ġstructure": 636,
      "ph": 637,
      "les": 638,
      "ics": 639,
      "if": 640,
      "ug": 641,
      "Ġimp": 642,
      "Ġcal": 643,
      "age": 644,
      "Ġsur": 645,
      "ide": 646,
      "ced": 647,
      "Ġlow": 648,
      "Ġmagnetic": 649,
      "ov": 650,
      "Ġband": 651,
      "Ġhigh": 652,
      "Ġchar": 653,
      "Ġdet": 654,
      "ĠðĿ": 655,
      "ĠQ": 656,
      "amet": 657,
      "ros": 658,
      "ect": 659,
      "iment": 660,
      "Ġop": 661,
      "ax": 662,
      "ting": 663,
      "tain": 664,
      "Ġz": 665,
      "ime": 666,
      "Ġsuperconduct": 667,
      "Ġad": 668,
      "enti": 669,
      "ser": 670,
      "ating": 671,
      "our": 672,
      "Ġx": 673,
      "ves": 674,
      "ĠâĪĨ": 675,
      "ayer": 676,
      "ensity": 677,
      "Ġusing": 678,
      "periment": 679,
      "12": 680,
      "Ġalso": 681,
      "ted": 682,
      "Ġsim": 683,
      "Ġform": 684,
      "ard": 685,
      "Ġshown": 686,
      "ub": 687,
      "Ġhas": 688,
      "olog": 689,
      "vely": 690,
      "Ġar": 691,
      "Ġdes": 692,
      "Ġmo": 693,
      "Ġsamp": 694,
      "lo": 695,
      "ized": 696,
      "Ġcalcul": 697,
      "ency": 698,
      "Ġrep": 699,
      "Ġstate": 700,
      "Ġsub": 701,
      "Ġmateri": 702,
      "Ġrel": 703,
      "ugh": 704,
      "Ġsol": 705,
      "ased": 706,
      "str": 707,
      "Ġequ": 708,
      "Ġspect": 709,
      "Ġwere": 710,
      "Ġnon": 711,
      "Ġexperiment": 712,
      "atter": 713,
      "Ġreg": 714,
      "Ġparamet": 715,
      "ud": 716,
      "te": 717,
      "Ġdifferent": 718,
      "ener": 719,
      "Ġsy": 720,
      "ĠÃ": 721,
      "ization": 722,
      "Ġeffect": 723,
      "ork": 724,
      "Ġlar": 725,
      "Ġra": 726,
      "Ġincre": 727,
      "ryst": 728,
      "Ġj": 729,
      "requ": 730,
      "50": 731,
      "dition": 732,
      "hem": 733,
      "Ġund": 734,
      "Ġro": 735,
      "ility": 736,
      "Ġorder": 737,
      "Ġpa": 738,
      "Ġsurface": 739,
      "ments": 740,
      "Ġsign": 741,
      "eng": 742,
      "Ġgra": 743,
      "oth": 744,
      "ctive": 745,
      "ew": 746,
      "Ġone": 747,
      "Ġ/": 748,
      "hen": 749,
      "Ġobser": 750,
      "ĠFor": 751,
      "mmet": 752,
      "ÌĤ": 753,
      "Ġline": 754,
      "ile": 755,
      "tim": 756,
      "Ġgro": 757,
      "âĢĿ": 758,
      "ases": 759,
      "],": 760,
      "Ġpre": 761,
      "Ġstates": 762,
      "ling": 763,
      "Ġthan": 764,
      "Ġï£": 765,
      "par": 766,
      "Ġnum": 767,
      "Ġdist": 768,
      "ane": 769,
      "rm": 770,
      "15": 771,
      "ative": 772,
      "ata": 773,
      "Ïī": 774,
      "ĠâĢľ": 775,
      "ĠÂµ": 776,
      "Ġappro": 777,
      "ni": 778,
      ".;": 779,
      "ffic": 780,
      "Ġobtain": 781,
      "ĠCo": 782,
      "Ġpol": 783,
      "Ġused": 784,
      "Ġno": 785,
      "ctivity": 786,
      "ble": 787,
      "uld": 788,
      "Ġdire": 789,
      "13": 790,
      "Ġresults": 791,
      "ined": 792,
      "14": 793,
      "Ġsm": 794,
      "Ġunder": 795,
      "ĠAs": 796,
      "Ġ12": 797,
      "bit": 798,
      "ack": 799,
      "Ġy": 800,
      "Ġet": 801,
      "Ġfrequ": 802,
      "ind": 803,
      "Ġâī": 804,
      "ents": 805,
      "Ġbeen": 806,
      "Ġcoup": 807,
      "ĠEq": 808,
      "ĠLi": 809,
      "Ġtime": 810,
      "ber": 811,
      "Ġthese": 812,
      "int": 813,
      "ingle": 814,
      "Ġatom": 815,
      "Ġdepend": 816,
      "Ġfil": 817,
      "..": 818,
      "chan": 819,
      "ress": 820,
      "ator": 821,
      "ass": 822,
      "resp": 823,
      "ely": 824,
      "Ġgi": 825,
      "Ġour": 826,
      "âĢĻ": 827,
      "ha": 828,
      "Ġnan": 829,
      "Ġnm": 830,
      "Ġtransition": 831,
      "Ġtop": 832,
      "action": 833,
      "Ġcurrent": 834,
      "ose": 835,
      "cess": 836,
      "ces": 837,
      "ues": 838,
      "16": 839,
      "Ġdensity": 840,
      "respond": 841,
      "ĠAl": 842,
      "Ġanal": 843,
      "Ġacc": 844,
      "Ġexp": 845,
      "out": 846,
      "Ġref": 847,
      "Ġgener": 848,
      "22": 849,
      "Ġdef": 850,
      "hod": 851,
      "ĠLet": 852,
      "Ġsuch": 853,
      "Ġvol": 854,
      "est": 855,
      "Ġother": 856,
      "Ġboth": 857,
      "ffici": 858,
      "Ġdata": 859,
      "Ġall": 860,
      "200": 861,
      "Ġcryst": 862,
      "Ġran": 863,
      "yn": 864,
      "Ġproper": 865,
      "Ġsmall": 866,
      "duced": 867,
      "irst": 868,
      "ular": 869,
      "vic": 870,
      "21": 871,
      "Ġloc": 872,
      "co": 873,
      "Ġover": 874,
      "ribution": 875,
      "Ġsingle": 876,
      "Ġonly": 877,
      "ductivity": 878,
      "rop": 879,
      "ms": 880,
      "mon": 881,
      "ĠÏī": 882,
      "mb": 883,
      "Ġim": 884,
      "ctively": 885,
      "antum": 886,
      "ĠAn": 887,
      "Ġlat": 888,
      "ame": 889,
      "Ġdue": 890,
      "ie": 891,
      "Ġcorrespond": 892,
      "Ġvari": 893,
      "ast": 894,
      "hed": 895,
      "ĠÎ±": 896,
      "Ġmic": 897,
      "17": 898,
      "tice": 899,
      "18": 900,
      "Ġcase": 901,
      "cent": 902,
      "lic": 903,
      "ever": 904,
      "Ġconst": 905,
      "ail": 906,
      "Ġout": 907,
      "Ġev": 908,
      "Ġgap": 909,
      "ength": 910,
      "Ġinto": 911,
      "ick": 912,
      "Ġrespe": 913,
      "Ġflu": 914,
      "rence": 915,
      "ann": 916,
      "Ġwave": 917,
      "Ġsymmet": 918,
      "ex": 919,
      "Ġits": 920,
      "Ġdo": 921,
      "ĠCh": 922,
      "ize": 923,
      "fer": 924,
      "aus": 925,
      ".-": 926,
      "Ġpair": 927,
      "Ġtherm": 928,
      "ential": 929,
      "ĠSu": 930,
      "Ġexc": 931,
      "ies": 932,
      "lement": 933,
      "tra": 934,
      "Ġterm": 935,
      "ĠMat": 936,
      "Ġup": 937,
      "ep": 938,
      "Ġsimul": 939,
      "23": 940,
      "Ġvalues": 941,
      "ole": 942,
      "ension": 943,
      "led": 944,
      "vers": 945,
      "Ġeach": 946,
      "Ġdevic": 947,
      "Ġfrequency": 948,
      "ĠHe": 949,
      "40": 950,
      "Ġperform": 951,
      "Ġphot": 952,
      "25": 953,
      "Ġsame": 954,
      "Ġconsi": 955,
      "ons": 956,
      "ix": 957,
      "Ġmore": 958,
      "Ġsuperconducting": 959,
      "Ġmethod": 960,
      "Ġwork": 961,
      "Ġfirst": 962,
      "Ġpe": 963,
      "ord": 964,
      "ÏĢ": 965,
      "ĠSci": 966,
      "Ġrespectively": 967,
      "elect": 968,
      "owever": 969,
      "Ġwhen": 970,
      "Ġind": 971,
      "Ġpartic": 972,
      "Ġac": 973,
      "Ġproperties": 974,
      "Ġpot": 975,
      "Ġset": 976,
      "Ġsample": 977,
      "Ġobserved": 978,
      "Ġvalue": 979,
      "ia": 980,
      "Ġq": 981,
      "ke": 982,
      "ero": 983,
      "Ġinteraction": 984,
      "Ġdec": 985,
      "Ġthere": 986,
      "ome": 987,
      "ological": 988,
      "ĠSe": 989,
      "Ġconf": 990,
      "Ġinte": 991,
      "30": 992,
      "Ġmaterials": 993,
      "ĠÏĥ": 994,
      "Ïĥ": 995,
      "are": 996,
      "Ġ15": 997,
      "rain": 998,
      "ollow": 999,
      "Ġspe": 1000,
      "fore": 1001,
      "ise": 1002,
      "acter": 1003,
      "itu": 1004,
      "Ġ100": 1005,
      "Ġcoupling": 1006,
      "Ġobtained": 1007,
      "Î±": 1008,
      "Ġbut": 1009,
      "ness": 1010,
      "Ġwell": 1011,
      "Ġver": 1012,
      "rong": 1013,
      "Ġindic": 1014,
      "ynam": 1015,
      "ĠTo": 1016,
      "Ġprocess": 1017,
      "Ġcar": 1018,
      "Ġlayer": 1019,
      "ĠLett": 1020,
      "imit": 1021,
      "ory": 1022,
      "Ġcorre": 1023,
      "ian": 1024,
      "Ġbec": 1025,
      "Ġprop": 1026,
      "Ġhy": 1027,
      "Ġsupp": 1028,
      "Ġpeak": 1029,
      "cond": 1030,
      "ĠSt": 1031,
      "ost": 1032,
      "Ġpresent": 1033,
      "atic": 1034,
      "rough": 1035,
      "Ġalong": 1036,
      "Ġtheir": 1037,
      "ĠFe": 1038,
      "Ġdisc": 1039,
      "ould": 1040,
      "ĠIt": 1041,
      "imension": 1042,
      "ormal": 1043,
      "Ġcharacter": 1044,
      "Ġmagn": 1045,
      "Ġreson": 1046,
      "Ġlarge": 1047,
      "Ġcl": 1048,
      "ĠÃĹ": 1049,
      "ove": 1050,
      "sc": 1051,
      "ermi": 1052,
      "Ġsin": 1053,
      "Ġstrong": 1054,
      "ral": 1055,
      "Ġdesc": 1056,
      "Ġfollow": 1057,
      "Ġpow": 1058,
      "Ġquantum": 1059,
      "ip": 1060,
      "ulti": 1061,
      "tive": 1062,
      "Ġexcit": 1063,
      "Ġlimit": 1064,
      "Ġparameters": 1065,
      "Ġnumber": 1066,
      "ilar": 1067,
      "ĠZh": 1068,
      "Ġoptical": 1069,
      "Ġhig": 1070,
      "ten": 1071,
      "urther": 1072,
      "agnetic": 1073,
      "lied": 1074,
      "rin": 1075,
      "omet": 1076,
      "Ġwhile": 1077,
      "Ġregion": 1078,
      "Ġlattice": 1079,
      "Ġlead": 1080,
      "ines": 1081,
      "Ġpolar": 1082,
      "ration": 1083,
      "Ġdirection": 1084,
      "24": 1085,
      "Ġwill": 1086,
      "ĠDe": 1087,
      ",âĢĿ": 1088,
      "ically": 1089,
      "âĨ": 1090,
      "Ġfact": 1091,
      "Ġ19": 1092,
      "iv": 1093,
      "ðĿĲ": 1094,
      "old": 1095,
      "Ġgiven": 1096,
      "ability": 1097,
      "Ìĥ": 1098,
      "ĠÎ´": 1099,
      "tit": 1100,
      "xim": 1101,
      "Ġ13": 1102,
      "Ġty": 1103,
      "ck": 1104,
      "sure": 1105,
      "ĠðĿľ": 1106,
      "Ġcharge": 1107,
      "fic": 1108,
      "Ġïģ": 1109,
      "av": 1110,
      "Ġthrough": 1111,
      "Ġins": 1112,
      "ram": 1113,
      "Ġrange": 1114,
      "Ġtion": 1115,
      "ĠÎ»": 1116,
      "Ġbound": 1117,
      "Ġabs": 1118,
      "Ġsymmetry": 1119,
      "phe": 1120,
      "ied": 1121,
      "ross": 1122,
      "ire": 1123,
      "Ġdiff": 1124,
      "Ġpoint": 1125,
      "Ġ~": 1126,
      "mis": 1127,
      "Ġrepres": 1128,
      "ĠSi": 1129,
      "Ġdep": 1130,
      "Ġpos": 1131,
      "ark": 1132,
      "Ġpotential": 1133,
      "cop": 1134,
      "wave": 1135,
      "hes": 1136,
      "Ġso": 1137,
      "ĠFermi": 1138,
      "nal": 1139,
      "round": 1140,
      "ĠApp": 1141,
      "udy": 1142,
      "IG": 1143,
      "Ġdeterm": 1144,
      "Ġfe": 1145,
      "Ġlocal": 1146,
      "Ġu": 1147,
      "Ġshows": 1148,
      "Ġcol": 1149,
      "Ġcell": 1150,
      "Se": 1151,
      "Ġmeasurements": 1152,
      "own": 1153,
      "son": 1154,
      "Ġ16": 1155,
      "Ġag": 1156,
      "Ġexperimental": 1157,
      "âĪĨ": 1158,
      "Ġmin": 1159,
      "Ġmulti": 1160,
      "ĠHowever": 1161,
      "ĠTe": 1162,
      "Ġli": 1163,
      "ĠÎ³": 1164,
      "Hz": 1165,
      "ĠÎĵ": 1166,
      "Ġthree": 1167,
      "Ġ14": 1168,
      "ĠðĿĲ": 1169,
      "Ħ¦": 1170,
      "Ġmeasured": 1171,
      "ust": 1172,
      "orted": 1173,
      "Ġdom": 1174,
      "ges": 1175,
      "Ġabove": 1176,
      "Ġconstant": 1177,
      "Ġmaterial": 1178,
      "Ġcondition": 1179,
      "Ġstudy": 1180,
      "Ġtun": 1181,
      "ÌĦ": 1182,
      "ides": 1183,
      "ĠTc": 1184,
      "Ġthick": 1185,
      "Ġcons": 1186,
      "Ġhigher": 1187,
      "ĠâĪĤ": 1188,
      "Ġmom": 1189,
      "itude": 1190,
      "Ġzero": 1191,
      "ational": 1192,
      "roscop": 1193,
      "Ġrem": 1194,
      "ific": 1195,
      "Ġbeha": 1196,
      "Ġang": 1197,
      "its": 1198,
      "ty": 1199,
      "ared": 1200,
      "Ġwa": 1201,
      "Ġbased": 1202,
      "Ġprov": 1203,
      "ale": 1204,
      "ĠPhysics": 1205,
      "formation": 1206,
      "fter": 1207,
      "phene": 1208,
      "ger": 1209,
      "Ġreal": 1210,
      "ritical": 1211,
      "Ġass": 1212,
      "Ġ200": 1213,
      "Ġmechan": 1214,
      "ensi": 1215,
      "Fig": 1216,
      "Ġ<": 1217,
      "Ġpressure": 1218,
      "Âµ": 1219,
      "Ġmode": 1220,
      "Ġsystems": 1221,
      "one": 1222,
      "ute": 1223,
      "Ġlevel": 1224,
      "Ġbel": 1225,
      "see": 1226,
      "26": 1227,
      "Ġfin": 1228,
      "45": 1229,
      "strate": 1230,
      "ĠeV": 1231,
      "Ġnear": 1232,
      "attering": 1233,
      "ption": 1234,
      "Ġtopological": 1235,
      "Ġexpl": 1236,
      "Ġtra": 1237,
      "ĠÎ¸": 1238,
      "Ġdescrib": 1239,
      "ĠÂ±": 1240,
      "Ġbehavi": 1241,
      "Ġthermal": 1242,
      "Ġman": 1243,
      "ou": 1244,
      "tial": 1245,
      "ĠÏĦ": 1246,
      "Ġelectro": 1247,
      "electric": 1248,
      "Ġpower": 1249,
      "sible": 1250,
      "Ġparameter": 1251,
      "Ġuse": 1252,
      "35": 1253,
      "Ġfound": 1254,
      "fficient": 1255,
      "rol": 1256,
      "Ġsimilar": 1257,
      "Ġmay": 1258,
      "Ġresp": 1259,
      "olution": 1260,
      "27": 1261,
      "Ġlength": 1262,
      "asi": 1263,
      "Ġelectronic": 1264,
      "Ġamp": 1265,
      "sk": 1266,
      "ysis": 1267,
      "Ġsamples": 1268,
      "Ġdiscus": 1269,
      "Ġnormal": 1270,
      "Ġgrow": 1271,
      "ton": 1272,
      "ĠCon": 1273,
      "Ġcritical": 1274,
      "onon": 1275,
      "ple": 1276,
      "line": 1277,
      "33": 1278,
      "Ġcorresponding": 1279,
      "ĠFIG": 1280,
      "osed": 1281,
      "Ġ18": 1282,
      "ural": 1283,
      "istic": 1284,
      "rid": 1285,
      "Ġwithin": 1286,
      "ual": 1287,
      "ulk": 1288,
      "ĠEn": 1289,
      "asing": 1290,
      "oun": 1291,
      "Ġmicro": 1292,
      "Ġsi": 1293,
      "Ġmon": 1294,
      "udi": 1295,
      "Ġdynam": 1296,
      "Ġmodes": 1297,
      "uch": 1298,
      "neti": 1299,
      "Ġoper": 1300,
      "Ġscattering": 1301,
      "Ġlinear": 1302,
      "to": 1303,
      "Ġcomple": 1304,
      "ĠÂ·": 1305,
      "âĢ²": 1306,
      "uring": 1307,
      "oped": 1308,
      "Ġ30": 1309,
      "ft": 1310,
      "Ġpred": 1311,
      "duction": 1312,
      "28": 1313,
      "icon": 1314,
      "Ġthen": 1315,
      "Ġconsider": 1316,
      "Ġtak": 1317,
      "chn": 1318,
      "fac": 1319,
      "Ġmax": 1320,
      "gen": 1321,
      "ial": 1322,
      "Ġcalculated": 1323,
      "ĠÏģ": 1324,
      "Ġes": 1325,
      "Ġed": 1326,
      "II": 1327,
      "arch": 1328,
      "Ġ11": 1329,
      "Ġcap": 1330,
      "Ġcent": 1331,
      "Ġaddition": 1332,
      "Ġapproxim": 1333,
      "ĠïĢ": 1334,
      "ðĿľ": 1335,
      "ange": 1336,
      "Ġox": 1337,
      "Ġdependence": 1338,
      "depend": 1339,
      "ayers": 1340,
      "ĠCu": 1341,
      "imum": 1342,
      "ump": 1343,
      "29": 1344,
      "Ġstructures": 1345,
      "Ġmain": 1346,
      "Ġocc": 1347,
      "Ġcir": 1348,
      "Ġfind": 1349,
      "Ġsize": 1350,
      "ĠUni": 1351,
      "pt": 1352,
      "aser": 1353,
      "mission": 1354,
      "Ġinclu": 1355,
      "ĠÎ²": 1356,
      "Ġapplic": 1357,
      "Ġapplied": 1358,
      "ology": 1359,
      "ll": 1360,
      "Ġstudi": 1361,
      "tal": 1362,
      "60": 1363,
      "Ġdecre": 1364,
      "Ġgraphene": 1365,
      "ĠWang": 1366,
      "Ġlong": 1367,
      "Ġorbit": 1368,
      "Ġsolution": 1369,
      "Ġcrystal": 1370,
      "Ġ17": 1371,
      "Ġdemon": 1372,
      "ause": 1373,
      "put": 1374,
      "Ġlower": 1375,
      "Ġmoment": 1376,
      "Ġvolt": 1377,
      "imensional": 1378,
      "au": 1379,
      "otrop": 1380,
      "ains": 1381,
      "Ġradi": 1382,
      "tig": 1383,
      "vious": 1384,
      "Ġdistribution": 1385,
      "Ġbulk": 1386,
      "osition": 1387,
      "ĠMa": 1388,
      "ote": 1389,
      "Ġcorrel": 1390,
      "....": 1391,
      "ĠâĨ": 1392,
      "Ġsuperconductivity": 1393,
      "ĠSh": 1394,
      "ĠâĪ¼": 1395,
      "Ġpredic": 1396,
      "ĠMo": 1397,
      "Ġrepresent": 1398,
      "Ġfit": 1399,
      "ĠLe": 1400,
      "Ġspeci": 1401,
      "Ġatoms": 1402,
      "ĠÏĢ": 1403,
      "Ġcalculations": 1404,
      "ene": 1405,
      "usion": 1406,
      "dered": 1407,
      "Ġmean": 1408,
      "Ġ50": 1409,
      "idth": 1410,
      "Ġanalysis": 1411,
      "Ġimag": 1412,
      "cted": 1413,
      "Ġcarri": 1414,
      "Ġfer": 1415,
      "ĠThere": 1416,
      "vect": 1417,
      "Ġlo": 1418,
      "hemical": 1419,
      "Ġing": 1420,
      "tio": 1421,
      "ject": 1422,
      "ĠÏĨ": 1423,
      "Ġsecond": 1424,
      "aw": 1425,
      "ĠPro": 1426,
      "ough": 1427,
      "Ġrespon": 1428,
      "ding": 1429,
      "Ġbelow": 1430,
      "Ġrequ": 1431,
      "Ġbi": 1432,
      "astic": 1433,
      "Ġstrain": 1434,
      "Ġtheory": 1435,
      "ificant": 1436,
      "Ġeffective": 1437,
      "dependent": 1438,
      "Ġlight": 1439,
      "Ġful": 1440,
      "ctu": 1441,
      "ĠHere": 1442,
      "Ġvery": 1443,
      "Ġcompon": 1444,
      "cu": 1445,
      "Ġdesign": 1446,
      "Ġel": 1447,
      "EM": 1448,
      "Ġthickness": 1449,
      "Ġdevice": 1450,
      "Ġresult": 1451,
      "ĠUnivers": 1452,
      "ĠSch": 1453,
      "37": 1454,
      "Ġmodul": 1455,
      "ĠÎµ": 1456,
      "Ġspace": 1457,
      "ĠNi": 1458,
      "ĠThese": 1459,
      "ĠRef": 1460,
      "Ġext": 1461,
      "Ġap": 1462,
      "raction": 1463,
      "Ġprob": 1464,
      "lear": 1465,
      "FT": 1466,
      "Ġsimp": 1467,
      "âĪĹ": 1468,
      "ĠScience": 1469,
      "Fe": 1470,
      "Ġfilms": 1471,
      "Ġtransp": 1472,
      "ators": 1473,
      "ĠRes": 1474,
      "Ġchange": 1475,
      "ON": 1476,
      "flu": 1477,
      "view": 1478,
      "Ġeffects": 1479,
      "Ġequation": 1480,
      "36": 1481,
      "38": 1482,
      "reen": 1483,
      "Ġsignificant": 1484,
      "Ġexpect": 1485,
      "ination": 1486,
      "ps": 1487,
      "Ġfurther": 1488,
      "34": 1489,
      "ĠEx": 1490,
      "âĢł": 1491,
      "ward": 1492,
      "oss": 1493,
      "rix": 1494,
      "tional": 1495,
      "Ġneg": 1496,
      "Ġlines": 1497,
      "que": 1498,
      "Ġma": 1499,
      "vestig": 1500,
      "Ġinteg": 1501,
      "ume": 1502,
      "Ġfilm": 1503,
      "Ġmetal": 1504,
      "Ġsem": 1505,
      "Ġlaser": 1506,
      "Ġphys": 1507,
      "32": 1508,
      "ĠâīĪ": 1509,
      "tivity": 1510,
      "01": 1511,
      "ater": 1512,
      "loc": 1513,
      "rum": 1514,
      "ath": 1515,
      "05": 1516,
      "Ġoptim": 1517,
      "Ġrate": 1518,
      "ÏĦ": 1519,
      "Ġlarger": 1520,
      "ets": 1521,
      "ĠAt": 1522,
      "Ġcontrol": 1523,
      "Ġallow": 1524,
      "Ġaround": 1525,
      "Ġbehavior": 1526,
      "igur": 1527,
      "ving": 1528,
      "ĠMateri": 1529,
      "onal": 1530,
      "Ġdeg": 1531,
      "art": 1532,
      "Ìģ": 1533,
      "omb": 1534,
      "Ġfeature": 1535,
      "Ġ25": 1536,
      "bility": 1537,
      "Ġïĥ": 1538,
      "ium": 1539,
      "ism": 1540,
      "Ġmole": 1541,
      "ĠZhang": 1542,
      "ĠHam": 1543,
      "Ġ>": 1544,
      "Ġmost": 1545,
      "ning": 1546,
      "Ġinvestig": 1547,
      "39": 1548,
      "Ġplot": 1549,
      "Ġcontribution": 1550,
      "Ġspectra": 1551,
      "order": 1552,
      "44": 1553,
      "Ġterms": 1554,
      "Ġid": 1555,
      "Ġcos": 1556,
      "uted": 1557,
      "Ġposition": 1558,
      "Ġbeam": 1559,
      "onic": 1560,
      "Ġeven": 1561,
      "Ġapproach": 1562,
      "hib": 1563,
      "Ġfields": 1564,
      "Ġplane": 1565,
      "Ġthin": 1566,
      "Ġafter": 1567,
      "Ġshif": 1568,
      "Ġconduct": 1569,
      "Ġcompar": 1570,
      "Ġincrease": 1571,
      "Ġabsor": 1572,
      "ĠUniversity": 1573,
      "ints": 1574,
      "elf": 1575,
      "ture": 1576,
      "ish": 1577,
      "Ġunit": 1578,
      "faces": 1579,
      "Ġvoltage": 1580,
      "Ġtotal": 1581,
      "tically": 1582,
      "Ġpairing": 1583,
      "31": 1584,
      "Ġuni": 1585,
      "of": 1586,
      "Ġquan": 1587,
      "Ġini": 1588,
      "yl": 1589,
      "75": 1590,
      "ray": 1591,
      "ĠâĢĵ": 1592,
      "Ġperformed": 1593,
      "nel": 1594,
      "Ġcoe": 1595,
      "Ġtemperatures": 1596,
      "Ġtyp": 1597,
      "oping": 1598,
      "Ġjunction": 1599,
      "ars": 1600,
      "Ġge": 1601,
      "Ġax": 1602,
      "Ġdiag": 1603,
      "cies": 1604,
      "istance": 1605,
      "Ġenh": 1606,
      "Ġaver": 1607,
      "Ġtri": 1608,
      "plane": 1609,
      "Ġprevious": 1610,
      "band": 1611,
      "SC": 1612,
      "sp": 1613,
      "Ġam": 1614,
      "stit": 1615,
      "ression": 1616,
      "zation": 1617,
      "Ġampl": 1618,
      "romagnetic": 1619,
      "Ġdevices": 1620,
      "lat": 1621,
      "ĠDi": 1622,
      "Ġchang": 1623,
      "row": 1624,
      "Ġmatrix": 1625,
      "Î½": 1626,
      "Ġsee": 1627,
      "ash": 1628,
      "Ġdetail": 1629,
      "ott": 1630,
      "Ġsignal": 1631,
      "Ġbands": 1632,
      "Î¸": 1633,
      "the": 1634,
      "Ġpul": 1635,
      "roscopy": 1636,
      "Te": 1637,
      "ĠÏĩ": 1638,
      "199": 1639,
      "rest": 1640,
      "Ġ40": 1641,
      "Ġmagneti": 1642,
      "Ġer": 1643,
      "Ġcomb": 1644,
      "Î»": 1645,
      "ES": 1646,
      "ĠAd": 1647,
      "Ġdirect": 1648,
      "ample": 1649,
      "ĠâĪļ": 1650,
      "based": 1651,
      "Ġanaly": 1652,
      "Î²": 1653,
      "Ġcompared": 1654,
      "Ġdiscuss": 1655,
      "Ġsolid": 1656,
      "Ġresponse": 1657,
      "Ġgo": 1658,
      "Ġem": 1659,
      "Ġconfigur": 1660,
      "isotrop": 1661,
      "Ġinst": 1662,
      "Ġphonon": 1663,
      "Ġdefect": 1664,
      "Ġfree": 1665,
      "Ġdispl": 1666,
      "ĠHamil": 1667,
      "Ġany": 1668,
      "yc": 1669,
      "Ġconditions": 1670,
      "Ġdri": 1671,
      "ites": 1672,
      "Ġcould": 1673,
      "Ġlayers": 1674,
      "ĠOn": 1675,
      "ĠComp": 1676,
      "Ġestim": 1677,
      "Ġspectrum": 1678,
      "Ġif": 1679,
      "OS": 1680,
      "Ġratio": 1681,
      "ities": 1682,
      "Ġthus": 1683,
      "Ġreported": 1684,
      "Ġexhib": 1685,
      "ĠBi": 1686,
      "less": 1687,
      "Ġelectric": 1688,
      "val": 1689,
      "Ġshould": 1690,
      "tt": 1691,
      "Ġheat": 1692,
      "Ġir": 1693,
      "Ġwould": 1694,
      "duce": 1695,
      "CS": 1696,
      "Ġderi": 1697,
      "ful": 1698,
      "ĠMe": 1699,
      "As": 1700,
      "Ġimport": 1701,
      "Ġpossible": 1702,
      "Ġelectrons": 1703,
      "Ġinterface": 1704,
      "ĠâĪĹ": 1705,
      "Ġcross": 1706,
      "Ġtheore": 1707,
      "Ġconcent": 1708,
      "Ġdisper": 1709,
      "ĠNan": 1710,
      "Ġsl": 1711,
      "NT": 1712,
      "Ġtransport": 1713,
      "ÌĪ": 1714,
      "EE": 1715,
      "Ġfollowing": 1716,
      "Ġquasi": 1717,
      "lue": 1718,
      "ĠÎ·": 1719,
      "ĠÎ¾": 1720,
      "Ġpoints": 1721,
      "ok": 1722,
      "Ġsection": 1723,
      "Ġsome": 1724,
      "chie": 1725,
      "Ġconsist": 1726,
      "Ġvia": 1727,
      "ching": 1728,
      "ier": 1729,
      "Ġele": 1730,
      "sh": 1731,
      "rical": 1732,
      "80": 1733,
      "vation": 1734,
      "igin": 1735,
      "Ġabout": 1736,
      "Ġstep": 1737,
      "Ġhyd": 1738,
      "tonian": 1739,
      "els": 1740,
      "ij": 1741,
      "Ġvect": 1742,
      "cular": 1743,
      "Ġgeomet": 1744,
      "Ġsug": 1745,
      "ired": 1746,
      "org": 1747,
      "Ġthey": 1748,
      "Ġsw": 1749,
      "Ġphases": 1750,
      "Ġachie": 1751,
      "ters": 1752,
      "Ġnumer": 1753,
      "Ġweak": 1754,
      "Ġcomm": 1755,
      "ately": 1756,
      "Ġsuperconductors": 1757,
      "Ġgeneral": 1758,
      "Ġappe": 1759,
      "rac": 1760,
      "attern": 1761,
      "Ġden": 1762,
      "Ġpresence": 1763,
      "Ġdifference": 1764,
      "Ġangle": 1765,
      "Ġconductivity": 1766,
      "Ġdevel": 1767,
      "fied": 1768,
      "Pa": 1769,
      "ĠNature": 1770,
      "ode": 1771,
      "ticle": 1772,
      "ĠâĨĴ": 1773,
      "Ġanisotrop": 1774,
      "scill": 1775,
      "47": 1776,
      "ÏĨ": 1777,
      "Ġwithout": 1778,
      "Ġbecause": 1779,
      "ĠHamiltonian": 1780,
      "Ġcm": 1781,
      "ĠChen": 1782,
      "Ġextra": 1783,
      "ĠElect": 1784,
      "Ġsubstrate": 1785,
      "reng": 1786,
      "Ġexperiments": 1787,
      "Ġ),": 1788,
      "Ġfactor": 1789,
      "dimensional": 1790,
      "Ġloss": 1791,
      "ances": 1792,
      "Ġpart": 1793,
      "pping": 1794,
      "Ġincreasing": 1795,
      "uc": 1796,
      "Si": 1797,
      "fy": 1798,
      "sive": 1799,
      "Ġnew": 1800,
      "ĠTable": 1801,
      "Ġorigin": 1802,
      "rit": 1803,
      "Ġincreases": 1804,
      "46": 1805,
      "ĠâĦ¦": 1806,
      "Ġfluctu": 1807,
      "ner": 1808,
      "Ġpolarization": 1809,
      "Ġstreng": 1810,
      "Ġbro": 1811,
      "Ġregime": 1812,
      "Ġfinite": 1813,
      "ymmet": 1814,
      "lection": 1815,
      "Ġoscill": 1816,
      "Ġgroup": 1817,
      "Ġoccur": 1818,
      "erence": 1819,
      "anced": 1820,
      "Ġboundary": 1821,
      "mer": 1822,
      "ixed": 1823,
      "velength": 1824,
      "Ġmaximum": 1825,
      "Ġanti": 1826,
      "000": 1827,
      "Ġpattern": 1828,
      "abric": 1829,
      "Ġhere": 1830,
      "Ġatomic": 1831,
      "Ġemp": 1832,
      "linear": 1833,
      "TI": 1834,
      "eriod": 1835,
      "Ġē": 1836,
      "ror": 1837,
      "ering": 1838,
      "Ġsimulations": 1839,
      "uth": 1840,
      "ĠGa": 1841,
      "ĠPhysical": 1842,
      "ructural": 1843,
      "ection": 1844,
      "brid": 1845,
      "ĠÂµm": 1846,
      "ĠSc": 1847,
      "inu": 1848,
      "Ġedge": 1849,
      "Ġclo": 1850,
      "ĠTherefore": 1851,
      "ĠLa": 1852,
      "Â±": 1853,
      "Ġdoes": 1854,
      "pol": 1855,
      "Ġintro": 1856,
      "me": 1857,
      "Ġinv": 1858,
      "raph": 1859,
      "Ġdetect": 1860,
      "Ġdefined": 1861,
      "ïģ": 1862,
      "Xiv": 1863,
      "Ġbond": 1864,
      "ĠQu": 1865,
      "ink": 1866,
      "loy": 1867,
      "field": 1868,
      "Ġsepar": 1869,
      "Ġstrength": 1870,
      "ortex": 1871,
      "Ĺ¦": 1872,
      "Ġcomplex": 1873,
      "soci": 1874,
      "ergies": 1875,
      "Ġground": 1876,
      "Ġduring": 1877,
      "ĠBe": 1878,
      "48": 1879,
      "Ġsuperconductor": 1880,
      "ays": 1881,
      "ĠMaterials": 1882,
      "Ġkn": 1883,
      "FM": 1884,
      "Ġinsul": 1885,
      "Ġsil": 1886,
      "Ġgrowth": 1887,
      "ky": 1888,
      "Ġexpected": 1889,
      "ible": 1890,
      "zed": 1891,
      "Ġparticular": 1892,
      "Ġperiod": 1893,
      "Ġscal": 1894,
      "like": 1895,
      "Ġrot": 1896,
      "Ġcontr": 1897,
      "Ġtransfer": 1898,
      "ÃĹ": 1899,
      "Ġdoping": 1900,
      "Î³": 1901,
      "ings": 1902,
      "Ġflux": 1903,
      "strated": 1904,
      "ma": 1905,
      "atively": 1906,
      "ĠĒ": 1907,
      "Ġintensity": 1908,
      "ĠÎº": 1909,
      "jor": 1910,
      "gu": 1911,
      "02": 1912,
      "ĠLiu": 1913,
      "49": 1914,
      "ality": 1915,
      "2018": 1916,
      "ĠSupp": 1917,
      "Ġstress": 1918,
      "Ġmuch": 1919,
      "Ġul": 1920,
      "Ġmeasurement": 1921,
      "Ġchemical": 1922,
      "Ġdescribed": 1923,
      "lementary": 1924,
      "quid": 1925,
      "ĠSC": 1926,
      "ĠSuper": 1927,
      "Ġrec": 1928,
      "Ġcontact": 1929,
      "Ġamplitude": 1930,
      "ob": 1931,
      "Ġsince": 1932,
      "ĠarXiv": 1933,
      "chni": 1934,
      "Ġmm": 1935,
      "Ġsti": 1936,
      "ik": 1937,
      "Ġexample": 1938,
      "Ġimportant": 1939,
      "Ġclear": 1940,
      "ler": 1941,
      "Ġdetermined": 1942,
      "ded": 1943,
      "Î´": 1944,
      "Ġcharacteristic": 1945,
      "43": 1946,
      "ison": 1947,
      "xt": 1948,
      "Ġshe": 1949,
      "Ġmodels": 1950,
      "Ġbas": 1951,
      "Ġfour": 1952,
      "Ġsmaller": 1953,
      "layer": 1954,
      "Ġred": 1955,
      "Ġself": 1956,
      "ĠBa": 1957,
      "encies": 1958,
      "Ġfunctions": 1959,
      "âĨĳ": 1960,
      "41": 1961,
      "imes": 1962,
      "lected": 1963,
      "Ġback": 1964,
      "Ġdynamics": 1965,
      "Ġstand": 1966,
      "Ġchann": 1967,
      "ER": 1968,
      "42": 1969,
      "sequ": 1970,
      "Ġmomentum": 1971,
      "Ġsour": 1972,
      "Îµ": 1973,
      "55": 1974,
      "Ġca": 1975,
      "Ġapplications": 1976,
      "Ġclose": 1977,
      "Ġvan": 1978,
      "Ġinterest": 1979,
      "Ġseen": 1980,
      "Ġconsidered": 1981,
      "Ġrelax": 1982,
      "Ġent": 1983,
      "Ġspati": 1984,
      "Ġconc": 1985,
      "70": 1986,
      "des": 1987,
      "Ġmass": 1988,
      "Ġenergies": 1989,
      "ount": 1990,
      "duc": 1991,
      "aking": 1992,
      "ey": 1993,
      "change": 1994,
      "ĠNo": 1995,
      "Ġconver": 1996,
      "Ġ]": 1997,
      "2017": 1998,
      "Ġfabric": 1999,
      "ĠReview": 2000,
      "ĠNat": 2001,
      "Ġneed": 2002,
      "Ġ21": 2003,
      "Ġtechni": 2004,
      "65": 2005,
      "part": 2006,
      "85": 2007,
      "Ġformation": 2008,
      "Ġcompound": 2009,
      "Ġarea": 2010,
      "verse": 2011,
      "Ġinduced": 2012,
      "Ġinteractions": 2013,
      "Ġfoc": 2014,
      "do": 2015,
      "ires": 2016,
      "Ġhtt": 2017,
      "Ġ&": 2018,
      "Ġvis": 2019,
      "Ġthose": 2020,
      "Ġdispersion": 2021,
      "Ġleads": 2022,
      "Ġchanges": 2023,
      "ĠÎ½": 2024,
      "Ġav": 2025,
      "ited": 2026,
      "Ġpoly": 2027,
      "Ġvarious": 2028,
      "ĠCa": 2029,
      "Ġcomput": 2030,
      "get": 2031,
      "ĠmeV": 2032,
      "ĠÏĪ": 2033,
      "Ġpresented": 2034,
      "âĨĵ": 2035,
      "Ġflow": 2036,
      "ĠChem": 2037,
      "ĠâĢ²": 2038,
      "ressed": 2039,
      "Ġyield": 2040,
      "Ġaverage": 2041,
      "ermion": 2042,
      "ĠThus": 2043,
      "Ġmagnet": 2044,
      "Ġhydro": 2045,
      "DW": 2046,
      "ĠSp": 2047,
      "2016": 2048,
      "Ġnoise": 2049,
      "ĠMore": 2050,
      "Ġ60": 2051,
      "Ġvortex": 2052,
      "omm": 2053,
      "2019": 2054,
      "Ġcurves": 2055,
      "99": 2056,
      "Ġsyn": 2057,
      "Ġresulting": 2058,
      "ventional": 2059,
      "ev": 2060,
      "Ġhole": 2061,
      "100": 2062,
      "rate": 2063,
      "Ġwidth": 2064,
      "Ġimage": 2065,
      "Ġresistance": 2066,
      "igen": 2067,
      "ĠII": 2068,
      "âĦ¦": 2069,
      "sing": 2070,
      "Ġaxis": 2071,
      "ana": 2072,
      "med": 2073,
      "Ġpan": 2074,
      "alle": 2075,
      "Ġside": 2076,
      "uk": 2077,
      "Ġspectral": 2078,
      "ED": 2079,
      "Ġori": 2080,
      "ring": 2081,
      "omes": 2082,
      "oh": 2083,
      "Ġabsorption": 2084,
      "001": 2085,
      "ournal": 2086,
      "Ġwavelength": 2087,
      "agn": 2088,
      "Ġbar": 2089,
      "Ġperformance": 2090,
      "Ġorbital": 2091,
      "Ġrecent": 2092,
      "Ġassoci": 2093,
      "2015": 2094,
      "ĠHu": 2095,
      "Ġvac": 2096,
      "Ġmagnetization": 2097,
      "gine": 2098,
      "64": 2099,
      "ii": 2100,
      "Ġcre": 2101,
      "ins": 2102,
      "tions": 2103,
      "OC": 2104,
      "side": 2105,
      "etwork": 2106,
      "ashed": 2107,
      "Ġtype": 2108,
      "Ġcontrast": 2109,
      "Ġpeaks": 2110,
      "Ġrelated": 2111,
      "ST": 2112,
      "ĠNote": 2113,
      "Ġaccur": 2114,
      "ĠSin": 2115,
      "Ġparticle": 2116,
      "Ġimpro": 2117,
      "ĠÏķ": 2118,
      "ered": 2119,
      "iconduct": 2120,
      "ĠSim": 2121,
      "Ġforce": 2122,
      "dom": 2123,
      "Ġeffici": 2124,
      "ĠTi": 2125,
      "Ġstudies": 2126,
      "pro": 2127,
      "Ġ).": 2128,
      "Ġstructural": 2129,
      "ently": 2130,
      "Ġinde": 2131,
      "ĠTran": 2132,
      "ĠGe": 2133,
      "bon": 2134,
      "ĠFurther": 2135,
      "Ġprof": 2136,
      "ulation": 2137,
      "Ġbre": 2138,
      "chnology": 2139,
      "ording": 2140,
      "ĠJournal": 2141,
      "Ġunderst": 2142,
      "xy": 2143,
      "vant": 2144,
      "Ġdistance": 2145,
      "orph": 2146,
      "other": 2147,
      "Ġvector": 2148,
      "Ġeigen": 2149,
      "Ġorient": 2150,
      "ape": 2151,
      "Ġresonance": 2152,
      "Ġagree": 2153,
      "Ġidenti": 2154,
      "berg": 2155,
      "Ġvolume": 2156,
      "Ġproble": 2157,
      "Ġspecific": 2158,
      "2020": 2159,
      "anc": 2160,
      "Ġinitial": 2161,
      "Ġschem": 2162,
      "ĠSr": 2163,
      "67": 2164,
      "veral": 2165,
      "Ġcurve": 2166,
      "igure": 2167,
      "ĠâĢł": 2168,
      "lit": 2169,
      "ĠOur": 2170,
      "Ġbroad": 2171,
      "owled": 2172,
      "Ġscale": 2173,
      "lack": 2174,
      "Ġproposed": 2175,
      "tices": 2176,
      "ĠWh": 2177,
      "Ġcapac": 2178,
      "atis": 2179,
      "Ġseveral": 2180,
      "ĠNb": 2181,
      "Ġfocus": 2182,
      "Ġconcentration": 2183,
      "Ġsugges": 2184,
      "Ġtheoretical": 2185,
      "Ġdiscussed": 2186,
      "Ġfeatures": 2187,
      "cm": 2188,
      "Ġcontinu": 2189,
      "ĠHall": 2190,
      "Ġbecomes": 2191,
      "Ġvel": 2192,
      "Ġresis": 2193,
      "orbit": 2194,
      "Ġsimulation": 2195,
      "rinci": 2196,
      "Ġcohe": 2197,
      "Ġtunnel": 2198,
      "Ġdomain": 2199,
      "Ġvi": 2200,
      "Ġcrystall": 2201,
      "Ġcrystals": 2202,
      "Ġliquid": 2203,
      "ock": 2204,
      "Ġplas": 2205,
      "Ġexcitation": 2206,
      "Ġ300": 2207,
      "ice": 2208,
      "ĠÎ¦": 2209,
      "Ġmany": 2210,
      "Ġď": 2211,
      "Ġassociated": 2212,
      "Ġswit": 2213,
      "Ġmagnitude": 2214,
      "Ġrespect": 2215,
      "ake": 2216,
      "ĠST": 2217,
      "urn": 2218,
      "Â°": 2219,
      "ĠWith": 2220,
      "Ïģ": 2221,
      "Ġhal": 2222,
      "Ġmonol": 2223,
      "Ġhybrid": 2224,
      "conduct": 2225,
      "Ġconne": 2226,
      "Ġsus": 2227,
      "Ġequations": 2228,
      "Ġsensi": 2229,
      "110": 2230,
      "ilib": 2231,
      "Ġhand": 2232,
      "Ġheter": 2233,
      "ences": 2234,
      "tern": 2235,
      "Ġ24": 2236,
      "lass": 2237,
      "Al": 2238,
      "Ġreve": 2239,
      "90": 2240,
      "energy": 2241,
      "ĠMet": 2242,
      "ided": 2243,
      "Ġcomponents": 2244,
      "allic": 2245,
      "Ġcircu": 2246,
      "Ġexchange": 2247,
      "âĹ¦": 2248,
      "Ġrelative": 2249,
      "ĠAb": 2250,
      "Ġwater": 2251,
      "rium": 2252,
      "man": 2253,
      "ina": 2254,
      "57": 2255,
      "lying": 2256,
      "Ġclass": 2257,
      "Ġā": 2258,
      "Ġshift": 2259,
      "off": 2260,
      "oseph": 2261,
      "ĠSince": 2262,
      "Ġnetwork": 2263,
      "ET": 2264,
      "alu": 2265,
      "gap": 2266,
      "Ġefficiency": 2267,
      "eV": 2268,
      "ders": 2269,
      "range": 2270,
      "ern": 2271,
      "ĠMod": 2272,
      "over": 2273,
      "rated": 2274,
      "ĠMn": 2275,
      "Ġpaper": 2276,
      "Ġfunctional": 2277,
      "Ġbeing": 2278,
      "cep": 2279,
      "Î·": 2280,
      "66": 2281,
      "Ġhttps": 2282,
      "ĠDFT": 2283,
      "Ġtransmission": 2284,
      "ĠUn": 2285,
      "allel": 2286,
      "Ġbias": 2287,
      "iral": 2288,
      "ĠBy": 2289,
      "ĠGPa": 2290,
      "Ġless": 2291,
      "Ġ{": 2292,
      "Ġsplit": 2293,
      "95": 2294,
      "ai": 2295,
      "ðĿĳĸ": 2296,
      "Ġpr": 2297,
      "Ġreduced": 2298,
      "Ġevalu": 2299,
      "ograph": 2300,
      "Ġelements": 2301,
      "Ġmethods": 2302,
      "Ġinformation": 2303,
      "2014": 2304,
      "Ġtimes": 2305,
      "omen": 2306,
      "Ġcases": 2307,
      "ternal": 2308,
      "osite": 2309,
      "Ġdomin": 2310,
      "Ġfluctuations": 2311,
      "Ġ:": 2312,
      "........": 2313,
      "Ġfull": 2314,
      "ĠFigure": 2315,
      "monic": 2316,
      "kn": 2317,
      "Ġincluding": 2318,
      "Ġstudied": 2319,
      "ffect": 2320,
      "Ġnumerical": 2321,
      "Ġ80": 2322,
      "SI": 2323,
      "til": 2324,
      "ably": 2325,
      "Ġdimension": 2326,
      "cal": 2327,
      "Ġfrequencies": 2328,
      "ĠRam": 2329,
      "Ġsens": 2330,
      "Ġadditional": 2331,
      "Ġcoefficient": 2332,
      "Ġnegative": 2333,
      "Ġcom": 2334,
      "Co": 2335,
      "Ġmechanism": 2336,
      "ident": 2337,
      "rag": 2338,
      "Ġexist": 2339,
      "Ġfermion": 2340,
      "Ġposi": 2341,
      "Ġ28": 2342,
      "Ġapproximation": 2343,
      "Ġ27": 2344,
      "SA": 2345,
      "Î¾": 2346,
      "Ġconsistent": 2347,
      "Ġstandard": 2348,
      "ovsk": 2349,
      "ĠRese": 2350,
      "MR": 2351,
      "ither": 2352,
      "Ġil": 2353,
      "Ġconfiguration": 2354,
      "Ġpp": 2355,
      "Ġpropag": 2356,
      "osephson": 2357,
      "Ġoff": 2358,
      "though": 2359,
      "ini": 2360,
      "ï£": 2361,
      "ostructure": 2362,
      "Ġimpur": 2363,
      "Ġ22": 2364,
      "Ġspatial": 2365,
      "Ġnod": 2366,
      "Ġfigure": 2367,
      "Ġinput": 2368,
      "ottom": 2369,
      "app": 2370,
      "ributed": 2371,
      "ĠResearch": 2372,
      "be": 2373,
      "cur": 2374,
      "partment": 2375,
      "nm": 2376,
      "ogene": 2377,
      "Ġdown": 2378,
      "54": 2379,
      "))": 2380,
      "63": 2381,
      "68": 2382,
      "ilibrium": 2383,
      "abil": 2384,
      "sm": 2385,
      "Ġpulse": 2386,
      "comp": 2387,
      "ĠFin": 2388,
      "Ġrese": 2389,
      "henomen": 2390,
      "reat": 2391,
      "Ġfixed": 2392,
      "Ġwavegu": 2393,
      "Ġexternal": 2394,
      "Ġđ": 2395,
      "Ġsemiconduct": 2396,
      "Ġacross": 2397,
      "olved": 2398,
      "Ġdifferen": 2399,
      "Ġemission": 2400,
      "gineering": 2401,
      "Ġtherefore": 2402,
      "Ġagreement": 2403,
      "urb": 2404,
      "Ġion": 2405,
      "acy": 2406,
      "ĠAll": 2407,
      "particle": 2408,
      "Ġphysical": 2409,
      "ĠNe": 2410,
      "69": 2411,
      "type": 2412,
      "Ġquanti": 2413,
      "ĠWhen": 2414,
      "ead": 2415,
      "ĠSn": 2416,
      "doi": 2417,
      "Ġpump": 2418,
      "Ġindicates": 2419,
      "set": 2420,
      "ĠðĿĽ": 2421,
      "Ġprovide": 2422,
      "Ġillu": 2423,
      "ĠIII": 2424,
      "Ġcomparison": 2425,
      "Ġcorresponds": 2426,
      "PS": 2427,
      "ks": 2428,
      "duces": 2429,
      "Ġcomponent": 2430,
      "po": 2431,
      "Ġdielectric": 2432,
      "cept": 2433,
      "ĠSol": 2434,
      "ley": 2435,
      "Ġ23": 2436,
      "Ġdoub": 2437,
      "Ġmed": 2438,
      "Ġsource": 2439,
      "ĠDepartment": 2440,
      "Ġexpression": 2441,
      "ĠOp": 2442,
      "Ġdefects": 2443,
      "Ġdrop": 2444,
      "ĠFrom": 2445,
      "ertain": 2446,
      "Ġlike": 2447,
      "ĠInstit": 2448,
      "Ġstill": 2449,
      "Ġcorrelation": 2450,
      "ĠAr": 2451,
      "tics": 2452,
      "Ġstrongly": 2453,
      "Ġanisotropy": 2454,
      "Ġcoupled": 2455,
      "ient": 2456,
      "Îĵ": 2457,
      "Ġauth": 2458,
      "Ġinf": 2459,
      "Ġblue": 2460,
      "ocity": 2461,
      "Ġconfir": 2462,
      "ze": 2463,
      "Ġsqu": 2464,
      "Ġimages": 2465,
      "Ġdu": 2466,
      "Ġcalculation": 2467,
      "ĠJosephson": 2468,
      "oid": 2469,
      "ĠLu": 2470,
      "inary": 2471,
      "aneous": 2472,
      "Ġcyc": 2473,
      "Ġrelaxation": 2474,
      "Ġ35": 2475,
      "Ġphoto": 2476,
      "ĠCr": 2477,
      "Ġright": 2478,
      "Ġ29": 2479,
      "Ġsupport": 2480,
      "ĠNa": 2481,
      "Ġminim": 2482,
      "ĠBr": 2483,
      "Ġdot": 2484,
      "Ġnote": 2485,
      "Ġtaken": 2486,
      "Ġroom": 2487,
      "ĠQuantum": 2488,
      "lis": 2489,
      "Ġtr": 2490,
      "tr": 2491,
      ")]": 2492,
      "Ġcavity": 2493,
      "Ġphenomen": 2494,
      "88": 2495,
      "Ġsumm": 2496,
      "Ġelectrical": 2497,
      "2012": 2498,
      "ĠĐ": 2499,
      "Ġindi": 2500,
      "2013": 2501,
      "Ġevolution": 2502,
      "Ġpath": 2503,
      "rins": 2504,
      "Ġassum": 2505,
      "Ġsignificantly": 2506,
      "Ġknown": 2507,
      "ox": 2508,
      "Ġsilicon": 2509,
      "ored": 2510,
      "ĠElectron": 2511,
      "Ġenhance": 2512,
      "atur": 2513,
      "Ġcarrier": 2514,
      "):": 2515,
      "Ġregions": 2516,
      "Ġatt": 2517,
      "omal": 2518,
      "versal": 2519,
      "In": 2520,
      "ive": 2521,
      "Ġcomposition": 2522,
      "Ġdiagram": 2523,
      "Ġpositive": 2524,
      "lusion": 2525,
      "Ġemploy": 2526,
      "for": 2527,
      "Ġvelocity": 2528,
      "Ġsurfaces": 2529,
      "Ġneut": 2530,
      "Ġhalf": 2531,
      "inding": 2532,
      "Ġway": 2533,
      "Ġexhibit": 2534,
      "Ġnanop": 2535,
      "tri": 2536,
      "¿½": 2537,
      "Ġhow": 2538,
      "ĠBer": 2539,
      "Ġgood": 2540,
      "Ġproblem": 2541,
      "electron": 2542,
      "ÏĪ": 2543,
      "Ġdiffusion": 2544,
      "mit": 2545,
      "ĠEnergy": 2546,
      "aches": 2547,
      "met": 2548,
      "Ġelastic": 2549,
      "Ġbasis": 2550,
      "jorana": 2551,
      "Ġparallel": 2552,
      "rier": 2553,
      "amond": 2554,
      "izing": 2555,
      "Ġindependent": 2556,
      "Ġdashed": 2557,
      "endi": 2558,
      "ĠMater": 2559,
      "EC": 2560,
      "Ġreflection": 2561,
      "ĠCar": 2562,
      "min": 2563,
      "ĠGu": 2564,
      "Ġbu": 2565,
      "Ġoxy": 2566,
      "Ĭ¥": 2567,
      "urface": 2568,
      "Ġphoton": 2569,
      "Ġreas": 2570,
      "Ġ90": 2571,
      "Ġdel": 2572,
      "Ġspectroscopy": 2573,
      "Ġ26": 2574,
      "Ġshort": 2575,
      "Ġfollows": 2576,
      "Ġhowever": 2577,
      "ĠYu": 2578,
      "Ġend": 2579,
      "aps": 2580,
      "Ġnow": 2581,
      "Ġopp": 2582,
      "more": 2583,
      "Ġsites": 2584,
      "87": 2585,
      "read": 2586,
      "width": 2587,
      "Ã©": 2588,
      "Ġunderstand": 2589,
      "Ġthem": 2590,
      "Ġrele": 2591,
      "Ġlog": 2592,
      "Ġnature": 2593,
      "Ġchannel": 2594,
      "Ġtransitions": 2595,
      "ists": 2596,
      "Ġgate": 2597,
      "endix": 2598,
      "ages": 2599,
      "Ti": 2600,
      "Ġact": 2601,
      "ĠAppl": 2602,
      "Ġcenter": 2603,
      "itud": 2604,
      "Ġelement": 2605,
      "Ġrelation": 2606,
      "Ġdiffraction": 2607,
      "Ġdetails": 2608,
      "strates": 2609,
      "iron": 2610,
      "Ġcells": 2611,
      "2021": 2612,
      "Ġmultiple": 2613,
      "Ġmechanical": 2614,
      "Ġappear": 2615,
      "Ġallows": 2616,
      "Ġparticles": 2617,
      "ually": 2618,
      "doped": 2619,
      "rant": 2620,
      "oton": 2621,
      "by": 2622,
      "Ġfraction": 2623,
      "Ġoutput": 2624,
      "Ġmetallic": 2625,
      "fluid": 2626,
      "Ġsimple": 2627,
      "Ġgeometry": 2628,
      "sor": 2629,
      "Ġ(âĪĴ": 2630,
      "Ġleading": 2631,
      "MS": 2632,
      "cell": 2633,
      "Ġextend": 2634,
      "Ġcut": 2635,
      "Ġplan": 2636,
      "Ġqubit": 2637,
      "Ni": 2638,
      "ament": 2639,
      "56": 2640,
      "Ġcaus": 2641,
      "Ġcool": 2642,
      "not": 2643,
      "Ġfew": 2644,
      ")-": 2645,
      "52": 2646,
      "ĠYang": 2647,
      "Ġnonlinear": 2648,
      ")/": 2649,
      "Ġslight": 2650,
      "vid": 2651,
      "ract": 2652,
      "53": 2653,
      "AB": 2654,
      "ries": 2655,
      "ĠAg": 2656,
      "Ġeither": 2657,
      "Ġfund": 2658,
      "imet": 2659,
      "ighb": 2660,
      "abor": 2661,
      "Ġmade": 2662,
      "Ġrole": 2663,
      "MA": 2664,
      "induced": 2665,
      "Ġtoward": 2666,
      "Ġresolution": 2667,
      "oper": 2668,
      "58": 2669,
      "az": 2670,
      "77": 2671,
      "ĠAu": 2672,
      "axis": 2673,
      "mat": 2674,
      "Ġdemonstrated": 2675,
      "rinsic": 2676,
      "ĠEu": 2677,
      "Ġgradi": 2678,
      "peci": 2679,
      "ĠComm": 2680,
      "orts": 2681,
      "olt": 2682,
      "Ġload": 2683,
      "Ġâī¤": 2684,
      "Ġresistivity": 2685,
      "Ġdirectly": 2686,
      "Ġstable": 2687,
      "Ġcompounds": 2688,
      "Ġperiodic": 2689,
      "Ġinflu": 2690,
      "ĠWhile": 2691,
      "111": 2692,
      "Ġnuc": 2693,
      "Ġdevelop": 2694,
      "ah": 2695,
      "roscopic": 2696,
      "neal": 2697,
      "Ġdecreases": 2698,
      "PA": 2699,
      "Ġshape": 2700,
      "Ġmonolayer": 2701,
      "Ġpairs": 2702,
      "Tc": 2703,
      "Ġoxygen": 2704,
      "Ġopen": 2705,
      "ĠDirac": 2706,
      "Ġbefore": 2707,
      "Ġrandom": 2708,
      "Ġconventional": 2709,
      "Ġpanel": 2710,
      "ĠKim": 2711,
      "Ġerror": 2712,
      "ext": 2713,
      "Ġstability": 2714,
      "ĠPa": 2715,
      "04": 2716,
      "51": 2717,
      "Ġagain": 2718,
      "radi": 2719,
      "Ġimplement": 2720,
      "ÌĬ": 2721,
      "Ġdisorder": 2722,
      "Cu": 2723,
      "rel": 2724,
      "ticles": 2725,
      "ained": 2726,
      "ĠMoreover": 2727,
      "Ġprobe": 2728,
      "Ġindex": 2729,
      "Ġdisplace": 2730,
      "Ġprocesses": 2731,
      "Ġtransform": 2732,
      "su": 2733,
      "ĠAdv": 2734,
      "ĠMA": 2735,
      "gor": 2736,
      "Ġfram": 2737,
      "seud": 2738,
      "ining": 2739,
      "na": 2740,
      "Ġcho": 2741,
      "ĠRaman": 2742,
      "Ġï£´": 2743,
      "ival": 2744,
      "fication": 2745,
      "Ġleft": 2746,
      "ĠTa": 2747,
      "ĠInstitute": 2748,
      "2010": 2749,
      "ĠLee": 2750,
      "ĠSo": 2751,
      "59": 2752,
      "Ġfar": 2753,
      "cepti": 2754,
      "ĠAFM": 2755,
      "izes": 2756,
      "ged": 2757,
      "Ġhighly": 2758,
      "ymmetric": 2759,
      "lust": 2760,
      "TION": 2761,
      "Ġfully": 2762,
      "ĠMajorana": 2763,
      "Ġequal": 2764,
      "Ġcarbon": 2765,
      "Ġphysics": 2766,
      "Ïķ": 2767,
      "state": 2768,
      "ques": 2769,
      "ade": 2770,
      "omogene": 2771,
      "Ġreveal": 2772,
      "Ġter": 2773,
      "Ġdecrease": 2774,
      "Ġindicate": 2775,
      "most": 2776,
      "Ġdevi": 2777,
      "Ga": 2778,
      "axial": 2779,
      "Ġhel": 2780,
      "Ġloop": 2781,
      "2011": 2782,
      "Ġorbitals": 2783,
      "ĠNational": 2784,
      "taneous": 2785,
      "Ġmolecular": 2786,
      "Ġbil": 2787,
      "ĠInt": 2788,
      "06": 2789,
      "Ġgas": 2790,
      "BN": 2791,
      "Ġanomal": 2792,
      "Ġgenerated": 2793,
      "Ġdependent": 2794,
      "08": 2795,
      "ĠFinally": 2796,
      "Ġincreased": 2797,
      "Ġmix": 2798,
      "Ġaccount": 2799,
      "Ġavail": 2800,
      "ameter": 2801,
      "Ġchiral": 2802,
      "Ġcup": 2803,
      "Ġâī¡": 2804,
      "Ġsite": 2805,
      "Ġcore": 2806,
      "Â·": 2807,
      "Ġexperimentally": 2808,
      "ĠSupplementary": 2809,
      "Ġtions": 2810,
      "ĠAnd": 2811,
      "vial": 2812,
      "Ġperm": 2813,
      "cial": 2814,
      "cules": 2815,
      "gan": 2816,
      "ĠÎ¼": 2817,
      "akes": 2818,
      "ĠCommun": 2819,
      "Ġ\"": 2820,
      "Ġgives": 2821,
      "Ġread": 2822,
      "ather": 2823,
      "Ġflat": 2824,
      "aced": 2825,
      "ĠSection": 2826,
      "Ġ%": 2827,
      "Ġsuscepti": 2828,
      "mann": 2829,
      "ĠFurthermore": 2830,
      "03": 2831,
      "Ps": 2832,
      "ko": 2833,
      "Ġfib": 2834,
      "ĠPb": 2835,
      "Ġtemp": 2836,
      "Ġ32": 2837,
      "ðĿĳ¡": 2838,
      "Ġmust": 2839,
      "ðĿĳļ": 2840,
      "temperature": 2841,
      "viron": 2842,
      "Ġreference": 2843,
      "Ġdenot": 2844,
      "Ġbottom": 2845,
      "Ġnanow": 2846,
      "isted": 2847,
      "Cs": 2848,
      "atory": 2849,
      "ores": 2850,
      "ĠAppendix": 2851,
      "let": 2852,
      "ĠÃĬ": 2853,
      "Ġwaves": 2854,
      "Ġmeans": 2855,
      "ĠâĦ": 2856,
      "62": 2857,
      "Ġrequired": 2858,
      "Ł©": 2859,
      "Ġmodulation": 2860,
      "Ġview": 2861,
      "ðĿĳĽ": 2862,
      "âĪŀ": 2863,
      "ĠOne": 2864,
      "Ġprovides": 2865,
      "ĠUsing": 2866,
      "Ġcoun": 2867,
      "Ġvariation": 2868,
      "requency": 2869,
      "Ġreduction": 2870,
      "assi": 2871,
      "lip": 2872,
      "here": 2873,
      "ables": 2874,
      "ĠIf": 2875,
      "dd": 2876,
      "very": 2877,
      "Ġfitting": 2878,
      "Ġpure": 2879,
      "Ġantifer": 2880,
      "0000": 2881,
      "Ġions": 2882,
      "Ġsupported": 2883,
      "Ġide": 2884,
      "ret": 2885,
      "Ġuniform": 2886,
      "Ġrepresents": 2887,
      "ogen": 2888,
      "Ġfl": 2889,
      "Ġtunneling": 2890,
      "Ġcoord": 2891,
      "Ġachieved": 2892,
      "inal": 2893,
      "ðĿĳĲ": 2894,
      "Ġzone": 2895,
      "rating": 2896,
      "Ġvary": 2897,
      "lex": 2898,
      "Ġdirections": 2899,
      "eries": 2900,
      "Ġreason": 2901,
      "Ġcircuit": 2902,
      "resh": 2903,
      "idence": 2904,
      "ðĿĳ¥": 2905,
      "Ġconductance": 2906,
      "BE": 2907,
      "Ġpseud": 2908,
      "Ġdemonstrate": 2909,
      "Ġhar": 2910,
      "Ġformul": 2911,
      "ĠÎ£": 2912,
      "ĠWu": 2913,
      "aining": 2914,
      "ĠMic": 2915,
      "Ġupper": 2916,
      "ND": 2917,
      "Ġprinci": 2918,
      "61": 2919,
      "ithm": 2920,
      "ĠFigs": 2921,
      "medi": 2922,
      "icular": 2923,
      "ĠGHz": 2924,
      "CO": 2925,
      "97": 2926,
      "Ġoccurs": 2927,
      "Ġ37": 2928,
      "anning": 2929,
      "fact": 2930,
      "ĠÎĶ": 2931,
      "gest": 2932,
      "Ġanneal": 2933,
      "Ġpredicted": 2934,
      "ris": 2935,
      "atom": 2936,
      "Ġlit": 2937,
      "lies": 2938,
      "polar": 2939,
      "Ġinside": 2940,
      "owledge": 2941,
      "Ġremains": 2942,
      "roelectric": 2943,
      "turb": 2944,
      "ĠâĪĪ": 2945,
      "ĠIV": 2946,
      "Ġdiscussion": 2947,
      "ody": 2948,
      "ceed": 2949,
      "LS": 2950,
      "Cl": 2951,
      "âĬ¥": 2952,
      "eep": 2953,
      "etter": 2954,
      "HE": 2955,
      "Ġdiamond": 2956,
      "ĠLetters": 2957,
      "AM": 2958,
      "Ġwall": 2959,
      "Ġfill": 2960,
      "ĠâĹ": 2961,
      "ĠSec": 2962,
      "Ġdepends": 2963,
      "ĠïĤ": 2964,
      "Ġresonator": 2965,
      "structure": 2966,
      "Ġvers": 2967,
      "tially": 2968,
      "Ġobserve": 2969,
      "Ġtypical": 2970,
      "Ġupon": 2971,
      "ID": 2972,
      "Ġwaveguide": 2973,
      "Ġdetermine": 2974,
      "land": 2975,
      "Ġemerg": 2976,
      "ĠCent": 2977,
      "07": 2978,
      "ĠMar": 2979,
      "pit": 2980,
      "Ġpur": 2981,
      "fficients": 2982,
      "Ġprot": 2983,
      "Ġresearch": 2984,
      "Ġglass": 2985,
      "Ġoccup": 2986,
      "ducing": 2987,
      "ancy": 2988,
      "Ġmicrowave": 2989,
      "RO": 2990,
      "Ġtip": 2991,
      "oto": 2992,
      "Ġpossi": 2993,
      "ĠXu": 2994,
      "Ġinset": 2995,
      "Ġstack": 2996,
      "Ġgrain": 2997,
      "Ġtar": 2998,
      "Ġauthors": 2999,
      "rad": 3000,
      "89": 3001,
      "Ġexact": 3002,
      "Ġhydrogen": 3003,
      "Ġmolecules": 3004,
      "Ġswitching": 3005,
      "ood": 3006,
      "ĠPar": 3007,
      "Ġestimated": 3008,
      "Ġcoefficients": 3009,
      "Ġcalculate": 3010,
      "Ġ45": 3011,
      "Ġbarrier": 3012,
      "Ġï£¬": 3013,
      "ĠTrans": 3014,
      "Ġprofile": 3015,
      "Ġfre": 3016,
      "apor": 3017,
      "Ġclearly": 3018,
      "Ġincident": 3019,
      "ention": 3020,
      "BS": 3021,
      "Ġequilibrium": 3022,
      "ÃĬ": 3023,
      "omp": 3024,
      "Ġwide": 3025,
      "Ġgradient": 3026,
      "cedure": 3027,
      "ano": 3028,
      "Ġcontributions": 3029,
      "Ġcannot": 3030,
      "ensities": 3031,
      "Ġsquare": 3032,
      "ĠTechnology": 3033,
      "Ġtechnique": 3034,
      "Ġren": 3035,
      "Ġblack": 3036,
      "Ġultra": 3037,
      "Ġclust": 3038,
      "Ġmark": 3039,
      "Ġcharacteristics": 3040,
      "awa": 3041,
      "Ġder": 3042,
      "Ġdepth": 3043,
      "time": 3044,
      "Ġadd": 3045,
      "ura": 3046,
      "Ġaccording": 3047,
      "ĠCe": 3048,
      "Ġtext": 3049,
      "Ġvalid": 3050,
      "Ġsplitting": 3051,
      "Ġjunctions": 3052,
      "Ġperovsk": 3053,
      "ĠSOC": 3054,
      "Ġavailable": 3055,
      "arge": 3056,
      "Ġmotion": 3057,
      "Ġenviron": 3058,
      "Ġwhereas": 3059,
      "Ġ#": 3060,
      "Ġalign": 3061,
      "Ġquantit": 3062,
      "Ġdouble": 3063,
      "ult": 3064,
      "osen": 3065,
      "Ġheterostructure": 3066,
      "oy": 3067,
      "Ġï£·": 3068,
      "Ġture": 3069,
      "Ġferromagnetic": 3070,
      "Ġlevels": 3071,
      "ivalent": 3072,
      "ica": 3073,
      "Ġdescri": 3074,
      "ĠApplied": 3075,
      "Ġprocedure": 3076,
      "Ġquality": 3077,
      "ĠPL": 3078,
      "alled": 3079,
      "Ġturn": 3080,
      "Ġminimum": 3081,
      "Ġinver": 3082,
      "ety": 3083,
      "Ġrelations": 3084,
      "Ġsetup": 3085,
      "Ġdx": 3086,
      "Ġfac": 3087,
      "ĠChina": 3088,
      "ĠIm": 3089,
      "Ġexpon": 3090,
      "EEE": 3091,
      "Ïīn": 3092,
      "Ġ150": 3093,
      "Ġsolutions": 3094,
      "Ġenhanced": 3095,
      "ara": 3096,
      "ĠAfter": 3097,
      "Ġrather": 3098,
      "AS": 3099,
      "Ġrelatively": 3100,
      "ĠCooper": 3101,
      "Bi": 3102,
      "ĠPt": 3103,
      "Ġcommon": 3104,
      "Ġinvestigated": 3105,
      "AL": 3106,
      "ches": 3107,
      "ĠÃħ": 3108,
      "Ġtor": 3109,
      "Ġplotted": 3110,
      "Ġformed": 3111,
      "lin": 3112,
      "ðĿĳł": 3113,
      "Ġintrinsic": 3114,
      "oelectric": 3115,
      "Ġstar": 3116,
      "rents": 3117,
      "Ġneighb": 3118,
      "ĠSuch": 3119,
      "Ġweight": 3120,
      "oustic": 3121,
      "ansion": 3122,
      "âĪĤ": 3123,
      "arp": 3124,
      "Ġradiation": 3125,
      "Ġlif": 3126,
      "ĠMoS": 3127,
      "Ġdegener": 3128,
      "Ġpuls": 3129,
      "76": 3130,
      "Ġdeposition": 3131,
      "jection": 3132,
      "86": 3133,
      "MD": 3134,
      "Ġlimited": 3135,
      "plet": 3136,
      "Ġoxide": 3137,
      "Ġelectrode": 3138,
      "reshold": 3139,
      "Ġslightly": 3140,
      "Ġtet": 3141,
      "kov": 3142,
      "AR": 3143,
      "Ġdistin": 3144,
      "Ġbetter": 3145,
      "ĠFirst": 3146,
      "Ġstri": 3147,
      "ĠThen": 3148,
      "Ġdoped": 3149,
      "Ġtes": 3150,
      "Ġalmost": 3151,
      "Ġreaction": 3152,
      "ging": 3153,
      "Ġconduction": 3154,
      "Ġmetas": 3155,
      "pendicular": 3156,
      "iang": 3157,
      "ðĿĳİ": 3158,
      "ani": 3159,
      "ski": 3160,
      "ĠRu": 3161,
      "ËĨ": 3162,
      "Ġkine": 3163,
      "Ġvs": 3164,
      "Ġimprove": 3165,
      "Ġprog": 3166,
      "Ġ!": 3167,
      "ao": 3168,
      "sip": 3169,
      "NO": 3170,
      "ðĿĳĴ": 3171,
      "Ġtowards": 3172,
      "way": 3173,
      "uter": 3174,
      "ĠEngineering": 3175,
      "Ġ500": 3176,
      "ĠIEEE": 3177,
      "Ġrotation": 3178,
      "oli": 3179,
      "pped": 3180,
      "bal": 3181,
      "aving": 3182,
      "wo": 3183,
      "ĠHigh": 3184,
      "ðĿĴ": 3185,
      "Ġshowing": 3186,
      "Ġcirc": 3187,
      "73": 3188,
      "ĠMg": 3189,
      "2009": 3190,
      "opping": 3191,
      "Ġorientation": 3192,
      "Ġlatter": 3193,
      "Sb": 3194,
      "Ġgraph": 3195,
      "unc": 3196,
      "rystall": 3197,
      "Ġneutron": 3198,
      "uum": 3199,
      "Ġimaging": 3200,
      "NR": 3201,
      "Ġ;": 3202,
      "ĠÃģ": 3203,
      "Ġdetection": 3204,
      "ÌĮ": 3205,
      "ĠAC": 3206,
      "Ġtest": 3207,
      "Ġopposite": 3208,
      "Ġseries": 3209,
      "ĠNano": 3210,
      "Ġpolymer": 3211,
      "Ġsufficient": 3212,
      "Ġ38": 3213,
      "matic": 3214,
      "late": 3215,
      "sian": 3216,
      "ĠNew": 3217,
      "Ġwrit": 3218,
      "ĠAc": 3219,
      "ĠGreen": 3220,
      "edu": 3221,
      "Ġexpansion": 3222,
      "Ġdecay": 3223,
      "Ġproject": 3224,
      "Ġradius": 3225,
      "max": 3226,
      "ĠRep": 3227,
      "RD": 3228,
      "Ġear": 3229,
      "Ġpreviously": 3230,
      "ĠCal": 3231,
      "Ġnecess": 3232,
      "Ç«": 3233,
      "Ġlater": 3234,
      "pole": 3235,
      "Ġplate": 3236,
      "Ġapplication": 3237,
      "Ġperturb": 3238,
      "Ġsusceptibility": 3239,
      "Ġdiscre": 3240,
      "Ġrest": 3241,
      "bers": 3242,
      "Ġ31": 3243,
      "Ġalgor": 3244,
      "inning": 3245,
      "reg": 3246,
      "ĠAcc": 3247,
      "rmion": 3248,
      "Ġcontinuous": 3249,
      "ĠUSA": 3250,
      "Ġperpendicular": 3251,
      "2008": 3252,
      "Ġgrown": 3253,
      "ubb": 3254,
      "ĠFour": 3255,
      "rates": 3256,
      "Ġnit": 3257,
      "sequently": 3258,
      "ĠÂ°": 3259,
      "Ġsitu": 3260,
      "Ġadj": 3261,
      "ĠLo": 3262,
      "Ġprovided": 3263,
      "Ġexhibits": 3264,
      "Ġabsence": 3265,
      "IT": 3266,
      "ĠPe": 3267,
      "Ġconfigurations": 3268,
      "fect": 3269,
      "Ġmodif": 3270,
      "right": 3271,
      "ĠTan": 3272,
      "ĠCor": 3273,
      "Ġpropor": 3274,
      "ðĿĳĩ": 3275,
      "ĠEF": 3276,
      "ymmetry": 3277,
      "ĠâĪĩ": 3278,
      "ised": 3279,
      "ibration": 3280,
      "lock": 3281,
      "Ġindicating": 3282,
      "istry": 3283,
      "98": 3284,
      "96": 3285,
      "ĠDOS": 3286,
      "Ġsatis": 3287,
      "Ġclos": 3288,
      "Ġtarget": 3289,
      "2022": 3290,
      ".[": 3291,
      "Ġindivid": 3292,
      "Ġest": 3293,
      "Ġpotenti": 3294,
      "Ġenhancement": 3295,
      "Ġtechniques": 3296,
      "agneti": 3297,
      "IC": 3298,
      "ariant": 3299,
      "oring": 3300,
      "ĠPol": 3301,
      "ctions": 3302,
      "Ġvor": 3303,
      "Ġattra": 3304,
      "Ġ33": 3305,
      "Ġapproximately": 3306,
      "SS": 3307,
      "Ġinfluence": 3308,
      "Ġcarried": 3309,
      "ĠïĢ½": 3310,
      "Ġpositions": 3311,
      "Ġtens": 3312,
      "Ġprep": 3313,
      "ĠMon": 3314,
      "Ġampli": 3315,
      "Ġimpurity": 3316,
      "Ġvalence": 3317,
      "Ìĩ": 3318,
      "Ġlowest": 3319,
      "rack": 3320,
      "LE": 3321,
      "PT": 3322,
      "Ġrequire": 3323,
      "oles": 3324,
      "Ġprec": 3325,
      "yond": 3326,
      "Ġpor": 3327,
      "IN": 3328,
      "lished": 3329,
      "Ġrecon": 3330,
      "Mn": 3331,
      "Ġbecome": 3332,
      "Ġefficient": 3333,
      "Ġthreshold": 3334,
      "agonal": 3335,
      "âĦ": 3336,
      "ĠâĪŀ": 3337,
      "hao": 3338,
      "Ġgain": 3339,
      "ĠPer": 3340,
      "aboratory": 3341,
      "Ġ400": 3342,
      "Ġindicated": 3343,
      "hesis": 3344,
      "Ġtypes": 3345,
      "Ġdiameter": 3346,
      "Ġ34": 3347,
      "iss": 3348,
      ".)": 3349,
      "phase": 3350,
      "ĠÎĽ": 3351,
      "Ġrough": 3352,
      "ĠTop": 3353,
      "78": 3354,
      "kyrmion": 3355,
      "Ġanother": 3356,
      "rees": 3357,
      "74": 3358,
      "Ġdat": 3359,
      "Ġgeneration": 3360,
      "Ġcooling": 3361,
      "PC": 3362,
      "Ġderived": 3363,
      "adi": 3364,
      "Ġreflect": 3365,
      "Ġappears": 3366,
      "Ġtrain": 3367,
      "Ġsubstit": 3368,
      "Ġgu": 3369,
      "Ġfabrication": 3370,
      "ynamic": 3371,
      "amental": 3372,
      "Ġproxim": 3373,
      "ĠSolid": 3374,
      "ference": 3375,
      "Ġinsulator": 3376,
      "Ġangular": 3377,
      "Ġactive": 3378,
      "Ġnormalized": 3379,
      "cale": 3380,
      "Ġdisplay": 3381,
      "ĠÎ¨": 3382,
      "ĠEqs": 3383,
      "Ġdeveloped": 3384,
      "Ġlear": 3385,
      "Ġchall": 3386,
      "ami": 3387,
      "Ġtake": 3388,
      "Ġexcitations": 3389,
      "ĠCol": 3390,
      "coup": 3391,
      "Ġbilayer": 3392,
      "ĠMatter": 3393,
      "Ġsoft": 3394,
      "ĠSimilar": 3395,
      "ground": 3396,
      "Sn": 3397,
      "la": 3398,
      "ĠBCS": 3399,
      "omogeneous": 3400,
      "eff": 3401,
      "ba": 3402,
      "phonon": 3403,
      "Ġoperator": 3404,
      "ï¬": 3405,
      "ĠTC": 3406,
      "Ġlocalized": 3407,
      "Ġutil": 3408,
      "Î¦": 3409,
      "Ġhard": 3410,
      "AC": 3411,
      "och": 3412,
      "Ġcub": 3413,
      "ĠExperiment": 3414,
      "Ġinvestigate": 3415,
      "Ġcontrib": 3416,
      "Ġassume": 3417,
      "Ġcoordin": 3418,
      "Ġrise": 3419,
      "Ġcat": 3420,
      "Ġdissip": 3421,
      "ĠTHz": 3422,
      "ĠFeSe": 3423,
      "je": 3424,
      "ĠBar": 3425,
      "Ġimpact": 3426,
      "Ġwire": 3427,
      "Ġcle": 3428,
      "Ġemit": 3429,
      "den": 3430,
      "Ġdisplacement": 3431,
      "ĠCs": 3432,
      "Ġdescribe": 3433,
      "io": 3434,
      "Ġnano": 3435,
      "Ġrelevant": 3436,
      "lective": 3437,
      "94": 3438,
      "ENT": 3439,
      "Ġrecently": 3440,
      "Ġchosen": 3441,
      "Ġdisloc": 3442,
      "Ġextracted": 3443,
      "Ġ70": 3444,
      "ples": 3445,
      "ulated": 3446,
      "inc": 3447,
      "Îº": 3448,
      "PD": 3449,
      "ĠZn": 3450,
      "Ph": 3451,
      "ĠCDW": 3452,
      "ird": 3453,
      "ĠAm": 3454,
      "ĠHuang": 3455,
      "Ġhen": 3456,
      "Ġanten": 3457,
      "Ġ36": 3458,
      "ðĿĽ": 3459,
      "ĠdB": 3460,
      "Ġsuperfluid": 3461,
      "Ġarray": 3462,
      "Ġaffect": 3463,
      "Ġsatur": 3464,
      "Ġrepl": 3465,
      "Ġestimate": 3466,
      "ening": 3467,
      "ĠSte": 3468,
      "TS": 3469,
      "Ġanisotropic": 3470,
      "83": 3471,
      "arrow": 3472,
      "Ġpatterns": 3473,
      "Ġachieve": 3474,
      "Ġsensitivity": 3475,
      "Ġintroduced": 3476,
      "SR": 3477,
      "Ġvacuum": 3478,
      "zz": 3479,
      "Ġextre": 3480,
      "Ġmemb": 3481,
      "ta": 3482,
      "Ġky": 3483,
      "Ġair": 3484,
      "Ġnanopar": 3485,
      "Ġnext": 3486,
      "Ġackn": 3487,
      "uchi": 3488,
      "tered": 3489,
      "84": 3490,
      "71": 3491,
      ");": 3492,
      "ita": 3493,
      "rend": 3494,
      "Ġintegrated": 3495,
      "ĠSm": 3496,
      "Ġaccuracy": 3497,
      "ched": 3498,
      "Ġhence": 3499,
      "blue": 3500,
      "ĠPl": 3501,
      "ĠML": 3502,
      "Ġâīĥ": 3503,
      "72": 3504,
      "ulomb": 3505,
      "Ġresonant": 3506,
      "kely": 3507,
      "Ġdepos": 3508,
      "ways": 3509,
      "ingly": 3510,
      "yd": 3511,
      "Ġapproaches": 3512,
      "Ġtreat": 3513,
      "PL": 3514,
      "agnet": 3515,
      "Ġprim": 3516,
      "ĠAlthough": 3517,
      "Ïĩ": 3518,
      "Ġmem": 3519,
      "Ġorgan": 3520,
      "rations": 3521,
      "osh": 3522,
      "Ġacoustic": 3523,
      "Ġmaxim": 3524,
      "ĠðĿĳĩ": 3525,
      "Ġferroelectric": 3526,
      "ung": 3527,
      "Ġcrystalline": 3528,
      "ans": 3529,
      "era": 3530,
      "aries": 3531,
      "zero": 3532,
      "Ġcharacterized": 3533,
      "ĠâĢĺ": 3534,
      "aussian": 3535,
      "Ġequivalent": 3536,
      "any": 3537,
      "Ġderiv": 3538,
      "Ġstra": 3539,
      "Ġln": 3540,
      "Ġcurrents": 3541,
      "Ġ}": 3542,
      "Ġfinal": 3543,
      "Ġvertical": 3544,
      "Ġbreak": 3545,
      "light": 3546,
      "Ġiron": 3547,
      "aki": 3548,
      "ĠOr": 3549,
      "Ġoverall": 3550,
      "ography": 3551,
      "Ġobservation": 3552,
      "sol": 3553,
      "ĠÎ¶": 3554,
      "Ġdetailed": 3555,
      "VD": 3556,
      "Ġbuil": 3557,
      "air": 3558,
      "function": 3559,
      "Ġcoherence": 3560,
      "kx": 3561,
      "Ġskyrmion": 3562,
      "ĠDis": 3563,
      "Ġplat": 3564,
      "conductivity": 3565,
      "Ġheight": 3566,
      "Ġcomputed": 3567,
      "Ġenti": 3568,
      "79": 3569,
      "Ġdepic": 3570,
      "Ġsymmetric": 3571,
      "ĠGi": 3572,
      "Ġstatic": 3573,
      "Ġcorrelations": 3574,
      "ĠSb": 3575,
      "Ġunc": 3576,
      "ouin": 3577,
      "Ġinvol": 3578,
      "ĠDes": 3579,
      "IS": 3580,
      "OR": 3581,
      "peri": 3582,
      "loys": 3583,
      "Ġhopping": 3584,
      "Ġ120": 3585,
      "Ġmir": 3586,
      "ision": 3587,
      "Ġser": 3588,
      "Ġmetals": 3589,
      "Ġsolar": 3590,
      "Ġdynamic": 3591,
      "ework": 3592,
      "Ġsucc": 3593,
      "Ġcond": 3594,
      "Ġslow": 3595,
      "Ġchain": 3596,
      "Ġ2018": 3597,
      "Ġess": 3598,
      "Ġ39": 3599,
      "Ġfabricated": 3600,
      "Ġdistinct": 3601,
      "Ġcarriers": 3602,
      "Ġlab": 3603,
      "Ġbran": 3604,
      "AN": 3605,
      "Ġnam": 3606,
      "isms": 3607,
      "Ġelectrodes": 3608,
      "Ġheating": 3609,
      "Ġobserv": 3610,
      "Ġspeed": 3611,
      "BM": 3612,
      "Ġsum": 3613,
      "Ġmake": 3614,
      "Ġmicroscopy": 3615,
      "Ġsharp": 3616,
      "Ġkey": 3617,
      "Ġpropagation": 3618,
      "Ġirradi": 3619,
      "cting": 3620,
      "Ġscheme": 3621,
      "conducting": 3622,
      "Ġkx": 3623,
      "lap": 3624,
      "ĠInter": 3625,
      "ĠTemperature": 3626,
      "onons": 3627,
      "Ġment": 3628,
      "Ġ2020": 3629,
      "Ġconstants": 3630,
      "MO": 3631,
      "equ": 3632,
      "Ġbeyond": 3633,
      "iding": 3634,
      "Ġrates": 3635,
      "ĠHence": 3636,
      "Ġcapacit": 3637,
      "ĠCond": 3638,
      "Ġenvironment": 3639,
      "Ġindividual": 3640,
      "har": 3641,
      "ĠCoulomb": 3642,
      "ken": 3643,
      "lattice": 3644,
      "Ġ1000": 3645,
      "entioned": 3646,
      "Ġoperation": 3647,
      "Ġ*": 3648,
      "ĠAR": 3649,
      "ĠFourier": 3650,
      "Ġestab": 3651,
      "Ġsemiconductor": 3652,
      "zer": 3653,
      "EN": 3654,
      "atically": 3655,
      "Ġsignals": 3656,
      "Ġvisible": 3657,
      "Ms": 3658,
      "Ġedges": 3659,
      "Ġfundamental": 3660,
      "Ġreach": 3661,
      "Ġrequires": 3662,
      "Pt": 3663,
      "Ġspac": 3664,
      "Ġunits": 3665,
      "Ġnucle": 3666,
      "Ġemployed": 3667,
      "uture": 3668,
      "ĠGra": 3669,
      "ĠState": 3670,
      "ĠSpin": 3671,
      "ðĿĳĳ": 3672,
      "Ġrepro": 3673,
      "Ġsuggests": 3674,
      "Ġ(~": 3675,
      "Ġcondens": 3676,
      "Ġproportional": 3677,
      "Ġrob": 3678,
      ")).": 3679,
      "ready": 3680,
      "Pb": 3681,
      "point": 3682,
      "Ġ2019": 3683,
      "ĠEqu": 3684,
      "ĠâĹı": 3685,
      "ĠMc": 3686,
      "illouin": 3687,
      "Ġgreen": 3688,
      "Ġcertain": 3689,
      "ĠïĢŃ": 3690,
      "Ġnarrow": 3691,
      "ĠCO": 3692,
      "cont": 3693,
      "Ġoptimization": 3694,
      "Ġfactors": 3695,
      "Ġiden": 3696,
      "space": 3697,
      "Ġresi": 3698,
      "hest": 3699,
      "EF": 3700,
      "Ġscaling": 3701,
      "Ġwhose": 3702,
      "Ġ42": 3703,
      "Ġdimensional": 3704,
      "utes": 3705,
      "Ġconsidering": 3706,
      "Ġbreaking": 3707,
      "fold": 3708,
      "Ġquad": 3709,
      "Ġpen": 3710,
      "Ġsteps": 3711,
      "itudes": 3712,
      "erge": 3713,
      "Ġarrow": 3714,
      "ĠMagnetic": 3715,
      "Ġscreen": 3716,
      "Ġbest": 3717,
      "urg": 3718,
      "Ġshear": 3719,
      "Ġhex": 3720,
      "Ġcombination": 3721,
      "Ġexcited": 3722,
      "Ġti": 3723,
      "Ġgre": 3724,
      "ots": 3725,
      "Ġgive": 3726,
      "Ġdimensions": 3727,
      "Ġbackground": 3728,
      "Ġscanning": 3729,
      "MC": 3730,
      "002": 3731,
      "Ġyields": 3732,
      "Ġinterfaces": 3733,
      "Ġtransformation": 3734,
      "Ġacti": 3735,
      "Ġaltern": 3736,
      "Ġconstruct": 3737,
      "%)": 3738,
      "aly": 3739,
      "ights": 3740,
      "lig": 3741,
      "Ġable": 3742,
      "Ġlink": 3743,
      "Ġassumed": 3744,
      "ults": 3745,
      "Ġdeformation": 3746,
      "Ġorth": 3747,
      "Ġframework": 3748,
      "UC": 3749,
      "ĠĔ": 3750,
      "Ġinversion": 3751,
      "uting": 3752,
      "ĠâĪĿ": 3753,
      "Ġextended": 3754,
      "Ġentire": 3755,
      "Ġmight": 3756,
      "ĠMethod": 3757,
      "09": 3758,
      "Ġnearly": 3759,
      "ĠSO": 3760,
      "ateri": 3761,
      "Ġalready": 3762,
      "ĠBrillouin": 3763,
      "Ġdriven": 3764,
      "Ġmembran": 3765,
      "Ġnematic": 3766,
      "Ġreview": 3767,
      "ĠCur": 3768,
      "Ġversus": 3769,
      "AA": 3770,
      "cons": 3771,
      "ruction": 3772,
      "xx": 3773,
      "Ġacqu": 3774,
      "Ġlaw": 3775,
      "aged": 3776,
      "ĠSun": 3777,
      "Ġphonons": 3778,
      "Ġresonators": 3779,
      ")|": 3780,
      "Ġorders": 3781,
      "Ġwritten": 3782,
      "ĠHc": 3783,
      "Ġformula": 3784,
      "Ġcost": 3785,
      "MI": 3786,
      "Ġsimulated": 3787,
      "orth": 3788,
      "rogen": 3789,
      "Ġqual": 3790,
      "cipro": 3791,
      "current": 3792,
      "Ġdetector": 3793,
      "ĠFu": 3794,
      "Ġanomalous": 3795,
      "Ġinclude": 3796,
      "82": 3797,
      "Ġvarying": 3798,
      "ĠSciences": 3799,
      "ometer": 3800,
      "Ġnodes": 3801,
      "Ġcontrolled": 3802,
      "Ġlikely": 3803,
      ")].": 3804,
      "ĠCondens": 3805,
      "Ġattributed": 3806,
      "Ġperovskite": 3807,
      "umin": 3808,
      "ĠSI": 3809,
      "enari": 3810,
      "ðĿĳĺ": 3811,
      "Ġexpressed": 3812,
      "QU": 3813,
      "section": 3814,
      "ĠInformation": 3815,
      "arent": 3816,
      "Ġphotonic": 3817,
      "cence": 3818,
      "Ġvortices": 3819,
      "Ġcorrelated": 3820,
      "Ġsubstrates": 3821,
      "Ġamount": 3822,
      "Ġtoget": 3823,
      "Ġtogether": 3824,
      "Ġthermod": 3825,
      "ĠPC": 3826,
      "rig": 3827,
      "ĠLaboratory": 3828,
      "Ġlocated": 3829,
      "Nb": 3830,
      "ĠGaussian": 3831,
      "Ġcuprates": 3832,
      "ĠCenter": 3833,
      "vent": 3834,
      "arest": 3835,
      "Ġmes": 3836,
      "Ġsynthe": 3837,
      "thesis": 3838,
      "ĠâĬ": 3839,
      "Ġ75": 3840,
      "ubbard": 3841,
      "ĠNon": 3842,
      "af": 3843,
      "Ġodd": 3844,
      "ĠZr": 3845,
      "Ġprobability": 3846,
      "icit": 3847,
      "Ġdegree": 3848,
      "ĠĀ": 3849,
      "Ġscenari": 3850,
      "81": 3851,
      "ractive": 3852,
      "Ġpie": 3853,
      "Ġcolor": 3854,
      "CP": 3855,
      "Ġonto": 3856,
      "Mo": 3857,
      "Ġliterature": 3858,
      "Ġget": 3859,
      "Ġquasiparticle": 3860,
      "ission": 3861,
      "ĠZhou": 3862,
      "................": 3863,
      "Ġcomputational": 3864,
      "rystalline": 3865,
      "ï¿½": 3866,
      "Ġpock": 3867,
      "Ġamb": 3868,
      "ĠZe": 3869,
      "Ġwind": 3870,
      "DE": 3871,
      "scale": 3872,
      "Ġboundaries": 3873,
      "Ġill": 3874,
      "ada": 3875,
      "Ġtriang": 3876,
      "Ãģ": 3877,
      "hip": 3878,
      "Ġoptimal": 3879,
      "Ġeasi": 3880,
      "Ġcubic": 3881,
      "Ġcapture": 3882,
      "Ġdifferences": 3883,
      "Ġenc": 3884,
      "Ġtrend": 3885,
      "ĠEr": 3886,
      "Ġoscillations": 3887,
      "ĠRF": 3888,
      "ĠTwo": 3889,
      "ĠNd": 3890,
      "Ġadsor": 3891,
      "NN": 3892,
      "vities": 3893,
      "Ġshowed": 3894,
      "Ge": 3895,
      "ĠZhao": 3896,
      "ĠPd": 3897,
      "ïĢ": 3898,
      "ĠTak": 3899,
      "ĠFM": 3900,
      "TO": 3901,
      "Ġinternal": 3902,
      "frequency": 3903,
      "Ġtraining": 3904,
      "Ġ104": 3905,
      "eler": 3906,
      "ayered": 3907,
      "Ġlearning": 3908,
      "wise": 3909,
      "Ġexam": 3910,
      "Ġplatform": 3911,
      "hole": 3912,
      "Ġpulses": 3913,
      "Ġnodal": 3914,
      "Ġangles": 3915,
      "Ġmel": 3916,
      "ĠTs": 3917,
      "ohn": 3918,
      "Î¨": 3919,
      "Ġeigenval": 3920,
      "Ġaris": 3921,
      "Ġmid": 3922,
      "rary": 3923,
      "Ġseparation": 3924,
      "ĠLin": 3925,
      "Ġatten": 3926,
      "Ġspec": 3927,
      "ste": 3928,
      "Ġcoherent": 3929,
      "ube": 3930,
      "Ġalloy": 3931,
      "Ġstabil": 3932,
      "Ġalgorithm": 3933,
      "Ġalways": 3934,
      "ðĿĳŁ": 3935,
      "ols": 3936,
      "Ġrepresentation": 3937,
      "2007": 3938,
      "Ġcharacterization": 3939,
      "Ġannealing": 3940,
      "Ġinterp": 3941,
      "Ġdescription": 3942,
      "Ġmechanisms": 3943,
      "Ġregard": 3944,
      "PES": 3945,
      "Ġdamp": 3946,
      "ĠMHz": 3947,
      "Ġconnected": 3948,
      "ĠZhu": 3949,
      "Ġâĸ": 3950,
      "ĠHz": 3951,
      "iles": 3952,
      "Ġtransverse": 3953,
      "Ġreduce": 3954,
      "ĠSoc": 3955,
      "Ġplasma": 3956,
      "Ġbehaviour": 3957,
      "Ġrecord": 3958,
      "ometry": 3959,
      "ĥĹ": 3960,
      "ications": 3961,
      "Ġadvant": 3962,
      "ript": 3963,
      "Ġdiffus": 3964,
      "Ġtechn": 3965,
      "ense": 3966,
      "ĠðĿĳĳ": 3967,
      "Ġpack": 3968,
      "ask": 3969,
      "chanical": 3970,
      "ĠProg": 3971,
      "yz": 3972,
      "Ġdefine": 3973,
      "Ġimped": 3974,
      "Ġchannels": 3975,
      "ĠSub": 3976,
      "Ġ99": 3977,
      "Ġcaused": 3978,
      "Ġrobust": 3979,
      "Ġinteresting": 3980,
      "Ġtend": 3981,
      "Ġĕ": 3982,
      "Ġidentical": 3983,
      "NA": 3984,
      "ĠPo": 3985,
      "Ġnumbers": 3986,
      "Ġintegration": 3987,
      "Ġhighest": 3988,
      "cta": 3989,
      "Ġdiffic": 3990,
      "pid": 3991,
      "Ġdomains": 3992,
      "Ġmainly": 3993,
      "Ġfuture": 3994,
      "Ġlife": 3995,
      "Ġholes": 3996,
      "Ġ43": 3997,
      "Ġleast": 3998,
      "Ġinstead": 3999,
      "DF": 4000,
      "SO": 4001,
      "ached": 4002,
      "Ġsequ": 4003,
      "Ġtuning": 4004,
      "Ġmoments": 4005,
      "âĢĶ": 4006,
      "Ġthird": 4007,
      "Ġoften": 4008,
      "ĠDC": 4009,
      "Ġinvariant": 4010,
      "Ġillustrated": 4011,
      "reev": 4012,
      "Ġideal": 4013,
      "Ġisol": 4014,
      "Ġfermions": 4015,
      "iy": 4016,
      "ride": 4017,
      "ĠInte": 4018,
      "andau": 4019,
      "Ġexciton": 4020,
      "Ġmajor": 4021,
      "Ġrepe": 4022,
      "Ġamong": 4023,
      "Ġdeposited": 4024,
      "site": 4025,
      "Ġdensities": 4026,
      "Ġcru": 4027,
      "Ġnanos": 4028,
      "Ġordering": 4029,
      "oriz": 4030,
      "mediate": 4031,
      "Ġă": 4032,
      "Ġunderstanding": 4033,
      "ĠDue": 4034,
      "ishing": 4035,
      "Ġlith": 4036,
      "consist": 4037,
      "Ġpic": 4038,
      "Ġcompare": 4039,
      "Ġ44": 4040,
      "Ġinfin": 4041,
      "ama": 4042,
      "por": 4043,
      "wh": 4044,
      "ĠCl": 4045,
      "static": 4046,
      "rite": 4047,
      "TiO": 4048,
      "Ġrefer": 4049,
      "spin": 4050,
      "ef": 4051,
      "Ġthough": 4052,
      "ĠMaterial": 4053,
      "Ġtypically": 4054,
      "DOS": 4055,
      "ĠPaul": 4056,
      "RL": 4057,
      "umption": 4058,
      "Ġfast": 4059,
      "Ġbandwidth": 4060,
      "Ġdominant": 4061,
      "cei": 4062,
      "Ġplaced": 4063,
      "gence": 4064,
      "Ġlonger": 4065,
      "Ġ2017": 4066,
      "Ġfluid": 4067,
      "/(": 4068,
      "Ġkz": 4069,
      "Ġphenomena": 4070,
      "Ġhaving": 4071,
      "lier": 4072,
      "Ġreconst": 4073,
      "PE": 4074,
      "ĠNV": 4075,
      "93": 4076,
      "ĠĂ": 4077,
      "Ġoxid": 4078,
      "Ġdenotes": 4079,
      "ĠEl": 4080,
      "Ġ105": 4081,
      "Ġnovel": 4082,
      "col": 4083,
      "Ġspins": 4084,
      "Ġgaps": 4085,
      "ĠWeyl": 4086,
      "Ġrapid": 4087,
      "Ġdone": 4088,
      "Ġinverse": 4089,
      "Ġfiber": 4090,
      "92": 4091,
      ".(": 4092,
      "Ġpromis": 4093,
      "Ġmobility": 4094,
      "Ġnanowire": 4095,
      "RS": 4096,
      "Ġselected": 4097,
      "arily": 4098,
      "pite": 4099,
      "Ġbandgap": 4100,
      "Ġcentral": 4101,
      "Ġwid": 4102,
      "Ġdipole": 4103,
      "Ġalloys": 4104,
      "cope": 4105,
      "ki": 4106,
      "Ġarg": 4107,
      "Ġtakes": 4108,
      "Ġ48": 4109,
      "Ġscales": 4110,
      "Ġkinetic": 4111,
      "ĠðĿĳĽ": 4112,
      "Ġexplicit": 4113,
      "trivial": 4114,
      "Ġdeviation": 4115,
      "cos": 4116,
      "dle": 4117,
      "edom": 4118,
      "Ġsuccess": 4119,
      "2006": 4120,
      "Ġfav": 4121,
      "wa": 4122,
      "che": 4123,
      "Ġseg": 4124,
      "ashi": 4125,
      "ðĿĳĿ": 4126,
      "kin": 4127,
      "dis": 4128,
      "elastic": 4129,
      "vered": 4130,
      "Ġmirror": 4131,
      "Ġaway": 4132,
      "SION": 4133,
      "Ġcrack": 4134,
      "Ġgrating": 4135,
      "Ġdisco": 4136,
      "IR": 4137,
      "Ġenough": 4138,
      "Ġsets": 4139,
      "Ġns": 4140,
      "ĠWa": 4141,
      "Ġsummar": 4142,
      "inter": 4143,
      "Ġamorph": 4144,
      "Ġproperty": 4145,
      "Ġanalytical": 4146,
      "com": 4147,
      "ĠFran": 4148,
      "Ġvectors": 4149,
      "ĠAddition": 4150,
      "Ġbinding": 4151,
      "iao": 4152,
      "Ġqualit": 4153,
      "Ġanalog": 4154,
      "Ġproximity": 4155,
      "Ġperfect": 4156,
      "Ġei": 4157,
      "ocal": 4158,
      "Ġexistence": 4159,
      "rystal": 4160,
      "pecially": 4161,
      "PR": 4162,
      "Ġferrom": 4163,
      "orizon": 4164,
      "ĠBoth": 4165,
      "Ġcapacity": 4166,
      "Ġpenet": 4167,
      "Ġdiagonal": 4168,
      "Ġmap": 4169,
      "Ġdesigned": 4170,
      "ei": 4171,
      "Ġsimpli": 4172,
      "ett": 4173,
      "Ġconsequ": 4174,
      "Ġpers": 4175,
      "Ġparam": 4176,
      "Ġoriginal": 4177,
      "ned": 4178,
      "Ġmakes": 4179,
      "Ġcomparable": 4180,
      "Ġwhat": 4181,
      "Ġevidence": 4182,
      "fully": 4183,
      "eres": 4184,
      "ooth": 4185,
      "Ġcontent": 4186,
      "rors": 4187,
      "Ġantiferromagnetic": 4188,
      "Ġtransmit": 4189,
      "eter": 4190,
      "Ġsensitive": 4191,
      "Ġalthough": 4192,
      "pr": 4193,
      "dual": 4194,
      "Ġtensor": 4195,
      "Ġidentified": 4196,
      "âŁ©": 4197,
      "Ġfreedom": 4198,
      "Ġ2016": 4199,
      "Ġdevelopment": 4200,
      "kB": 4201,
      "Ġmedium": 4202,
      ")(": 4203,
      "Ġri": 4204,
      "Ġï¿½": 4205,
      "py": 4206,
      "Ġ41": 4207,
      "Ġpowder": 4208,
      "Ġpolarized": 4209,
      "vated": 4210,
      "itz": 4211,
      "Ëľ": 4212,
      "Ġconclusion": 4213,
      "Ġconversion": 4214,
      "Ġidentify": 4215,
      "tle": 4216,
      "Ġdriving": 4217,
      "Ġintegral": 4218,
      "Ġps": 4219,
      "Ġproduct": 4220,
      "Ġprepared": 4221,
      "bi": 4222,
      "with": 4223,
      "Ł¨": 4224,
      "phys": 4225,
      "Ġnecessary": 4226,
      "ĠShen": 4227,
      "Ġworks": 4228,
      "ĠÎ¼m": 4229,
      "Ġmixed": 4230,
      "cor": 4231,
      "Ġisotrop": 4232,
      "Ġepit": 4233,
      "Ġstatis": 4234,
      "Ġcurv": 4235,
      "Ġfollowed": 4236,
      "ĠïĢ«": 4237,
      "Ġsemimet": 4238,
      "Ġjust": 4239,
      "Ġdetected": 4240,
      "Ġring": 4241,
      "Ġexplained": 4242,
      "ĠAccording": 4243,
      "Ġgenerally": 4244,
      "ino": 4245,
      "SE": 4246,
      "Ġimplies": 4247,
      "Ġsimultaneous": 4248,
      "ns": 4249,
      "ĠIntro": 4250,
      "ĠEg": 4251,
      "ĠðĿĳĺ": 4252,
      "ĠMO": 4253,
      "Ġdatas": 4254,
      "alc": 4255,
      "aka": 4256,
      "ligible": 4257,
      "ropy": 4258,
      "semb": 4259,
      "ĠCuO": 4260,
      "Ġ47": 4261,
      "Ġsuppressed": 4262,
      "Ġuseful": 4263,
      "auge": 4264,
      "Ġlast": 4265,
      "ĠFound": 4266,
      "ĠThey": 4267,
      "Ġunique": 4268,
      "Ġinterlayer": 4269,
      "hematic": 4270,
      "Ġrealized": 4271,
      "Ġaccurate": 4272,
      "Ġadv": 4273,
      "ware": 4274,
      "strum": 4275,
      "Ġimaginary": 4276,
      "sized": 4277,
      "Ġconsists": 4278,
      "Ġprediction": 4279,
      "Ġveri": 4280,
      "Ġfilter": 4281,
      "Ġincor": 4282,
      "Ġsuggest": 4283,
      "Ġspon": 4284,
      "ĠRecent": 4285,
      "Ġcounter": 4286,
      "ĠHubbard": 4287,
      "ĠSiO": 4288,
      "inement": 4289,
      "Ġlosses": 4290,
      "Ġcros": 4291,
      "atch": 4292,
      "Ġmov": 4293,
      "Ġparts": 4294,
      "Ġcombined": 4295,
      "tz": 4296,
      "entially": 4297,
      "Ġclassical": 4298,
      "ida": 4299,
      "%,": 4300,
      "free": 4301,
      "91": 4302,
      "mod": 4303,
      "Ġapplying": 4304,
      "ĠScho": 4305,
      "Ġ55": 4306,
      "Ġconclu": 4307,
      "Ġfitted": 4308,
      "tron": 4309,
      "ĠâĪĨ(": 4310,
      "Ġantenna": 4311,
      "DA": 4312,
      "SM": 4313,
      "Ġoptimized": 4314,
      "Ġpossibility": 4315,
      "Ġpromising": 4316,
      "Ġplanes": 4317,
      "Ġ2021": 4318,
      "stration": 4319,
      "Ġpop": 4320,
      "Ġones": 4321,
      "ðĿĲ¸": 4322,
      "Ġnearest": 4323,
      "Ġcand": 4324,
      "Ġarbit": 4325,
      "Ġinduct": 4326,
      "pper": 4327,
      "Ġchalleng": 4328,
      "Ġeasily": 4329,
      "Ġreport": 4330,
      "Ġagainst": 4331,
      "Ġprac": 4332,
      "Ġinstance": 4333,
      "ĠTheory": 4334,
      "dx": 4335,
      "Ġru": 4336,
      "anov": 4337,
      "Ġcommun": 4338,
      "tition": 4339,
      "Ġdistor": 4340,
      "ĠTherm": 4341,
      "Ġambient": 4342,
      "Ġ600": 4343,
      "Ġconfirm": 4344,
      "Ġtem": 4345,
      "Ġni": 4346,
      "ðĿĳĵ": 4347,
      "ĠRo": 4348,
      "Ġinsulating": 4349,
      "anding": 4350,
      "facial": 4351,
      "xit": 4352,
      "local": 4353,
      "Ġhelp": 4354,
      "DM": 4355,
      "latexit": 4356,
      "ĠðĿĲ¸": 4357,
      "ĠInde": 4358,
      "ĠPark": 4359,
      "Ġmetam": 4360,
      "Ġclassi": 4361,
      "Ġtriplet": 4362,
      "Ġmodified": 4363,
      "Ġcurvature": 4364,
      "agnetism": 4365,
      "Ġglo": 4366,
      "ĠPress": 4367,
      "Ġgenerate": 4368,
      "rich": 4369,
      "Ġclean": 4370,
      "Ġ250": 4371,
      "rams": 4372,
      "rared": 4373,
      "Ġcomplete": 4374,
      "ĠMicro": 4375,
      "ancies": 4376,
      "amb": 4377,
      "Ġprinciple": 4378,
      "ĠComput": 4379,
      "bed": 4380,
      "Ġtransi": 4381,
      "lope": 4382,
      "ïĥ": 4383,
      "stein": 4384,
      "CL": 4385,
      "Ġmac": 4386,
      "mal": 4387,
      "Ġbonds": 4388,
      "Ġpotentials": 4389,
      "Cr": 4390,
      "Ġlet": 4391,
      "Ġrenormal": 4392,
      "Ġsubst": 4393,
      "Ġcorrection": 4394,
      "=\"": 4395,
      "Ġmorph": 4396,
      "rist": 4397,
      "Ġmatter": 4398,
      "Ġdrive": 4399,
      "âĨĴ": 4400,
      "acting": 4401,
      "rices": 4402,
      "Ġreduces": 4403,
      "Ġcandid": 4404,
      "ĠCont": 4405,
      "ĠðĿĳ¡": 4406,
      "Ġincluded": 4407,
      "Ġrelationship": 4408,
      "âĸ": 4409,
      "Ġstrate": 4410,
      "Ġimpurities": 4411,
      "Ġste": 4412,
      "Ġsymmetries": 4413,
      "Ġimpedance": 4414,
      "Ġdim": 4415,
      "Ġintermediate": 4416,
      "iton": 4417,
      "Ġmodulus": 4418,
      "sub": 4419,
      "GA": 4420,
      "bil": 4421,
      "Ġ95": 4422,
      "Ġ110": 4423,
      "avy": 4424,
      "Ġchoice": 4425,
      "Ġheterostructures": 4426,
      "ĠSa": 4427,
      "cule": 4428,
      "Ġsuit": 4429,
      "Ġintroduce": 4430,
      "ĠExperimental": 4431,
      "ĠMor": 4432,
      "Ġgrid": 4433,
      "Ġcyl": 4434,
      "ower": 4435,
      "Ġwhether": 4436,
      "Ġdecreasing": 4437,
      "ĠAndreev": 4438,
      "ĠBased": 4439,
      "ologies": 4440,
      "ĠWat": 4441,
      "Ġdegrees": 4442,
      "Ġ46": 4443,
      "Ġrepresented": 4444,
      "Ġtex": 4445,
      "Ġprocessing": 4446,
      "Ġplots": 4447,
      "Br": 4448,
      "Ġplay": 4449,
      "Ġsynthesis": 4450,
      "zing": 4451,
      "Ġblock": 4452,
      "ðĿĳ§": 4453,
      "Ġusually": 4454,
      "ruc": 4455,
      "ordered": 4456,
      "ĠPhoton": 4457,
      "Ġevaluated": 4458,
      "Ġcontains": 4459,
      "amples": 4460,
      "Ġtil": 4461,
      "ĠData": 4462,
      "Ġnanoparticles": 4463,
      "Ġ(âĪĨ": 4464,
      "Ġisotropic": 4465,
      "Ġamplitudes": 4466,
      "Ġity": 4467,
      "ĠPre": 4468,
      "hedral": 4469,
      "ciprocal": 4470,
      "entific": 4471,
      "Ġquite": 4472,
      "Ġplanar": 4473,
      "Ġnetic": 4474,
      "Ġdeep": 4475,
      "Ġmeas": 4476,
      "ront": 4477,
      "Ġ101": 4478,
      "Ġmetasurface": 4479,
      "eman": 4480,
      "Ġprofiles": 4481,
      "Ġamorphous": 4482,
      "Ġgroups": 4483,
      "Ġgauge": 4484,
      "Ġmicros": 4485,
      "mark": 4486,
      "Ġ115": 4487,
      "ĠGB": 4488,
      "tran": 4489,
      "Ġmentioned": 4490,
      "Ġ106": 4491,
      "ashba": 4492,
      "ĠJiang": 4493,
      "conventional": 4494,
      "Ġrecomb": 4495,
      "herent": 4496,
      "Ġslope": 4497,
      "ji": 4498,
      "ðĿĳĻ": 4499,
      "Ġ77": 4500,
      "Ġinh": 4501,
      "inity": 4502,
      "Ġgreat": 4503,
      "ĠOptical": 4504,
      "Ġdamping": 4505,
      "Ġharmonic": 4506,
      "ellow": 4507,
      "Ġneeded": 4508,
      "Ġcomplet": 4509,
      "Ġsensor": 4510,
      "Ġdepicted": 4511,
      "Ġdots": 4512,
      "Ġpub": 4513,
      "Ġwhole": 4514,
      "Ġcircular": 4515,
      "ker": 4516,
      "ĠIr": 4517,
      "Ġdepending": 4518,
      "ĠIntroduction": 4519,
      "Ġultr": 4520,
      "Ġ)/": 4521,
      "ĠPM": 4522,
      "Ġpartial": 4523,
      "ĠQD": 4524,
      "Ġiss": 4525,
      "QUID": 4526,
      "Ġremain": 4527,
      "Ġrepul": 4528,
      ")-(": 4529,
      "Ġorganic": 4530,
      "Ġsizes": 4531,
      "Ġconfirmed": 4532,
      "Ġï¬": 4533,
      "Ġwindow": 4534,
      "âĢĲ": 4535,
      "Ġuncertain": 4536,
      "Ġplace": 4537,
      "dire": 4538,
      "ept": 4539,
      "Ġcontaining": 4540,
      "ĠAND": 4541,
      "2004": 4542,
      "aging": 4543,
      "Ġensure": 4544,
      "ĠFoundation": 4545,
      "Ġelec": 4546,
      "Ġforces": 4547,
      "Ba": 4548,
      "Ġdistributions": 4549,
      "Ġhold": 4550,
      "(âĪĴ": 4551,
      "Ġtre": 4552,
      "ĠFer": 4553,
      "enn": 4554,
      "ĠWil": 4555,
      "Ġnegligible": 4556,
      "ichi": 4557,
      "apan": 4558,
      "raw": 4559,
      "AT": 4560,
      "Ġproduced": 4561,
      "Ġ85": 4562,
      "Ġdark": 4563,
      "Ġdifferential": 4564,
      "ected": 4565,
      "Ġconstit": 4566,
      "mic": 4567,
      "Ġelectroly": 4568,
      "usc": 4569,
      "Ġjump": 4570,
      "ĠSuperconductivity": 4571,
      "Fs": 4572,
      "ðĿĳĨ": 4573,
      "Ġï£¶": 4574,
      "Ġdoi": 4575,
      "Ġcompletely": 4576,
      "ĠKey": 4577,
      "han": 4578,
      "Ġcoil": 4579,
      "Ġplastic": 4580,
      "orbital": 4581,
      "Ġ102": 4582,
      "ðĿľĶ": 4583,
      "ĠMethods": 4584,
      "Ġavoid": 4585,
      "ants": 4586,
      "Ġfeed": 4587,
      "Ġespecially": 4588,
      "Ġmatrices": 4589,
      "Ġ103": 4590,
      "vin": 4591,
      "ĠMD": 4592,
      "Ġ2015": 4593,
      "ragonal": 4594,
      "abe": 4595,
      "fically": 4596,
      "Ġtreatment": 4597,
      "Ġpass": 4598,
      "Ġstraight": 4599,
      "Ġincorpor": 4600,
      "ĠRashba": 4601,
      "Ġdenote": 4602,
      "rior": 4603,
      "ka": 4604,
      "Ġdecomp": 4605,
      "Ġhyper": 4606,
      "Ġseparated": 4607,
      "Ġsupercell": 4608,
      "Ġsmooth": 4609,
      "Ġ54": 4610,
      "ĠYan": 4611,
      "ĠmT": 4612,
      "Ġrun": 4613,
      "Ġdiver": 4614,
      "Ġnamely": 4615,
      "body": 4616,
      "Ġpy": 4617,
      "UL": 4618,
      "Ġcrit": 4619,
      "Ġtaking": 4620,
      "Ġchip": 4621,
      "ull": 4622,
      "Ġsensing": 4623,
      "alcogen": 4624,
      "Ġelectromagnetic": 4625,
      "Ġ65": 4626,
      "ification": 4627,
      "ĠVol": 4628,
      "FL": 4629,
      "Ġvibration": 4630,
      "Ġanalyzed": 4631,
      "Ġshifts": 4632,
      "Ġ800": 4633,
      "Ġmicroscopic": 4634,
      "ĠBo": 4635,
      "Ġionic": 4636,
      "Ġrevealed": 4637,
      "ĠIndeed": 4638,
      "ĠÇ«": 4639,
      "Ġsources": 4640,
      "Ġinterfacial": 4641,
      "Ġnoted": 4642,
      "Ġaddress": 4643,
      "ĠAB": 4644,
      "ĠDet": 4645,
      "resolved": 4646,
      "Ġconducting": 4647,
      "Ġchains": 4648,
      "dG": 4649,
      "enberg": 4650,
      "Ġonline": 4651,
      "Ġnanoc": 4652,
      "homb": 4653,
      "omin": 4654,
      "2005": 4655,
      "Ġemb": 4656,
      "ords": 4657,
      "ĠHan": 4658,
      "Ġï£¯": 4659,
      "burg": 4660,
      "Ġpicture": 4661,
      "ww": 4662,
      "Ġirre": 4663,
      "ĠPhase": 4664,
      "pri": 4665,
      "Ġdissipation": 4666,
      "Ġnat": 4667,
      "Ġhighlight": 4668,
      "Ġcontacts": 4669,
      "Ġordered": 4670,
      "ographic": 4671,
      "down": 4672,
      "lor": 4673,
      "Su": 4674,
      "Ġkeep": 4675,
      "ĠkB": 4676,
      "Ġpanels": 4677,
      "Ġpinning": 4678,
      "press": 4679,
      "ĠJapan": 4680,
      "reversal": 4681,
      "Ġtransl": 4682,
      "ðĿĲ¶": 4683,
      "Ġstiff": 4684,
      "Ġï£«": 4685,
      "ĠResults": 4686,
      "Ġques": 4687,
      "Ġcircles": 4688,
      "ĠKo": 4689,
      "Ġirradiation": 4690,
      "Ġtan": 4691,
      "Ġexceed": 4692,
      "ĠSpect": 4693,
      "Ġinstability": 4694,
      "ĠDu": 4695,
      "ories": 4696,
      "aster": 4697,
      "ĠImp": 4698,
      "Ġvariations": 4699,
      "ĠÎĺ": 4700,
      "Ġpix": 4701,
      "Ġ49": 4702,
      "Ġ64": 4703,
      "Ġimplemented": 4704,
      "Ġ96": 4705,
      "Ġremark": 4706,
      "itudinal": 4707,
      "Ġhexagonal": 4708,
      "Ġhost": 4709,
      "cher": 4710,
      "rays": 4711,
      "DFT": 4712,
      "hi": 4713,
      "Ġscat": 4714,
      "Ġtopology": 4715,
      "ĠðĿĴ": 4716,
      "Ġmarked": 4717,
      "Ġshell": 4718,
      "elling": 4719,
      "Ġï£º": 4720,
      "ĠCompar": 4721,
      "abilities": 4722,
      "ĠTechn": 4723,
      "Ġhot": 4724,
      "ĠLow": 4725,
      "oph": 4726,
      "ĠâĢ¢": 4727,
      "Ġmanif": 4728,
      "ĠHo": 4729,
      "Ġevapor": 4730,
      "isation": 4731,
      "Ġsignature": 4732,
      "Ġsubstan": 4733,
      "Ġseem": 4734,
      "ĠâĬĹ": 4735,
      "ours": 4736,
      "ĠÐ": 4737,
      "ĠSw": 4738,
      "ĠElectronic": 4739,
      "Ġnetworks": 4740,
      "Ġonset": 4741,
      "Ġiter": 4742,
      "Ġpredictions": 4743,
      "Ġsubstitution": 4744,
      "Ġdynamical": 4745,
      "Ġthermodynamic": 4746,
      "asy": 4747,
      "ĠUl": 4748,
      "Ġsemi": 4749,
      "Ġphotons": 4750,
      "2023": 4751,
      "Ġ2022": 4752,
      "Ġâī¥": 4753,
      "ato": 4754,
      "LED": 4755,
      "ĠMan": 4756,
      "Ġdescribes": 4757,
      "Ġinsulators": 4758,
      "particles": 4759,
      "Ġflex": 4760,
      "PM": 4761,
      "Ġproduce": 4762,
      "Ġbroken": 4763,
      "Ġfo": 4764,
      "Ġinterference": 4765,
      "Ġrecorded": 4766,
      "Ġ180": 4767,
      "ĠTopological": 4768,
      "Phys": 4769,
      "Ġport": 4770,
      "ĠÏµ": 4771,
      "Ġscenario": 4772,
      "Ġobservations": 4773,
      "Ġstage": 4774,
      "sem": 4775,
      "sover": 4776,
      "Ġnumerically": 4777,
      "ĠâĹ¦": 4778,
      "Ġoperators": 4779,
      "ares": 4780,
      "ðĿĳľ": 4781,
      "sch": 4782,
      "Ġaut": 4783,
      "Ġhyst": 4784,
      "ima": 4785,
      "Ġpredict": 4786,
      "bar": 4787,
      "Ġshap": 4788,
      "Ġcolum": 4789,
      "Ġmetamateri": 4790,
      "ĠCH": 4791,
      "orage": 4792,
      "ĠSU": 4793,
      "Ġconven": 4794,
      "Ġnet": 4795,
      "ficial": 4796,
      "Ġrecombination": 4797,
      "Ġloading": 4798,
      "Ġappropri": 4799,
      "IM": 4800,
      "SF": 4801,
      "Ġhomogeneous": 4802,
      "achine": 4803,
      "Ta": 4804,
      "Ìģ,": 4805,
      "DUC": 4806,
      "Ġacceler": 4807,
      "Ġadjust": 4808,
      "back": 4809,
      "Ġmaintain": 4810,
      "ho": 4811,
      "ui": 4812,
      "Ġcalled": 4813,
      "ĠChemical": 4814,
      "Ġcover": 4815,
      "magnetic": 4816,
      "ðĿĲ¿": 4817,
      "Ġcircuits": 4818,
      "hern": 4819,
      "ishes": 4820,
      "Ġobject": 4821,
      "Ġpiez": 4822,
      "Ġcomputation": 4823,
      "Ġactu": 4824,
      "hal": 4825,
      "ĠDO": 4826,
      "Ġarbitrary": 4827,
      "Ġrefractive": 4828,
      "ending": 4829,
      "ĠEffect": 4830,
      "Ġmolecule": 4831,
      "Ġmis": 4832,
      "AP": 4833,
      "Ġhorizon": 4834,
      "ĠARPES": 4835,
      "Ġ`": 4836,
      "ĠKe": 4837,
      "ĠðĿĳĲ": 4838,
      "Li": 4839,
      "sen": 4840,
      "Ġaction": 4841,
      "ĠBec": 4842,
      "Ġdefini": 4843,
      "Ġ63": 4844,
      "olar": 4845,
      "ĠShi": 4846,
      "Ġlayered": 4847,
      "Ġapply": 4848,
      "ïĤ": 4849,
      "Ġsure": 4850,
      "ynamics": 4851,
      "Ġimproved": 4852,
      "ĠSTM": 4853,
      "Ġsuitable": 4854,
      "ffer": 4855,
      "fill": 4856,
      "Ġcollected": 4857,
      "jected": 4858,
      "ĠMeasure": 4859,
      "Ġmixing": 4860,
      "Ġbare": 4861,
      "âĪĩ": 4862,
      "1103": 4863,
      "ĠGerm": 4864,
      "Ġsinglet": 4865,
      "__": 4866,
      "ert": 4867,
      "Ġsuppression": 4868,
      "Ġcopper": 4869,
      "Ġqubits": 4870,
      "tian": 4871,
      "Ġadded": 4872,
      "Ġfindings": 4873,
      "Ġstrateg": 4874,
      "no": 4875,
      "Ġmembrane": 4876,
      "Ġaspect": 4877,
      "Ġcoating": 4878,
      "Ġlinearly": 4879,
      "ĠâŁ©": 4880,
      "Ġcycle": 4881,
      "Ġmove": 4882,
      "Rev": 4883,
      "ciety": 4884,
      "Ġoscillation": 4885,
      "Ġbos": 4886,
      "Ġadop": 4887,
      "Ġeff": 4888,
      "Ġdislocation": 4889,
      "lications": 4890,
      "ĠOF": 4891,
      "ham": 4892,
      "ĠSchematic": 4893,
      "ĠSystem": 4894,
      "exist": 4895,
      "oron": 4896,
      "Ġtetragonal": 4897,
      "oral": 4898,
      "Ġnatural": 4899,
      "Ġdifficult": 4900,
      "Ġamplif": 4901,
      "ĠURL": 4902,
      "Ġsci": 4903,
      "ĠIN": 4904,
      "Ġexplain": 4905,
      "ĠFigures": 4906,
      "Ġmaking": 4907,
      "known": 4908,
      "ĠFE": 4909,
      "Ġsion": 4910,
      "2001": 4911,
      "Ġche": 4912,
      "ĠINT": 4913,
      "Ġtunable": 4914,
      "Ġmaps": 4915,
      "Ġ107": 4916,
      "Ġforms": 4917,
      "ĠPr": 4918,
      "ĠED": 4919,
      "heng": 4920,
      "Ġderivative": 4921,
      "ĠChang": 4922,
      "Ġabsol": 4923,
      "Ġcluster": 4924,
      "ĠMin": 4925,
      "Ġarrows": 4926,
      "Ġconsequence": 4927,
      "Ġintra": 4928,
      "rinciples": 4929,
      "Ġtexture": 4930,
      "Ġtrivial": 4931,
      "Ġmagnetism": 4932,
      "Ġ111": 4933,
      "Ġmodeling": 4934,
      "Ġgreater": 4935,
      "Ġprin": 4936,
      "Ġdiode": 4937,
      "Ġlens": 4938,
      "Ġ97": 4939,
      "ĠAlso": 4940,
      "Ġstarting": 4941,
      "Ġcomputing": 4942,
      "chemical": 4943,
      "ĠSEM": 4944,
      "ĠZeeman": 4945,
      "ĠXRD": 4946,
      "Ġengineering": 4947,
      "Ġ98": 4948,
      "Ġformal": 4949,
      "Ġresonances": 4950,
      "Ġerrors": 4951,
      "vector": 4952,
      "Ġperturbation": 4953,
      "ĠTime": 4954,
      "Ġ56": 4955,
      "ĠkHz": 4956,
      "Ġmicroscope": 4957,
      "Ġ87": 4958,
      "Ġ00": 4959,
      "Ġï£Ń": 4960,
      "Ġgrains": 4961,
      "Ġcrossover": 4962,
      "Ġmemory": 4963,
      "Ġtron": 4964,
      "Ġversion": 4965,
      "Ġ51": 4966,
      "Ġcutoff": 4967,
      "Ġnanowires": 4968,
      "ĠBel": 4969,
      "Ġquantities": 4970,
      "Ġ92": 4971,
      "Ġsaturation": 4972,
      "âī": 4973,
      "sky": 4974,
      "Ws": 4975,
      "Ġchem": 4976,
      "ĠKu": 4977,
      "izations": 4978,
      "Ġpressures": 4979,
      "Ġheavy": 4980,
      "apped": 4981,
      "Ġvariable": 4982,
      "Ġinvestigation": 4983,
      "Ġscreening": 4984,
      "HM": 4985,
      "âĹ": 4986,
      "stract": 4987,
      "ubes": 4988,
      "ĠâŁ¨": 4989,
      "lemental": 4990,
      "ĠAck": 4991,
      "bert": 4992,
      "RR": 4993,
      "ĠAdvanced": 4994,
      "Ġmicrostructure": 4995,
      "Ġfits": 4996,
      "Ġcause": 4997,
      "urfaces": 4998,
      "my": 4999,
      "va": 5000,
      "ĠSil": 5001,
      "Ġoverlap": 5002,
      "Ġcrucial": 5003,
      "Ġ)]": 5004,
      "za": 5005,
      "ĠEd": 5006,
      "Ġunderlying": 5007,
      "003": 5008,
      "dW": 5009,
      "nas": 5010,
      "Ġreco": 5011,
      "Ġoperating": 5012,
      "Ġsufficiently": 5013,
      "ĠMott": 5014,
      "ĠCON": 5015,
      "paration": 5016,
      "Ġabsolute": 5017,
      "ĠHar": 5018,
      "ffected": 5019,
      "LG": 5020,
      "idel": 5021,
      "kF": 5022,
      "Ġdegenerate": 5023,
      "ĠMart": 5024,
      "Ġfocused": 5025,
      "Ġinser": 5026,
      "Ġfail": 5027,
      "Ġ117": 5028,
      "Ġlongitudinal": 5029,
      "Ã¼": 5030,
      "Ġvalley": 5031,
      "Ġrecei": 5032,
      "Ġuntil": 5033,
      "ĠEquation": 5034,
      "we": 5035,
      "Ġye": 5036,
      "Ġareas": 5037,
      "nd": 5038,
      "Ġtight": 5039,
      "Ġsix": 5040,
      "Ġconcentrations": 5041,
      "ital": 5042,
      "Ġcomposite": 5043,
      "%.": 5044,
      "Ãħ": 5045,
      "fies": 5046,
      "Ġsituation": 5047,
      "Ġreli": 5048,
      "Ġlengths": 5049,
      "]).": 5050,
      "005": 5051,
      "cus": 5052,
      "Ġthank": 5053,
      "âĢĿ,": 5054,
      "Ġslab": 5055,
      "Ġembed": 5056,
      "Ġentropy": 5057,
      "Ġdesired": 5058,
      "Ġcriteri": 5059,
      "Ġ93": 5060,
      "Ġresidual": 5061,
      "ĠHa": 5062,
      "eresis": 5063,
      "Ġconstra": 5064,
      "ĠSociety": 5065,
      "ush": 5066,
      "Ġ52": 5067,
      "Ġpermit": 5068,
      "pin": 5069,
      "Ġï¬ģ": 5070,
      "Ġstart": 5071,
      "licity": 5072,
      "ĠSpeci": 5073,
      "Ġgold": 5074,
      "Ġsearch": 5075,
      "dri": 5076,
      "chite": 5077,
      "ĠDevic": 5078,
      "ĠAdditionally": 5079,
      "ĠGr": 5080,
      "Ġ59": 5081,
      "Ġnitrogen": 5082,
      "loch": 5083,
      "Ġpenetration": 5084,
      "Ġ113": 5085,
      "Ġexperi": 5086,
      "Ġreflected": 5087,
      "Ġspecies": 5088,
      "Ġchanging": 5089,
      "Ġstronger": 5090,
      "Ġcapacitance": 5091,
      "ĠAckn": 5092,
      "PI": 5093,
      "Ġ89": 5094,
      "Ġevery": 5095,
      "uscript": 5096,
      "servation": 5097,
      "Ġtechnology": 5098,
      "Ġ88": 5099,
      "Ġvic": 5100,
      "Ġdiffer": 5101,
      "Ġvacancy": 5102,
      "ĠâĢĿ": 5103,
      "Ġ78": 5104,
      "umines": 5105,
      "Ġcontribute": 5106,
      "ellent": 5107,
      "ensile": 5108,
      "Ġassuming": 5109,
      "Ġdistances": 5110,
      "ĠIc": 5111,
      "antly": 5112,
      "ĠBecause": 5113,
      "mail": 5114,
      "Ġparticularly": 5115,
      "ĠOh": 5116,
      "ĠChemistry": 5117,
      "tering": 5118,
      "Ġfive": 5119,
      "ĠPan": 5120,
      "Ġcontinuum": 5121,
      "rically": 5122,
      "Ġstorage": 5123,
      "ĠTheore": 5124,
      "Ġmagnon": 5125,
      "ĠModel": 5126,
      "bo": 5127,
      "ĠEach": 5128,
      "III": 5129,
      "ĠSee": 5130,
      "Ġevaluate": 5131,
      "Ġpractical": 5132,
      "Ġmixture": 5133,
      "ometric": 5134,
      "ĠTr": 5135,
      "Ġextrem": 5136,
      "Ġplasmonic": 5137,
      "conductor": 5138,
      "ĠMulti": 5139,
      "2003": 5140,
      "has": 5141,
      "Ġcomposed": 5142,
      "101": 5143,
      "Ġ|âĪĨ": 5144,
      "Ġnuclear": 5145,
      "Ġ81": 5146,
      "Ġrow": 5147,
      "Ġcorrect": 5148,
      "Ġsemiconductors": 5149,
      "Ġoxidation": 5150,
      "Ġ82": 5151,
      "theless": 5152,
      "Ġstacking": 5153,
      "fe": 5154,
      "Ġunconventional": 5155,
      "Ġgeneralized": 5156,
      "Ġrestric": 5157,
      "Ġface": 5158,
      "Ġhad": 5159,
      "ĠBerry": 5160,
      "ðĿĳĹ": 5161,
      "ĠSingle": 5162,
      "kh": 5163,
      "Ġpurp": 5164,
      "Ġfract": 5165,
      "ĠAtom": 5166,
      "Ġallowed": 5167,
      "Ġ84": 5168,
      "Ìħ": 5169,
      "Ġspot": 5170,
      "ĠïģŃ": 5171,
      "volution": 5172,
      "orn": 5173,
      "ðĿĳħ": 5174,
      "king": 5175,
      "Ġdem": 5176,
      "agome": 5177,
      "black": 5178,
      "solid": 5179,
      "ĠBal": 5180,
      "Ġ86": 5181,
      "Ġ2014": 5182,
      "cture": 5183,
      "Ġforward": 5184,
      "Ġdelay": 5185,
      "Ġlateral": 5186,
      "Ġ53": 5187,
      "Ġparity": 5188,
      "Ġspacing": 5189,
      "ĠTM": 5190,
      "eting": 5191,
      "Ġmanip": 5192,
      "Ġphenomenon": 5193,
      "Ġfilling": 5194,
      "Ġglobal": 5195,
      "ĠPBE": 5196,
      "ĠNum": 5197,
      "Ġreaches": 5198,
      "ĠHig": 5199,
      "ĠLandau": 5200,
      "Ġsupercurrent": 5201,
      "sess": 5202,
      "Ġeffectively": 5203,
      "Ġspontaneous": 5204,
      "orting": 5205,
      "ca": 5206,
      "Ïīm": 5207,
      "Ġsing": 5208,
      "ĠACS": 5209,
      "Ġcontext": 5210,
      "oltz": 5211,
      "ĠSH": 5212,
      "ĠMax": 5213,
      "Ġreveals": 5214,
      "Ġ)(": 5215,
      "Ġ57": 5216,
      "Ġarti": 5217,
      "Ġcry": 5218,
      "Ġrect": 5219,
      "ĠDo": 5220,
      "ĠmA": 5221,
      "charge": 5222,
      "Ġscan": 5223,
      "Ġstiffness": 5224,
      "Ġ108": 5225,
      "istine": 5226,
      "Ġconducted": 5227,
      "ĠNext": 5228,
      "Ġ94": 5229,
      "Ġexcellent": 5230,
      "meV": 5231,
      "Ġinfinite": 5232,
      "Col": 5233,
      "Ġ83": 5234,
      "Ã¶": 5235,
      "ĠïĢ¨": 5236,
      "mers": 5237,
      "Ġactivation": 5238,
      "ds": 5239,
      "Ġcompute": 5240,
      "ĠâĪĳ": 5241,
      "tingu": 5242,
      "Ġeasy": 5243,
      "sider": 5244,
      "ĠDI": 5245,
      "Ġlargest": 5246,
      "Ġcycles": 5247,
      "Ġlabel": 5248,
      "Ġï£¸": 5249,
      "ABLE": 5250,
      "Ġindeed": 5251,
      "ðĿĲµ": 5252,
      "UR": 5253,
      "herical": 5254,
      "oichi": 5255,
      "Ġstead": 5256,
      "Ġlocation": 5257,
      "ĠOb": 5258,
      "Ġ91": 5259,
      "Ġ74": 5260,
      "kl": 5261,
      "osing": 5262,
      "Ġaccum": 5263,
      "Ġbeams": 5264,
      "ductive": 5265,
      "Ġvoltages": 5266,
      "Ġbonding": 5267,
      "Ġhysteresis": 5268,
      "ĠConc": 5269,
      "Ġsimply": 5270,
      "Ġlinewidth": 5271,
      "Ġyet": 5272,
      "Ġdistingu": 5273,
      "ĠVal": 5274,
      "Ġadvantage": 5275,
      "rown": 5276,
      "Ġmeasuring": 5277,
      "istor": 5278,
      "Ġmapping": 5279,
      "Ġplasmon": 5280,
      "junction": 5281,
      "Ġlack": 5282,
      "Ġanalyze": 5283,
      "Ġillum": 5284,
      "ATION": 5285,
      "Ġdam": 5286,
      "Ġtensile": 5287,
      "Ġforming": 5288,
      "ĠAnother": 5289,
      "ĠïĢ©": 5290,
      "rue": 5291,
      "ication": 5292,
      "Ġexplo": 5293,
      "Ġbal": 5294,
      "Ġenables": 5295,
      "Ġassumption": 5296,
      "Ru": 5297,
      "TC": 5298,
      "ĠWatan": 5299,
      "Ġcheck": 5300,
      "gs": 5301,
      "Ġow": 5302,
      "RODUC": 5303,
      "TE": 5304,
      "Ġpristine": 5305,
      "Ġarchite": 5306,
      "ĠðĿľĶ": 5307,
      "pn": 5308,
      "ench": 5309,
      "Ġgeometric": 5310,
      "ĠAbstract": 5311,
      "Ġdisordered": 5312,
      "Ġdr": 5313,
      "Ġpron": 5314,
      "ĠðĿĳī": 5315,
      "Ġability": 5316,
      "ĠQi": 5317,
      "Ġevent": 5318,
      "top": 5319,
      "Ġla": 5320,
      "RODUCTION": 5321,
      "ĠGener": 5322,
      "uni": 5323,
      "Ġsuggested": 5324,
      "ĠSong": 5325,
      "Ġhybridization": 5326,
      "Ġtuned": 5327,
      "Ġouter": 5328,
      "ĠËĨ": 5329,
      "ĠInterest": 5330,
      "ova": 5331,
      "ĠNot": 5332,
      "Ġprior": 5333,
      "Ġextract": 5334,
      "Ġsimultaneously": 5335,
      "Ġcode": 5336,
      "ĠYam": 5337,
      "ira": 5338,
      "Ġaccoun": 5339,
      "responding": 5340,
      "Ġpost": 5341,
      "Eq": 5342,
      "Ġsatisfy": 5343,
      "Ġvacancies": 5344,
      "Ġspecim": 5345,
      "FC": 5346,
      "anti": 5347,
      "ĠTABLE": 5348,
      "Ġprojection": 5349,
      "direction": 5350,
      "ĠBu": 5351,
      "ĠBand": 5352,
      "Ġincludes": 5353,
      "Ġ58": 5354,
      "otonic": 5355,
      "Ġsetting": 5356,
      "Âµm": 5357,
      "consistent": 5358,
      "Ġinitio": 5359,
      "ĠTN": 5360,
      "ĠSing": 5361,
      "Ġ140": 5362,
      "Ġunderstood": 5363,
      "super": 5364,
      "Ġfacil": 5365,
      "XX": 5366,
      "pot": 5367,
      "Ġphotoc": 5368,
      "Ġlifetime": 5369,
      "Ġappropriate": 5370,
      "ford": 5371,
      "Ġattractive": 5372,
      "Ä±": 5373,
      "ulator": 5374,
      "Ġessential": 5375,
      "Ġexists": 5376,
      "Ġfluctuation": 5377,
      "Ġschematic": 5378,
      "Ġexplore": 5379,
      "Ġcenters": 5380,
      "PP": 5381,
      "Ġsymb": 5382,
      "ĠAnders": 5383,
      "ĠCho": 5384,
      "Ġaveraged": 5385,
      "Ġconcept": 5386,
      "Ġearlier": 5387,
      "]:": 5388,
      "Ġrig": 5389,
      "Ġestablished": 5390,
      "vo": 5391,
      "Ġpossess": 5392,
      "anni": 5393,
      "enz": 5394,
      "Ġexpressions": 5395,
      "Ġdiscrete": 5396,
      "Ġregular": 5397,
      "Ġinner": 5398,
      "Ġ2013": 5399,
      "ĠVan": 5400,
      "ĠConsider": 5401,
      "mode": 5402,
      "oni": 5403,
      "ĠChern": 5404,
      "Ġtail": 5405,
      "Ġaccomp": 5406,
      "Ġhorizontal": 5407,
      "Ġmanuscript": 5408,
      "ĠNak": 5409,
      "ĠSimilarly": 5410,
      "Ġlimits": 5411,
      "imin": 5412,
      "Ġdisplayed": 5413,
      "ĠSQUID": 5414,
      "Ġvariables": 5415,
      "Ġclusters": 5416,
      "gra": 5417,
      "OH": 5418,
      "ĠEuro": 5419,
      "Ġnode": 5420,
      "Ġret": 5421,
      "Ġillumination": 5422,
      "Ġnanot": 5423,
      "olecular": 5424,
      "Ġasymmetric": 5425,
      "appe": 5426,
      "ĠSecond": 5427,
      "ðĿĳ¦": 5428,
      "FS": 5429,
      "ĠGaN": 5430,
      "principles": 5431,
      "Ġreversal": 5432,
      "ee": 5433,
      "Ġwavelengths": 5434,
      "chang": 5435,
      "Ġneural": 5436,
      "Ġdataset": 5437,
      "Au": 5438,
      "Ġwidely": 5439,
      "active": 5440,
      "Ġpartially": 5441,
      "ĠSS": 5442,
      "Ġregimes": 5443,
      "501": 5444,
      "Zn": 5445,
      "ĠTMD": 5446,
      "ĠINTRODUCTION": 5447,
      "Ġbrid": 5448,
      "Ð¾": 5449,
      "Ġreasonable": 5450,
      "Ġgover": 5451,
      "Zr": 5452,
      "Ġitself": 5453,
      "ĠðĿĽ¼": 5454,
      "Ġstruc": 5455,
      "OT": 5456,
      "ĠðĿĳħ": 5457,
      "Ġsoftware": 5458,
      "Ġbroadening": 5459,
      "Ġbene": 5460,
      "ĠIs": 5461,
      "ÎĽ": 5462,
      "harmonic": 5463,
      "ĠIntern": 5464,
      "Ġsteady": 5465,
      "Ġinduce": 5466,
      "Ġinterval": 5467,
      "Ġ125": 5468,
      "ĠGao": 5469,
      "coupling": 5470,
      "ĠFS": 5471,
      "ĠmV": 5472,
      "ĠTB": 5473,
      "avi": 5474,
      "Ġical": 5475,
      "ĠSem": 5476,
      "reson": 5477,
      "Ġconvergence": 5478,
      "ĠCalcul": 5479,
      "Ġsynthesized": 5480,
      "ĠÎł": 5481,
      "Ġ66": 5482,
      "Ir": 5483,
      "Ġtoo": 5484,
      "lets": 5485,
      "ĠTI": 5486,
      "ĠUnder": 5487,
      "Ġdominated": 5488,
      "Ġconclude": 5489,
      "Re": 5490,
      "Ġexpand": 5491,
      "ĠMR": 5492,
      "ĠJan": 5493,
      "sed": 5494,
      "Ġhom": 5495,
      "Ġsuggesting": 5496,
      "ĠAcade": 5497,
      "ðĿĳģ": 5498,
      "osure": 5499,
      "ĠNever": 5500,
      "GM": 5501,
      "ĠGermany": 5502,
      "mos": 5503,
      "ĠAF": 5504,
      "play": 5505,
      "Ġdiv": 5506,
      "ĠRefs": 5507,
      "Ġimportance": 5508,
      "Ġpolyc": 5509,
      "Ġyears": 5510,
      "Ġminimal": 5511,
      "quet": 5512,
      "PO": 5513,
      "PhysRev": 5514,
      "CC": 5515,
      "ĠBl": 5516,
      "van": 5517,
      "ĠBas": 5518,
      "ðĿľĨ": 5519,
      "Ġactual": 5520,
      "Ġkind": 5521,
      "Ġocta": 5522,
      "Ġvanishes": 5523,
      "Ġci": 5524,
      "TF": 5525,
      "ously": 5526,
      "Ġnanostructure": 5527,
      "sequent": 5528,
      "US": 5529,
      "ĠðĿĳĸ": 5530,
      "Ġuncertainty": 5531,
      "Ġperature": 5532,
      "Ġ61": 5533,
      "Ġphotod": 5534,
      "ĠWatanabe": 5535,
      "Ġpreser": 5536,
      "Ġsolve": 5537,
      "ĠTR": 5538,
      "âĪļ": 5539,
      "Ġexcept": 5540,
      "Î±Î²": 5541,
      "Ġcharged": 5542,
      "Ġacknowledge": 5543,
      "organ": 5544,
      "Ġtwisted": 5545,
      "Ġacknowled": 5546,
      "ĠTE": 5547,
      "Ġenab": 5548,
      "Ġextremely": 5549,
      "irt": 5550,
      "ĠOpt": 5551,
      "Ġ2000": 5552,
      "Ġdenoted": 5553,
      "Ġinductance": 5554,
      "ickel": 5555,
      "Ġwalls": 5556,
      "Ġdeform": 5557,
      "Ġmi": 5558,
      "Ġspatially": 5559,
      "Ġdur": 5560,
      "Î¶": 5561,
      "Ġbeg": 5562,
      "polarized": 5563,
      "ĠTy": 5564,
      "ĠTEM": 5565,
      "Ġexcess": 5566,
      "Ġ79": 5567,
      "Ġresolved": 5568,
      "Ġquantitative": 5569,
      "ĠScientific": 5570,
      "2000": 5571,
      "EL": 5572,
      "Ġcompens": 5573,
      "Ġinterpret": 5574,
      "Ġquasiparticles": 5575,
      "Ġdt": 5576,
      "Ġbase": 5577,
      "TL": 5578,
      "Ġalignment": 5579,
      "Ġroughness": 5580,
      "Ġmelting": 5581,
      "Ġdiscussions": 5582,
      "Ġresponsible": 5583,
      "CH": 5584,
      "Ġ67": 5585,
      "ĠNMR": 5586,
      "Ġclosed": 5587,
      "1996": 5588,
      "aded": 5589,
      "Ġsheet": 5590,
      "exc": 5591,
      "Ġasymmetry": 5592,
      "sci": 5593,
      "ĠWS": 5594,
      "def": 5595,
      "Ġsurround": 5596,
      "Ġallowing": 5597,
      "arth": 5598,
      "ĠJohn": 5599,
      "tot": 5600,
      "angle": 5601,
      "metal": 5602,
      "ĠSurface": 5603,
      "cn": 5604,
      "Ġdraw": 5605,
      "Ġexten": 5606,
      "ĠJc": 5607,
      "osph": 5608,
      "ĠReg": 5609,
      "lectivity": 5610,
      "Ġdegeneracy": 5611,
      "The": 5612,
      "Ġ62": 5613,
      "ĠGrant": 5614,
      "ounced": 5615,
      "Ġcrossing": 5616,
      "Ġsequence": 5617,
      "Ġvariety": 5618,
      "Ġarchitecture": 5619,
      "Ðµ": 5620,
      "Ġbox": 5621,
      "ĠPhotonics": 5622,
      "Ġvapor": 5623,
      "ĠGraphene": 5624,
      "Ġsal": 5625,
      "ðĿĳī": 5626,
      "uminescence": 5627,
      "ĠBloch": 5628,
      "amily": 5629,
      "Ġeigenvalues": 5630,
      "Pd": 5631,
      "rentz": 5632,
      "Ġoccupied": 5633,
      "Ġcoordinates": 5634,
      "Ġcharges": 5635,
      "Ġtube": 5636,
      "Ġbl": 5637,
      "ĠGuo": 5638,
      ")),": 5639,
      "Ag": 5640,
      "foli": 5641,
      "ĠðĿĳĵ": 5642,
      "Ġsk": 5643,
      "level": 5644,
      "go": 5645,
      "Ġdop": 5646,
      "Ġbranch": 5647,
      "ĠSchool": 5648,
      "osites": 5649,
      "401": 5650,
      "Ġ114": 5651,
      "Ġunderg": 5652,
      "Ġlattices": 5653,
      "Ġadsorption": 5654,
      "ctor": 5655,
      "pon": 5656,
      "ratic": 5657,
      "ĠmK": 5658,
      "ĠEk": 5659,
      "Ġmagneto": 5660,
      "imp": 5661,
      "Ġ/(": 5662,
      "Ġsensors": 5663,
      "Ġ76": 5664,
      "Ġconfinement": 5665,
      "Ġreducing": 5666,
      "emission": 5667,
      "Ġmorphology": 5668,
      "well": 5669,
      "ĠStructure": 5670,
      "Ġconsisting": 5671,
      "DS": 5672,
      "ĠNanote": 5673,
      "amber": 5674,
      "Ġcomparing": 5675,
      "CE": 5676,
      "ulf": 5677,
      "Ġsuppress": 5678,
      "Ġepitaxial": 5679,
      "odes": 5680,
      "Ġoscillator": 5681,
      "Ġvisual": 5682,
      "Ġflakes": 5683,
      "ondon": 5684,
      "riction": 5685,
      "Ġexactly": 5686,
      "Ġalternative": 5687,
      "Ġderive": 5688,
      "ĠðĿľĩ": 5689,
      "Ġaligned": 5690,
      "iÏīn": 5691,
      "Ġinjection": 5692,
      "ĠðĿľİ": 5693,
      "oung": 5694,
      "hyl": 5695,
      "104": 5696,
      "Ġknowledge": 5697,
      "ogap": 5698,
      "Ġ2012": 5699,
      "ĠðĿľĨ": 5700,
      "bre": 5701,
      "cy": 5702,
      "Ġneeds": 5703,
      "iting": 5704,
      "NOW": 5705,
      "fast": 5706,
      "ymp": 5707,
      "Î£": 5708,
      "Ġcauses": 5709,
      "Ġnucleation": 5710,
      "ĠWaals": 5711,
      "ameters": 5712,
      "ĠNevertheless": 5713,
      "ĠRb": 5714,
      "enced": 5715,
      "ĠSuperconducting": 5716,
      "Ġmachine": 5717,
      "Ġcreated": 5718,
      "ENTS": 5719,
      "Ġisland": 5720,
      "Ġproviding": 5721,
      "Ġcoexist": 5722,
      "nov": 5723,
      "Ġvicinity": 5724,
      "inder": 5725,
      "Ġcontain": 5726,
      "Ġdiagrams": 5727,
      "ĠACK": 5728,
      "ĠField": 5729,
      "rometer": 5730,
      "Ġdid": 5731,
      "IP": 5732,
      "Ġisolated": 5733,
      "high": 5734,
      "inz": 5735,
      "ĠðĿĳģ": 5736,
      "Ġmiddle": 5737,
      "hombic": 5738,
      "Ġpronounced": 5739,
      "ĠACKNOW": 5740,
      "ĠSL": 5741,
      "Ġarrays": 5742,
      "2002": 5743,
      "ðĿľĭ": 5744,
      "zy": 5745,
      "Ġdual": 5746,
      "Ġalumin": 5747,
      "Ġetc": 5748,
      "Ġquantity": 5749,
      "Ġelectrolyte": 5750,
      ")],": 5751,
      "ior": 5752,
      "Ġaffected": 5753,
      "Ġexponential": 5754,
      ",âĪĴ": 5755,
      "Ġtheoretically": 5756,
      "ĠCNT": 5757,
      "ĠRES": 5758,
      "Ġdistortion": 5759,
      "auer": 5760,
      "Ġtrue": 5761,
      "Ġcation": 5762,
      "driven": 5763,
      "onent": 5764,
      "oresistance": 5765,
      "sively": 5766,
      "Ġremaining": 5767,
      "ĠACKNOWLED": 5768,
      "alysis": 5769,
      "Ġspecial": 5770,
      "ĠFis": 5771,
      "ĠCommunications": 5772,
      "left": 5773,
      "Ġformalism": 5774,
      "Ġ109": 5775,
      "Ġproblems": 5776,
      "iner": 5777,
      "004": 5778,
      "Ġfs": 5779,
      "Ġrespective": 5780,
      "ĠGaAs": 5781,
      "Ġchir": 5782,
      "ĠRa": 5783,
      "ĠBZ": 5784,
      "ĠNag": 5785,
      "Ġwires": 5786,
      "Ġwaveguides": 5787,
      "Ġpropose": 5788,
      "Ġoxides": 5789,
      "states": 5790,
      "ĠIR": 5791,
      "Ġsubsequent": 5792,
      "TR": 5793,
      "])": 5794,
      "gel": 5795,
      "Ġquestion": 5796,
      "phere": 5797,
      "ĠInternational": 5798,
      "agnets": 5799,
      "hl": 5800,
      "Ġlocalization": 5801,
      "DC": 5802,
      "ĠNow": 5803,
      "ibility": 5804,
      "Ġcuprate": 5805,
      "oses": 5806,
      "Color": 5807,
      "Ġattention": 5808,
      "she": 5809,
      "ori": 5810,
      "odic": 5811,
      "Ġantiferrom": 5812,
      "acent": 5813,
      "onding": 5814,
      "ĠPauli": 5815,
      "Ġtreated": 5816,
      "ĠInc": 5817,
      "Ġapparent": 5818,
      "Ġdefinition": 5819,
      "Ġwhite": 5820,
      "Ġsolids": 5821,
      "Ġmacroscopic": 5822,
      "iro": 5823,
      "ĠSiC": 5824,
      "Dated": 5825,
      "IX": 5826,
      "Ġapproximate": 5827,
      "ĠMu": 5828,
      "Ġanalys": 5829,
      "Ġshifted": 5830,
      "ĠFang": 5831,
      "Ġbelong": 5832,
      "Ġarrange": 5833,
      "SL": 5834,
      "Ġmoving": 5835,
      "tex": 5836,
      "oltage": 5837,
      "Ïµ": 5838,
      "Ġreached": 5839,
      "ĠRecently": 5840,
      "Ġsolving": 5841,
      "ondo": 5842,
      "rer": 5843,
      "ressive": 5844,
      "ĠâĢĶ": 5845,
      "asc": 5846,
      "Ġdistributed": 5847,
      "Ġsummary": 5848,
      "Ġdxy": 5849,
      "ĠðĿĳļ": 5850,
      "ĠVer": 5851,
      "Ġdich": 5852,
      "Ġpreparation": 5853,
      "Ġrepresentative": 5854,
      "Ġranging": 5855,
      "coupled": 5856,
      "Ġpockets": 5857,
      "Ġcommer": 5858,
      "Ġfru": 5859,
      "Ġexplicitly": 5860,
      "Ox": 5861,
      "Ġparent": 5862,
      "related": 5863,
      "dB": 5864,
      "ĠMonte": 5865,
      "Ġaim": 5866,
      "alyst": 5867,
      "ĠDW": 5868,
      "Ġconstrain": 5869,
      "ye": 5870,
      "ðĿĳĶ": 5871,
      "dV": 5872,
      "Ġfamily": 5873,
      "itation": 5874,
      "ĠFeng": 5875,
      "Ġcomes": 5876,
      "ĠPA": 5877,
      "Ġker": 5878,
      "Ġpore": 5879,
      "Ġpresents": 5880,
      "link": 5881,
      "oul": 5882,
      "iti": 5883,
      "duci": 5884,
      "Ġdroplet": 5885,
      "ĠTHE": 5886,
      "Ġtool": 5887,
      "Ġ68": 5888,
      "Ġseparate": 5889,
      "Ġcoordinate": 5890,
      "Ġnotice": 5891,
      "106": 5892,
      "Ġ72": 5893,
      "105": 5894,
      "103": 5895,
      "Ġcreate": 5896,
      "ĠSM": 5897,
      "Ġtriangular": 5898,
      "cs": 5899,
      "ĠFil": 5900,
      "Ġimplementation": 5901,
      "Ġvaries": 5902,
      "Ġdz": 5903,
      "urrent": 5904,
      "Ġetching": 5905,
      "ÎĶ": 5906,
      "Ġnanoscale": 5907,
      "orhombic": 5908,
      "Ġsput": 5909,
      "jective": 5910,
      "esides": 5911,
      "Ġspherical": 5912,
      "Ġ2023": 5913,
      "Ġtrig": 5914,
      "ions": 5915,
      "called": 5916,
      "Ġsolved": 5917,
      "Ġevents": 5918,
      "Ġassign": 5919,
      "Ġlook": 5920,
      "Ġbars": 5921,
      "olic": 5922,
      "Ġprom": 5923,
      "ĠkF": 5924,
      "Ġconstructed": 5925,
      "OL": 5926,
      "ĠBro": 5927,
      "Ġatmos": 5928,
      "Ġundergo": 5929,
      "equilibrium": 5930,
      "Î¼": 5931,
      "ĠSF": 5932,
      "ĠhBN": 5933,
      "ðĿĲ»": 5934,
      "Ġremov": 5935,
      "âĪ¼": 5936,
      "Ġrule": 5937,
      "ones": 5938,
      "Ġtraject": 5939,
      "Ġcoinc": 5940,
      "Ġpermittivity": 5941,
      "Ġgraphite": 5942,
      "iguchi": 5943,
      "Ġdisappe": 5944,
      "ĠChar": 5945,
      "ringer": 5946,
      "ying": 5947,
      "Ġcollective": 5948,
      "Ġdamage": 5949,
      "Ġenerge": 5950,
      "ĠðĿĲµ": 5951,
      "ĠâĦı": 5952,
      "Ġarises": 5953,
      "âĥĹ": 5954,
      "ĠFrequency": 5955,
      "vol": 5956,
      "ðĿĲ´": 5957,
      "Ġtransient": 5958,
      "ĠAcademy": 5959,
      "Ġtorque": 5960,
      "300": 5961,
      "Ġemphas": 5962,
      "uning": 5963,
      "ĠðĿĲ¼": 5964,
      "ĠAA": 5965,
      "Ġassess": 5966,
      "green": 5967,
      "Ġ112": 5968,
      "Ġloops": 5969,
      "fil": 5970,
      "stri": 5971,
      "ĠMZ": 5972,
      "ðĿĳĢ": 5973,
      "ien": 5974,
      "Ġthicknesses": 5975,
      "ĠLorentz": 5976,
      "ope": 5977,
      "where": 5978,
      "ĠRen": 5979,
      "ĠïģĦ": 5980,
      "ga": 5981,
      "RF": 5982,
      "ĠCd": 5983,
      "ĠDai": 5984,
      "ĠConsequently": 5985,
      "ams": 5986,
      "photon": 5987,
      "Ġsummarized": 5988,
      "ĠConclusion": 5989,
      "Ġfront": 5990,
      "sum": 5991,
      "ufact": 5992,
      "Ġwavefunction": 5993,
      "Ġadjacent": 5994,
      "ĠðĿĳ¥": 5995,
      ".:": 5996,
      "Ġcompression": 5997,
      "BCO": 5998,
      "Ġmill": 5999,
      "ĠðĿĳĴ": 6000,
      "density": 6001,
      "ĠBut": 6002,
      "ĠInterestingly": 6003,
      "ĠLuo": 6004,
      "Ġcolumn": 6005,
      "hil": 6006,
      "iring": 6007,
      "ramm": 6008,
      "SD": 6009,
      "ĠCondensed": 6010,
      "att": 6011,
      "Ġeq": 6012,
      "Ġmonit": 6013,
      "ĠElectro": 6014,
      "relation": 6015,
      "arities": 6016,
      "Ġ119": 6017,
      "ĠðĿĲ»": 6018,
      "Ġneutral": 6019,
      "ĠGd": 6020,
      "tios": 6021,
      "Ġexamples": 6022,
      "electronic": 6023,
      "Ġwrite": 6024,
      "ĠRy": 6025,
      "Ġ116": 6026,
      "ĠHf": 6027,
      "ĠKi": 6028,
      "Ġdemonstrates": 6029,
      "itting": 6030,
      "ander": 6031,
      "Ġelectrostatic": 6032,
      "dashed": 6033,
      "Ġunst": 6034,
      "Ġsys": 6035,
      "ĠCP": 6036,
      "Ġentang": 6037,
      "Ġrare": 6038,
      "ĠCao": 6039,
      "come": 6040,
      "Ġtional": 6041,
      "Ġfluence": 6042,
      "Ġratios": 6043,
      "ĠSupplemental": 6044,
      "Ġsphere": 6045,
      "ss": 6046,
      "Ġradial": 6047,
      "symmetric": 6048,
      "ĠVI": 6049,
      "Ġtrap": 6050,
      "ĠÃĬÃĬ": 6051,
      "ĠMC": 6052,
      "ĠâĨĳ": 6053,
      "ubov": 6054,
      "ĠDM": 6055,
      "ðĿĲ·": 6056,
      "Ġauthor": 6057,
      "mid": 6058,
      "Ġamplifier": 6059,
      "Ġ))": 6060,
      "Ġexfoli": 6061,
      "ended": 6062,
      "Ġsweep": 6063,
      "Ġenable": 6064,
      "Ġfunc": 6065,
      "Ġchamber": 6066,
      "Sr": 6067,
      "Mg": 6068,
      "aped": 6069,
      "Ġexposure": 6070,
      "ĠCan": 6071,
      "atomic": 6072,
      "ĠRT": 6073,
      "Ġmetasurfaces": 6074,
      "150": 6075,
      "Ġframe": 6076,
      "Ġput": 6077,
      "ragg": 6078,
      "itive": 6079,
      "ĠKn": 6080,
      "Ġmoti": 6081,
      "Ġfermionic": 6082,
      "Ġbody": 6083,
      "Ġthroughout": 6084,
      "ĠðĿĳİ": 6085,
      "ĠTaniguchi": 6086,
      "bilities": 6087,
      "Ġfaster": 6088,
      "ĠCheng": 6089,
      "Ġbinary": 6090,
      "Ġmatch": 6091,
      "Ġweakly": 6092,
      "Ġgapped": 6093,
      "Ġcompact": 6094,
      "Ġnontrivial": 6095,
      "ĠðĿĳĥ": 6096,
      "Ca": 6097,
      "Ġ69": 6098,
      "Ġrapidly": 6099,
      "edge": 6100,
      "Ġvib": 6101,
      "Ġchoose": 6102,
      "ĠDav": 6103,
      "Ġsections": 6104,
      "ek": 6105,
      "ĠYoung": 6106,
      "Ġqualitatively": 6107,
      "anner": 6108,
      "ĠðĿľķ": 6109,
      "Ġcare": 6110,
      "osecond": 6111,
      "Ġreconstruction": 6112,
      "Ġdc": 6113,
      "ĠAnn": 6114,
      "ref": 6115,
      "actions": 6116,
      "Ġaccess": 6117,
      "Ġslip": 6118,
      "Ġworth": 6119,
      "ĠCM": 6120,
      "Ġappearance": 6121,
      "Ġmetric": 6122,
      "Ġfracture": 6123,
      "physics": 6124,
      "âĦİ": 6125,
      "Ġprimary": 6126,
      "atz": 6127,
      "Ġdislocations": 6128,
      "Ġmesh": 6129,
      "Ġdimensionless": 6130,
      "ĠBur": 6131,
      "Ġparamagnetic": 6132,
      "Ġtwist": 6133,
      "Ġgradu": 6134,
      "ĠOver": 6135,
      "ortun": 6136,
      "ï¬Ģ": 6137,
      "010": 6138,
      "ĠMac": 6139,
      "Ġbasic": 6140,
      "ĠðĿĲ¶": 6141,
      "Ġelectrochemical": 6142,
      "urate": 6143,
      "Ġtested": 6144,
      "Ġinteracting": 6145,
      "Ġ(ïģ": 6146,
      "Ġexplored": 6147,
      "hn": 6148,
      "Ġxy": 6149,
      "Ġmostly": 6150,
      "Ġsemimetal": 6151,
      "ĠUV": 6152,
      "Ġrealization": 6153,
      "asers": 6154,
      "Ġdotted": 6155,
      "ogonal": 6156,
      "Ġpiezoelectric": 6157,
      "binding": 6158,
      "Ġorientations": 6159,
      "ĠSal": 6160,
      "Ġwafer": 6161,
      "Ġ73": 6162,
      "Ġrealize": 6163,
      "lec": 6164,
      "ï£·": 6165,
      "Ġprote": 6166,
      "Ġcommonly": 6167,
      "CLU": 6168,
      "Ġcylind": 6169,
      "abatic": 6170,
      "Ġdespite": 6171,
      "FA": 6172,
      "gener": 6173,
      "Ġassemb": 6174,
      "factor": 6175,
      "IL": 6176,
      "Ġintensities": 6177,
      "oved": 6178,
      "Ġstoichi": 6179,
      "ĠGar": 6180,
      "Ġbatter": 6181,
      "ĠAug": 6182,
      "Ġfinding": 6183,
      "Ġarticle": 6184,
      "Ġreciprocal": 6185,
      "Ġpin": 6186,
      "onses": 6187,
      "Ġhttp": 6188,
      "ferred": 6189,
      "Ġsimplicity": 6190,
      "ception": 6191,
      "Ġgeometries": 6192,
      "Ġtum": 6193,
      "Ġbending": 6194,
      "Ġacknowledges": 6195,
      "Ġreadout": 6196,
      "Ġinterplay": 6197,
      "Ġquadratic": 6198,
      "pective": 6199,
      "Ġmatching": 6200,
      "Ġfacilit": 6201,
      "St": 6202,
      "ux": 6203,
      "Ġoriented": 6204,
      "Ġkernel": 6205,
      "ĠHy": 6206,
      "ĠKondo": 6207,
      "102": 6208,
      "ulations": 6209,
      "Ġdig": 6210,
      "Ġtransferred": 6211,
      "base": 6212,
      "Ġsampling": 6213,
      "SCs": 6214,
      "Ġdisplays": 6215,
      "ĠJpn": 6216,
      "hertz": 6217,
      "Ġtrack": 6218,
      "Ġtive": 6219,
      "idal": 6220,
      "amin": 6221,
      "Ġaxes": 6222,
      "Ġissue": 6223,
      "Ġswitch": 6224,
      "Ġcompositions": 6225,
      "Ġcouplings": 6226,
      "ule": 6227,
      "Ġreports": 6228,
      "Ġevident": 6229,
      "Ġroughly": 6230,
      "ld": 6231,
      "Ġshall": 6232,
      "Ġobvious": 6233,
      "ĠCarlo": 6234,
      "Ġcandidate": 6235,
      "Ġtetra": 6236,
      "ĠRel": 6237,
      "ĠThom": 6238,
      "Ġtween": 6239,
      "shaped": 6240,
      "ition": 6241,
      "symmetry": 6242,
      "Ġsound": 6243,
      "ĠXiao": 6244,
      "Ġinterfer": 6245,
      "annier": 6246,
      "ĠdI": 6247,
      "ĠBragg": 6248,
      "car": 6249,
      "ĠPD": 6250,
      "Ġmea": 6251,
      "ĠïĤ¶": 6252,
      "etect": 6253,
      "Ġkagome": 6254,
      "Ġconstitu": 6255,
      "NS": 6256,
      "ĠPet": 6257,
      "ðĿĳı": 6258,
      "ĠðĿĽ¾": 6259,
      "EP": 6260,
      "roup": 6261,
      "ĠJJ": 6262,
      "Ġworking": 6263,
      "Ġnitride": 6264,
      "nic": 6265,
      "Ġnickel": 6266,
      "ĠDas": 6267,
      "Ġ71": 6268,
      "inf": 6269,
      "ĠPy": 6270,
      "CLUSION": 6271,
      "ĠKar": 6272,
      "ller": 6273,
      "Ġgradually": 6274,
      "402": 6275,
      "Ġrealistic": 6276,
      "Ġannealed": 6277,
      "Ġfilled": 6278,
      "ĠWen": 6279,
      "ĠðĿĲ¿": 6280,
      "Ġtemporal": 6281,
      "Ġstrip": 6282,
      "HO": 6283,
      "ĠFlo": 6284,
      "triplet": 6285,
      "Ġmol": 6286,
      "ished": 6287,
      "502": 6288,
      "Ġevaporation": 6289,
      "Ð¸": 6290,
      "uri": 6291,
      "Ġcomplic": 6292,
      "Ã¡": 6293,
      "Ġef": 6294,
      "ĠBog": 6295,
      "Ġbelie": 6296,
      "Ġ118": 6297,
      "Ġâīª": 6298,
      "orous": 6299,
      "Ġthereby": 6300,
      "Ġprecur": 6301,
      "Ġuniaxial": 6302,
      "Ġimprovement": 6303,
      "Ġpocket": 6304,
      "Ġcharacterize": 6305,
      "ĠLS": 6306,
      "Ġnanor": 6307,
      "Ġdil": 6308,
      "inger": 6309,
      "ĠEC": 6310,
      "NiO": 6311,
      "Ġprecise": 6312,
      "ĠBen": 6313,
      "Ġlithium": 6314,
      "ĠComparison": 6315,
      "HS": 6316,
      "Ġtopologically": 6317,
      "ĠNormal": 6318,
      "ĠJun": 6319,
      "temp": 6320,
      "ĠDesign": 6321,
      "semble": 6322,
      "Ġbo": 6323,
      "ĠLight": 6324,
      "Ġindices": 6325,
      "Ġprotoc": 6326,
      "ĠPoly": 6327,
      "atible": 6328,
      "Ġnonzero": 6329,
      "Ġacquired": 6330,
      "esh": 6331,
      "rystals": 6332,
      "Ġ2011": 6333,
      "ĠCA": 6334,
      "1016": 6335,
      "forward": 6336,
      "ĠÏīn": 6337,
      "Ġfavor": 6338,
      "jug": 6339,
      "Ġstret": 6340,
      "ĠZheng": 6341,
      "ĠLiang": 6342,
      "ĠDiffe": 6343,
      "versible": 6344,
      "ĠSupporting": 6345,
      "Ġpopulation": 6346,
      "tile": 6347,
      "ĠvF": 6348,
      "Ġformer": 6349,
      "bridge": 6350,
      "Ġmedi": 6351,
      "ĠmW": 6352,
      "ĠFlu": 6353,
      "assive": 6354,
      "1999": 6355,
      "Ġinfrared": 6356,
      "kz": 6357,
      "Ġ130": 6358,
      "Ġpseudogap": 6359,
      "Ġembedded": 6360,
      "ĠYuan": 6361,
      "rect": 6362,
      "Ġdescribing": 6363,
      "Ġmonolayers": 6364,
      "Ġemergence": 6365,
      "Ġinvolved": 6366,
      "Ġchallenging": 6367,
      "Ġwt": 6368,
      "Ġspread": 6369,
      "radation": 6370,
      "Ġpolycrystalline": 6371,
      "Ġsuccessfully": 6372,
      "Ġextrapol": 6373,
      "Ġmedia": 6374,
      "âĢ¦": 6375,
      "Ġarise": 6376,
      "ola": 6377,
      "Ġgrant": 6378,
      "ĠðĿľı": 6379,
      "Ġremoved": 6380,
      "Ġcentered": 6381,
      "Ġrepulsion": 6382,
      "ĠInst": 6383,
      "Ġtests": 6384,
      "Ġfine": 6385,
      "ĠEurope": 6386,
      "ĠÂµs": 6387,
      "ĠBerg": 6388,
      "Ġbeh": 6389,
      "rand": 6390,
      "125": 6391,
      "bly": 6392,
      "Ġresponses": 6393,
      "Ġarising": 6394,
      "Ġments": 6395,
      "ĠSE": 6396,
      "IB": 6397,
      "riers": 6398,
      "Ġlisted": 6399,
      "Ġoutside": 6400,
      "ĠEven": 6401,
      "Ġphosph": 6402,
      "Ġcarry": 6403,
      "ĠðĿľĢ": 6404,
      "Supp": 6405,
      "Ġmul": 6406,
      "ĠChe": 6407,
      "Ġkept": 6408,
      "Ġ05": 6409,
      "ĠâĢĻ": 6410,
      "Ġneighbor": 6411,
      "Ġseems": 6412,
      "Ġdic": 6413,
      "osa": 6414,
      "Ġexcitons": 6415,
      "uel": 6416,
      "ĠðĿĳĿ": 6417,
      "Ġonce": 6418,
      "Ġvertex": 6419,
      "Ġinduces": 6420,
      "ĠMagn": 6421,
      "ÌĤâĢł": 6422,
      "Ġskyrmions": 6423,
      "Ġcorrections": 6424,
      "ðĿĲ¼": 6425,
      "Ġstrategy": 6426,
      "Ġaccurately": 6427,
      "ĠThermal": 6428,
      "Ġexisting": 6429,
      "ĠvdW": 6430,
      "sport": 6431,
      "Ġrotational": 6432,
      "Ġacid": 6433,
      "ĠTheoretical": 6434,
      "aling": 6435,
      "ĠMT": 6436,
      "Ġcrystallographic": 6437,
      "ĠYe": 6438,
      "Ġmeta": 6439,
      "Ġhelical": 6440,
      "Ġadap": 6441,
      "Ġorthorhombic": 6442,
      "Ġintercal": 6443,
      "Ġprojected": 6444,
      "thick": 6445,
      "tance": 6446,
      "sw": 6447,
      "GS": 6448,
      "trans": 6449,
      "atives": 6450,
      "ï£¬": 6451,
      "ĠCom": 6452,
      "position": 6453,
      "Ġïģ²": 6454,
      "defined": 6455,
      "Ġsynch": 6456,
      "Ġargum": 6457,
      "ili": 6458,
      "Ġence": 6459,
      "rosymmetric": 6460,
      "ĠCONCLUSION": 6461,
      "Ġhours": 6462,
      "ovolt": 6463,
      "Ġsubtra": 6464,
      "Ġelimin": 6465,
      "ya": 6466,
      "ĠEM": 6467,
      "Ġmagnetoresistance": 6468,
      "Ġneighboring": 6469,
      "cl": 6470,
      "ðĿĳĥ": 6471,
      "Ġopto": 6472,
      "Ġthermoelectric": 6473,
      "WHM": 6474,
      "Ġspintron": 6475,
      "Ġnom": 6476,
      "Ġevaluation": 6477,
      "ĠðĿĲ´": 6478,
      "ĠShe": 6479,
      "ĠJo": 6480,
      "ĠGold": 6481,
      "Ġdetectors": 6482,
      "Ġporous": 6483,
      "Ġinvolving": 6484,
      "Ġrenormalization": 6485,
      "Ġoffset": 6486,
      "Ġ220": 6487,
      "ĠMS": 6488,
      "Ġformulation": 6489,
      "which": 6490,
      "ĠSar": 6491,
      "Ġextreme": 6492,
      "Ġdiscovery": 6493,
      "NC": 6494,
      "standing": 6495,
      "acing": 6496,
      "Ġdest": 6497,
      "Ġranges": 6498,
      "Ġprotected": 6499,
      "ĠJin": 6500,
      "ĠRuO": 6501,
      "zh": 6502,
      "ĠCurrent": 6503,
      "imer": 6504,
      "Ġtable": 6505,
      "Ġconnection": 6506,
      "Ġsides": 6507,
      "lattices": 6508,
      "Ġplays": 6509,
      "uki": 6510,
      "Ġdisplacements": 6511,
      "Ġscattered": 6512,
      "TM": 6513,
      "ĠJe": 6514,
      "Ġgiving": 6515,
      "Th": 6516,
      "Ġdetermination": 6517,
      "Ġinstrum": 6518,
      "Ġcorner": 6519,
      "Ġsingular": 6520,
      "Ġlittle": 6521,
      "Ġsha": 6522,
      "Ġutilized": 6523,
      "ĠIndi": 6524,
      "Ġinclusion": 6525,
      "ÌĤ(": 6526,
      "Ġinteger": 6527,
      "ĠSpecifically": 6528,
      "ÃŃ": 6529,
      "Ġcloser": 6530,
      "Ġconfined": 6531,
      "120": 6532,
      "ĠSyn": 6533,
      "owski": 6534,
      "Ġvibrational": 6535,
      "pre": 6536,
      "optical": 6537,
      "Ġreads": 6538,
      "ĠDespite": 6539,
      "oming": 6540,
      "ĠLondon": 6541,
      "ĠðĿĳĨ": 6542,
      "angular": 6543,
      "Ġrad": 6544,
      "Ġ160": 6545,
      "Ġij": 6546,
      "ĠFollow": 6547,
      "ĠElectrical": 6548,
      "ĠDensity": 6549,
      "ĠWei": 6550,
      "Ġminor": 6551,
      "Ġmanufact": 6552,
      "Ġactivity": 6553,
      "Ġneglect": 6554,
      "Ġinvolves": 6555,
      "hand": 6556,
      "Ġreser": 6557,
      "ĠÃģÃģ": 6558,
      "Ġmism": 6559,
      "Ġtrace": 6560,
      "ĠHal": 6561,
      "continu": 6562,
      "elli": 6563,
      "ĠAv": 6564,
      "Ġexper": 6565,
      "PER": 6566,
      "ja": 6567,
      "Ġphotoemission": 6568,
      "ðĿĳļðĿĳļ": 6569,
      "omer": 6570,
      "ĠâĪĴâĪŀ": 6571,
      "ĠYork": 6572,
      "AFM": 6573,
      "kk": 6574,
      "conductors": 6575,
      "eram": 6576,
      "perture": 6577,
      "ĠYao": 6578,
      "pair": 6579,
      "Ġ04": 6580,
      "Ġmodulated": 6581,
      "ĠEuropean": 6582,
      "hyd": 6583,
      "inations": 6584,
      "Ġconve": 6585,
      "ðĿĲ¹": 6586,
      "ĠProper": 6587,
      "osity": 6588,
      "Ġcompe": 6589,
      "Ġfa": 6590,
      "ĠIsing": 6591,
      "TD": 6592,
      "Ġsuperconduc": 6593,
      "ĠâĨĵ": 6594,
      "Ġsimplified": 6595,
      "Ġgapless": 6596,
      "Ð°": 6597,
      "ĠRi": 6598,
      "alls": 6599,
      "ĠProc": 6600,
      "Ġchirality": 6601,
      "En": 6602,
      "ĠâĥĹ": 6603,
      "lips": 6604,
      "Ġ2010": 6605,
      "Ġvaried": 6606,
      "Ġdon": 6607,
      "Ġboron": 6608,
      "ĠEs": 6609,
      "cipit": 6610,
      "eg": 6611,
      "lm": 6612,
      "ulate": 6613,
      "ĠOx": 6614,
      "................................": 6615,
      "erical": 6616,
      "Ġsystematic": 6617,
      "Ġconstraint": 6618,
      "FO": 6619,
      "ribed": 6620,
      "ĠSP": 6621,
      "Ġmoder": 6622,
      "Ġinitially": 6623,
      "Ġcr": 6624,
      "ĠEX": 6625,
      "Ġorthogonal": 6626,
      "Ġpixel": 6627,
      "hy": 6628,
      "Ġms": 6629,
      "Ġcompeting": 6630,
      "Ġdegradation": 6631,
      "Ġuniversal": 6632,
      "ircu": 6633,
      "Ġcontributed": 6634,
      "Ġincidence": 6635,
      "Ġotherwise": 6636,
      "Ġdecomposition": 6637,
      "Ġellip": 6638,
      "ĠdX": 6639,
      "Ġsupplementary": 6640,
      "ï¬ģ": 6641,
      "</": 6642,
      "Ġproduction": 6643,
      "Ġ'": 6644,
      "Ġduration": 6645,
      "ified": 6646,
      "sup": 6647,
      "ĠFund": 6648,
      "Ġobjective": 6649,
      "Ġleak": 6650,
      "Ġholds": 6651,
      "Ġgates": 6652,
      "Ġvirt": 6653,
      "Ġanomaly": 6654,
      "Ġconstraints": 6655,
      "TB": 6656,
      "Ġ014": 6657,
      "ĠDel": 6658,
      "Ġinhomogeneous": 6659,
      "FET": 6660,
      "ĠTiO": 6661,
      "istors": 6662,
      "Ġaxial": 6663,
      "Ġfluores": 6664,
      "Ġpoin": 6665,
      "ĠFollowing": 6666,
      "122": 6667,
      "RC": 6668,
      "Ġhapp": 6669,
      "ĠWol": 6670,
      "ĠOther": 6671,
      "ermitian": 6672,
      "Ġpackage": 6673,
      "Ġergy": 6674,
      "ĠBc": 6675,
      "ĠAndre": 6676,
      "Ġstripe": 6677,
      "arithm": 6678,
      "Ġprogram": 6679,
      "bel": 6680,
      "ĠSW": 6681,
      "Ġprinciples": 6682,
      "Sp": 6683,
      "107": 6684,
      "ĠðĿĳĢ": 6685,
      "Ġtures": 6686,
      "Ġducting": 6687,
      "MP": 6688,
      "rides": 6689,
      "Ġsymbols": 6690,
      "uda": 6691,
      "Ġshapes": 6692,
      "ĠMi": 6693,
      "Ġâĸł": 6694,
      "Ġattenu": 6695,
      "err": 6696,
      "alcogenides": 6697,
      "ĠRus": 6698,
      "itons": 6699,
      "ĠSample": 6700,
      "Ġhist": 6701,
      "idden": 6702,
      "Ġperforming": 6703,
      "Ġple": 6704,
      "Ġbright": 6705,
      "ĠMost": 6706,
      "Ġeigenvalue": 6707,
      "220": 6708,
      "Ġoffer": 6709,
      "Ġlasers": 6710,
      "ensurate": 6711,
      "ĠVO": 6712,
      "Ġgen": 6713,
      "ĠiÏīn": 6714,
      "Ġclosely": 6715,
      "ðĿĽ¼": 6716,
      "sin": 6717,
      "orient": 6718,
      "Ġmeaning": 6719,
      "Ġengine": 6720,
      "ĠPhysica": 6721,
      "ĠDMI": 6722,
      "SOC": 6723,
      "ĠBesides": 6724,
      "Ġpropagating": 6725,
      "Ġ700": 6726,
      "Ġtheorem": 6727,
      "voir": 6728,
      "enge": 6729,
      "ovolta": 6730,
      "Ġtal": 6731,
      "esting": 6732,
      "âĢĵâĢĵ": 6733,
      "Ġprevent": 6734,
      "ĠÂµB": 6735,
      "Ġessentially": 6736,
      "Ġcold": 6737,
      "Figure": 6738,
      "FE": 6739,
      "Ġqualitative": 6740,
      "Ġfailure": 6741,
      "yan": 6742,
      "ĠHel": 6743,
      "ijing": 6744,
      "Ġ)|": 6745,
      "size": 6746,
      "Ġdif": 6747,
      "Ġpseudo": 6748,
      "ĠIsh": 6749,
      "Ġasymp": 6750,
      "Ġtechnologies": 6751,
      "anes": 6752,
      "ĠWannier": 6753,
      "Ġradiative": 6754,
      "Ġrigid": 6755,
      "Ġcommercial": 6756,
      "TA": 6757,
      "Ġcalculating": 6758,
      "ĠAnderson": 6759,
      "atical": 6760,
      "wavelength": 6761,
      "Ġmut": 6762,
      "jo": 6763,
      "ĠDE": 6764,
      "Ġevol": 6765,
      "Ġbranches": 6766,
      "sti": 6767,
      "Ġfeedback": 6768,
      "ĠBra": 6769,
      "ĠCav": 6770,
      "Ġmultilayer": 6771,
      "109": 6772,
      "Ġpumping": 6773,
      "ĠPub": 6774,
      "iÏī": 6775,
      "otic": 6776,
      "ducti": 6777,
      "ĠÎ©": 6778,
      "Ġensemble": 6779,
      "ĠðĿĳł": 6780,
      "ĠGiven": 6781,
      "supr": 6782,
      "Ġ(|": 6783,
      "organic": 6784,
      "eda": 6785,
      "kal": 6786,
      "ĠHO": 6787,
      "ĠInstrum": 6788,
      "ĠXie": 6789,
      "Ġlimiting": 6790,
      "Ġpurely": 6791,
      "Ġinsight": 6792,
      "ysi": 6793,
      "Ġmodulator": 6794,
      "Ġpotentially": 6795,
      "aring": 6796,
      "rog": 6797,
      "Ġdetermining": 6798,
      "Oe": 6799,
      "ĠRE": 6800,
      "flow": 6801,
      "Ġbuilt": 6802,
      "orter": 6803,
      "ycomb": 6804,
      "Rh": 6805,
      "rief": 6806,
      "ĠðĿĳ§": 6807,
      "shif": 6808,
      "Ġestabl": 6809,
      "=\">": 6810,
      "ditional": 6811,
      "Ġthermally": 6812,
      "ĠXia": 6813,
      "Ġdetermines": 6814,
      "Ġintroducing": 6815,
      "Ġclassification": 6816,
      "Ġtransmitted": 6817,
      "Ġ214": 6818,
      "Ġillustrate": 6819,
      "mol": 6820,
      "Ġinvestigations": 6821,
      "1998": 6822,
      "Ġyielding": 6823,
      "beam": 6824,
      "ising": 6825,
      "ades": 6826,
      "Ġfinan": 6827,
      "||": 6828,
      "Ġcavities": 6829,
      "Ġsublattice": 6830,
      "ĠBeijing": 6831,
      "ĠProgram": 6832,
      "Ġsecondary": 6833,
      "Ġsheets": 6834,
      "Ġreflections": 6835,
      "ML": 6836,
      "ĠSk": 6837,
      "Ġestimation": 6838,
      "Ġstarts": 6839,
      "isson": 6840,
      "ĠKum": 6841,
      "ny": 6842,
      "Ġreact": 6843,
      "ĠAst": 6844,
      "Ġstatistical": 6845,
      "ĠMW": 6846,
      "ĠNA": 6847,
      "Ġequally": 6848,
      "ubble": 6849,
      "Ġdiscrep": 6850,
      "PbI": 6851,
      "Ġ06": 6852,
      "Ġagg": 6853,
      "igu": 6854,
      "Ġ350": 6855,
      "Ġmanner": 6856,
      "Ġemploying": 6857,
      "Ġpurpose": 6858,
      "fying": 6859,
      "itaev": 6860,
      "hu": 6861,
      "mented": 6862,
      "ĠTor": 6863,
      "lication": 6864,
      "ĠNC": 6865,
      "ĠiÏī": 6866,
      "strating": 6867,
      "ĠCB": 6868,
      "Ġïģ¥": 6869,
      "ĠSA": 6870,
      "Grant": 6871,
      "ĠNanos": 6872,
      "inzburg": 6873,
      "GO": 6874,
      "ĠAk": 6875,
      "ambridge": 6876,
      "Ġ||": 6877,
      "ĠMean": 6878,
      "tively": 6879,
      "versi": 6880,
      "Ġstraightforward": 6881,
      "pass": 6882,
      "arity": 6883,
      "Ġexclu": 6884,
      "abs": 6885,
      "Ġelectronics": 6886,
      "Ġflake": 6887,
      "Ġindu": 6888,
      "Ġwhy": 6889,
      "Ġusual": 6890,
      "Ġfinally": 6891,
      "Ġdispersive": 6892,
      "Ġfractional": 6893,
      "px": 6894,
      "Ġcomplexity": 6895,
      "oxide": 6896,
      "Ġlies": 6897,
      "Ġmetast": 6898,
      "ĠðĿľĥ": 6899,
      "ensitive": 6900,
      "oneycomb": 6901,
      "hire": 6902,
      "Ġcalibration": 6903,
      "Ġadhe": 6904,
      "Ġtic": 6905,
      "ĠRadi": 6906,
      "ĠHir": 6907,
      "ĠDuring": 6908,
      "ropag": 6909,
      "lim": 6910,
      "Ġdescript": 6911,
      "Ġtesting": 6912,
      "ĠXX": 6913,
      "Ġperovskites": 6914,
      "entation": 6915,
      "Ġpaths": 6916,
      "ĠNov": 6917,
      "ĠJul": 6918,
      "periodic": 6919,
      "arm": 6920,
      "Ġminutes": 6921,
      "Ġcam": 6922,
      "vectors": 6923,
      "Ġderivation": 6924,
      "ULTS": 6925,
      "Ġsubject": 6926,
      "hematical": 6927,
      "ĠZnO": 6928,
      "Ġultras": 6929,
      "chi": 6930,
      "112": 6931,
      "SH": 6932,
      "chen": 6933,
      "ĠPE": 6934,
      "ĠHong": 6935,
      "ĠEP": 6936,
      "Ġconductor": 6937,
      "Ġdesigns": 6938,
      "ats": 6939,
      "Ġfect": 6940,
      "ĠSan": 6941,
      "liash": 6942,
      "Ġneglected": 6943,
      "Ġaperture": 6944,
      "chip": 6945,
      "Ġdecreased": 6946,
      "PV": 6947,
      "FeAs": 6948,
      "ffice": 6949,
      "fit": 6950,
      "Ġbarriers": 6951,
      "feld": 6952,
      "Ġreferred": 6953,
      "MoS": 6954,
      "ĠComputational": 6955,
      "dependence": 6956,
      "cf": 6957,
      "Ġfigures": 6958,
      "ĠAmer": 6959,
      "Ġadding": 6960,
      "nikov": 6961,
      "ĠSystems": 6962,
      "gely": 6963,
      "Ġinterpol": 6964,
      "elled": 6965,
      "iii": 6966,
      "ĠNuc": 6967,
      "Ġmodeled": 6968,
      "IV": 6969,
      "Ġcompris": 6970,
      "Ġresistive": 6971,
      "Ġtin": 6972,
      "Ġhc": 6973,
      "single": 6974,
      "Ġmomenta": 6975,
      "ĠCrystal": 6976,
      "Ġdistinguish": 6977,
      ",\"": 6978,
      "Ġign": 6979,
      "Ġmig": 6980,
      "Ġspots": 6981,
      "Ġselection": 6982,
      "hai": 6983,
      "Ġchallenge": 6984,
      "oltzmann": 6985,
      "ec": 6986,
      "arse": 6987,
      "Ġreservoir": 6988,
      "ĠConsidering": 6989,
      "Ġcou": 6990,
      "Ġexception": 6991,
      "ĠGo": 6992,
      "Ls": 6993,
      "ĠTransition": 6994,
      "ĠWithin": 6995,
      "Ġcriterion": 6996,
      "ĠHF": 6997,
      "oment": 6998,
      "Ġmagnets": 6999,
      "Ġmismatch": 7000,
      "ules": 7001,
      "amura": 7002,
      "Ġïĥ·": 7003,
      "anium": 7004,
      "monics": 7005,
      "lassical": 7006,
      "ĠACKNOWLEDGM": 7007,
      "gue": 7008,
      "ĠCC": 7009,
      "ĠHg": 7010,
      "ĠExt": 7011,
      "Ġabsorb": 7012,
      "ĠCorresponding": 7013,
      "rene": 7014,
      "Ġïĥ§": 7015,
      "ceedings": 7016,
      "ĠðĿĲ·": 7017,
      "Ġexponent": 7018,
      "Ġbalance": 7019,
      "Ġlargely": 7020,
      "Ġexamine": 7021,
      "aren": 7022,
      "Ġaluminum": 7023,
      "dot": 7024,
      "Ġcreation": 7025,
      "Ġmu": 7026,
      "locks": 7027,
      "ls": 7028,
      "Ġtern": 7029,
      "ented": 7030,
      "ĠDong": 7031,
      "Ġ..": 7032,
      "Ġaccept": 7033,
      "Ġconjug": 7034,
      "ĠPhot": 7035,
      "ĠRESULTS": 7036,
      "ĠAtomic": 7037,
      "pa": 7038,
      "isely": 7039,
      "Ġoptics": 7040,
      "Ġpulsed": 7041,
      "Ġnominal": 7042,
      "Ġfold": 7043,
      "component": 7044,
      "conne": 7045,
      "Ġfocusing": 7046,
      "amoto": 7047,
      "Ġnor": 7048,
      "ĠFac": 7049,
      "Ġexplan": 7050,
      "vit": 7051,
      "Ġwords": 7052,
      "Ġ03": 7053,
      "ĠBdG": 7054,
      "apphire": 7055,
      "lant": 7056,
      "NP": 7057,
      "neighb": 7058,
      "Ġequi": 7059,
      "Ġprecipit": 7060,
      "Ġtrapping": 7061,
      "uniform": 7062,
      "ĠFan": 7063,
      "ithms": 7064,
      "ĠSingh": 7065,
      "Ġadi": 7066,
      "ĠPeng": 7067,
      "ĠID": 7068,
      "cia": 7069,
      "ĠTD": 7070,
      "Ġ02": 7071,
      "Ġbuilding": 7072,
      "Ġ(âĪ¼": 7073,
      "ĠMartin": 7074,
      "bons": 7075,
      "Ġïģ¡": 7076,
      "ĠCurie": 7077,
      "Ġlabeled": 7078,
      "TH": 7079,
      "Ġpend": 7080,
      "Ġextent": 7081,
      "Ġcorro": 7082,
      "Ġovercome": 7083,
      "Ġprecision": 7084,
      "006": 7085,
      "times": 7086,
      "Ġnp": 7087,
      "ĠYosh": 7088,
      "Ìĥ(": 7089,
      "vF": 7090,
      "Ġve": 7091,
      "Ġyellow": 7092,
      "Ġreaching": 7093,
      "Ġfibers": 7094,
      "ducible": 7095,
      "Ġbath": 7096,
      "hard": 7097,
      "Ġature": 7098,
      "Ġcouple": 7099,
      "changed": 7100,
      "0001": 7101,
      "liashberg": 7102,
      "Ð½": 7103,
      "Ġmetamaterials": 7104,
      "ĠðĿĳŁ": 7105,
      "bye": 7106,
      "Ġtanh": 7107,
      "Ġrandomly": 7108,
      "zi": 7109,
      "Ġtempera": 7110,
      "Ġdedu": 7111,
      "Ġhum": 7112,
      "atile": 7113,
      "Ġ122": 7114,
      "Ġarrangement": 7115,
      "Ġbit": 7116,
      "rot": 7117,
      "ĠTanaka": 7118,
      "eller": 7119,
      "ĠReson": 7120,
      "ĠUltra": 7121,
      "ĠDISC": 7122,
      "Ġschemes": 7123,
      "Ġreplaced": 7124,
      "bias": 7125,
      "Ġsurrounding": 7126,
      "Ġextension": 7127,
      "Ġdrops": 7128,
      "Ġrepeated": 7129,
      "Ġremarkable": 7130,
      "filled": 7131,
      "ÑĤ": 7132,
      "ĠLaser": 7133,
      "Ġï£®": 7134,
      "Ġtrained": 7135,
      "Ġlock": 7136,
      "Ġidea": 7137,
      "Ġartificial": 7138,
      "USSION": 7139,
      "ĠFre": 7140,
      "Ġnanostructures": 7141,
      "ĠOffice": 7142,
      "ading": 7143,
      "Ġphotocurrent": 7144,
      "Ġsym": 7145,
      "Ġïģ¬": 7146,
      "Ġbuffer": 7147,
      "independent": 7148,
      "Ġâİ": 7149,
      "ĠDing": 7150,
      "Ġaffects": 7151,
      "ĠOe": 7152,
      "108": 7153,
      "Ġscalar": 7154,
      "ulating": 7155,
      "Ġlogarithm": 7156,
      "ĠTH": 7157,
      "Ġunstable": 7158,
      "Ġck": 7159,
      "ĠPal": 7160,
      "gn": 7161,
      "ĠSTO": 7162,
      "Ġperme": 7163,
      "ĠAcknowledge": 7164,
      "Ġmask": 7165,
      "ĠLO": 7166,
      "iba": 7167,
      "Ġcathod": 7168,
      "Ġcomplicated": 7169,
      "Ġcatalyst": 7170,
      "Ġuses": 7171,
      "Ġjo": 7172,
      "ĠDOI": 7173,
      "Ġowing": 7174,
      "ĠDiscus": 7175,
      "Ġadopted": 7176,
      "pris": 7177,
      "ĠFur": 7178,
      "Ġinterpre": 7179,
      "Ġ[(": 7180,
      "Ġhoneycomb": 7181,
      "ĠLDOS": 7182,
      "xi": 7183,
      "ider": 7184,
      "ĠTO": 7185,
      "dew": 7186,
      "Ġextraction": 7187,
      "Ġdeviations": 7188,
      "Ġdiss": 7189,
      "Ġcomposites": 7190,
      "Ġchallenges": 7191,
      "La": 7192,
      "ened": 7193,
      "anar": 7194,
      "Ġbroadband": 7195,
      "Ġdivided": 7196,
      "Ġprimarily": 7197,
      "Ġmal": 7198,
      "ĠLC": 7199,
      "ativ": 7200,
      "Ġï£¹": 7201,
      "Ġmajority": 7202,
      "Ġsignatures": 7203,
      "Ġsulf": 7204,
      "ĠWSe": 7205,
      "Ġpolariz": 7206,
      "He": 7207,
      "Ġsubstantial": 7208,
      "Ġaccompan": 7209,
      "ĠAuth": 7210,
      "hat": 7211,
      "ĠËľ": 7212,
      "ont": 7213,
      "ille": 7214,
      "Ġproduces": 7215,
      "Ġrepresenting": 7216,
      "Ġasympto": 7217,
      "stra": 7218,
      "Ġattemp": 7219,
      "ĠInset": 7220,
      "Ġweaker": 7221,
      "Ġcations": 7222,
      "ĠðĿĲ¹": 7223,
      "ĠLif": 7224,
      "cool": 7225,
      "ĠDevice": 7226,
      "ĠDISCUSSION": 7227,
      "504": 7228,
      "Ġhetero": 7229,
      "âĹı": 7230,
      "ĠEL": 7231,
      "Ġrelaxed": 7232,
      "BA": 7233,
      "Ġperiodicity": 7234,
      "Ġphotodetect": 7235,
      "Ġparametric": 7236,
      "ĠExpress": 7237,
      "Ġtemper": 7238,
      "ĠTang": 7239,
      "Ġearly": 7240,
      "Ġindirect": 7241,
      "ĠGinzburg": 7242,
      "An": 7243,
      "oci": 7244,
      "Ġshorter": 7245,
      "Ġfore": 7246,
      "ĠFunction": 7247,
      "ĠHart": 7248,
      "aff": 7249,
      "rehen": 7250,
      "ðĿĳŀ": 7251,
      "Ġstrengths": 7252,
      "Ġminima": 7253,
      "surface": 7254,
      "1038": 7255,
      "Ġconductors": 7256,
      "Ġturns": 7257,
      "Ġcondensed": 7258,
      "doping": 7259,
      "layers": 7260,
      "ĠMed": 7261,
      "Ġ235": 7262,
      "Ġresist": 7263,
      "rences": 7264,
      "ilayer": 7265,
      "Ġmoun": 7266,
      "PG": 7267,
      "ĠAM": 7268,
      "ĠDiscussion": 7269,
      "ras": 7270,
      "ĠGre": 7271,
      "Ġabsent": 7272,
      "Ġreliable": 7273,
      "Ġdy": 7274,
      "ĠkeV": 7275,
      "ĠThree": 7276,
      "503": 7277,
      "Ġexposed": 7278,
      "print": 7279,
      "Ġice": 7280,
      "ises": 7281,
      "Ġultrafast": 7282,
      "Ġpercent": 7283,
      "Ġbreaks": 7284,
      "Ġinelastic": 7285,
      "ĠStra": 7286,
      "ĠFar": 7287,
      "ĠProceedings": 7288,
      ")[": 7289,
      "rd": 7290,
      "Ġmer": 7291,
      "nia": 7292,
      "exp": 7293,
      "ĠChu": 7294,
      "Ġhypot": 7295,
      "ĠPerdew": 7296,
      "Ġblocks": 7297,
      "1997": 7298,
      "sivity": 7299,
      "ðĿľĩ": 7300,
      "Ġbubble": 7301,
      "ctors": 7302,
      "Ġ224": 7303,
      "ĠSato": 7304,
      "Ġ)âĪĴ": 7305,
      "Ġfrag": 7306,
      "Ġlocally": 7307,
      "Ġcaptured": 7308,
      "shell": 7309,
      "Ġantic": 7310,
      "Ġvon": 7311,
      "ĠBaFe": 7312,
      "Ġsquares": 7313,
      "Ġmembranes": 7314,
      "âĢ¦âĢ¦": 7315,
      "BC": 7316,
      "ĠâĬ¥": 7317,
      "Ġmodification": 7318,
      "rink": 7319,
      "ĠAmong": 7320,
      "ĠPoisson": 7321,
      "ĠInstead": 7322,
      "NH": 7323,
      "from": 7324,
      "adily": 7325,
      "Ġdry": 7326,
      "linic": 7327,
      "Ġcylindrical": 7328,
      "situ": 7329,
      "ĠDire": 7330,
      "Ġconstruction": 7331,
      "ĠMag": 7332,
      "Ġlogical": 7333,
      "alytic": 7334,
      "ĠGh": 7335,
      "Ġfinancial": 7336,
      "pressure": 7337,
      "Ġrectangular": 7338,
      "ĠSome": 7339,
      "ael": 7340,
      "Ġanharmonic": 7341,
      "Ġtors": 7342,
      "1994": 7343,
      "Ġveloci": 7344,
      "Ġlocations": 7345,
      "ĠSrTiO": 7346,
      "ogenic": 7347,
      "IF": 7348,
      "Ġderivatives": 7349,
      "ï¿½ï¿½": 7350,
      "ĠPressure": 7351,
      "OM": 7352,
      "Ġunknown": 7353,
      "Ġunitary": 7354,
      "vere": 7355,
      "Ġreproduce": 7356,
      "Ġadvanced": 7357,
      "Ġ2009": 7358,
      "aturally": 7359,
      "EA": 7360,
      "Ġinherent": 7361,
      "Ġvolum": 7362,
      "artz": 7363,
      "idelity": 7364,
      "Ġheli": 7365,
      "mi": 7366,
      "Ġanni": 7367,
      "ĠðĿľĮ": 7368,
      "ĠTun": 7369,
      "Ġphotol": 7370,
      "ochastic": 7371,
      "ĠDebye": 7372,
      "Ġoperations": 7373,
      "Ġstatistics": 7374,
      "Ġscience": 7375,
      "enko": 7376,
      "Ġâĭ": 7377,
      "termin": 7378,
      "Ġintegr": 7379,
      "Ġcandidates": 7380,
      "Ġnanotubes": 7381,
      "mn": 7382,
      "Ġnanoparticle": 7383,
      "Ġ(ď": 7384,
      "ĠRH": 7385,
      "Ġletters": 7386,
      "Ġrew": 7387,
      "ĠMPa": 7388,
      "ĠYBa": 7389,
      "imental": 7390,
      "ĠStates": 7391,
      "ĠâĦİ": 7392,
      "Ġmetastable": 7393,
      "Ġheated": 7394,
      "Ġclasses": 7395,
      "Ġnaturally": 7396,
      "Ġmultip": 7397,
      "spe": 7398,
      "Ġreactions": 7399,
      "Ġfeas": 7400,
      "TIC": 7401,
      "Ġmar": 7402,
      "ĠMay": 7403,
      "Ġgeneric": 7404,
      "Ġgran": 7405,
      "Ġspectrometer": 7406,
      "Ġcollection": 7407,
      "Ġconfirms": 7408,
      "ĠKaw": 7409,
      "Ts": 7410,
      "Ġtrapped": 7411,
      "Ġsimilarly": 7412,
      "Ġinterpretation": 7413,
      "Ġsphe": 7414,
      "domain": 7415,
      "Ġprogress": 7416,
      "Ġunus": 7417,
      "Ġnorm": 7418,
      "Ġprecisely": 7419,
      "Ġaccumulation": 7420,
      "Ġtivity": 7421,
      "Ġquas": 7422,
      "ĠðĿĲº": 7423,
      "ĠMetal": 7424,
      "oliubov": 7425,
      "words": 7426,
      "ĠReports": 7427,
      "Ġvelocities": 7428,
      "versely": 7429,
      "Ġtransparent": 7430,
      "oration": 7431,
      "Ġtune": 7432,
      "ĠCVD": 7433,
      "racti": 7434,
      "char": 7435,
      "Ġapproximated": 7436,
      "oidal": 7437,
      "FF": 7438,
      "cut": 7439,
      "ĠTb": 7440,
      "Ġtively": 7441,
      "ĠHow": 7442,
      "neg": 7443,
      "Ġchanged": 7444,
      "Ġgeometrical": 7445,
      "Ġkink": 7446,
      "Ġtraditional": 7447,
      "Ġadvantages": 7448,
      "Ġcoated": 7449,
      "ariance": 7450,
      "LC": 7451,
      "athin": 7452,
      "Ġbrief": 7453,
      "Ġnotation": 7454,
      "Ġevid": 7455,
      "Ġbehaviors": 7456,
      "Ġverified": 7457,
      "Ġacts": 7458,
      "Ġminimize": 7459,
      "Ġporosity": 7460,
      "Ñģ": 7461,
      "resolution": 7462,
      "ĠOptics": 7463,
      "ĠKitaev": 7464,
      "Ġautom": 7465,
      "vac": 7466,
      "ĠSha": 7467,
      "bottom": 7468,
      "ģĦ": 7469,
      "Ġ024": 7470,
      "ĠITO": 7471,
      "Ġstrains": 7472,
      "ĠTheir": 7473,
      "Ġresol": 7474,
      "ometers": 7475,
      "Ġbosonic": 7476,
      "Ġtension": 7477,
      "Ġorange": 7478,
      "ĠNW": 7479,
      "ĠRh": 7480,
      "Ġemitters": 7481,
      "LO": 7482,
      "ĠCas": 7483,
      "ĠBoltzmann": 7484,
      "Ġcooled": 7485,
      "Ġtry": 7486,
      "Ġcompressive": 7487,
      "Ġinterband": 7488,
      "iller": 7489,
      "eno": 7490,
      "Ġlig": 7491,
      "ðĿĳ£": 7492,
      "Ġopening": 7493,
      "ource": 7494,
      "Ġmaximal": 7495,
      "ĠCharge": 7496,
      "Ġemitter": 7497,
      "Ġaccompanied": 7498,
      "mV": 7499,
      "EMS": 7500,
      "inear": 7501,
      "ĠðĿĳĹ": 7502,
      "Ġ2008": 7503,
      "Ġmetamaterial": 7504,
      "ĠÂ¯": 7505,
      "Ġpublished": 7506,
      "ĠKeywords": 7507,
      "ĠLDA": 7508,
      "atus": 7509,
      "ĠSum": 7510,
      "Ġoccupation": 7511,
      "cosity": 7512,
      "ĠðĿĳ¦": 7513,
      "Ġquick": 7514,
      "ih": 7515,
      "ĠAnalysis": 7516,
      "agnetization": 7517,
      "ativistic": 7518,
      "Ġlimitations": 7519,
      "ĠProperties": 7520,
      "step": 7521,
      "Ġvoid": 7522,
      "ĠYin": 7523,
      "ado": 7524,
      "Ġothers": 7525,
      "rolled": 7526,
      "NE": 7527,
      "ĠDy": 7528,
      "Ġ121": 7529,
      "cel": 7530,
      "isenberg": 7531,
      "Ġantennas": 7532,
      "ured": 7533,
      "Ġ...": 7534,
      "ĠTechnol": 7535,
      "det": 7536,
      "kel": 7537,
      "cha": 7538,
      "Ġcoordination": 7539,
      "oz": 7540,
      "Ġrings": 7541,
      "Ġstim": 7542,
      "ĠPH": 7543,
      "âĪ¥": 7544,
      "ÂµÎ½": 7545,
      "Supplementary": 7546,
      "ĠACKNOWLEDGMENTS": 7547,
      "Ġcomprehen": 7548,
      "Ġnanof": 7549,
      "probe": 7550,
      "Ġcamera": 7551,
      "dz": 7552,
      "ands": 7553,
      "Ġrich": 7554,
      "ĠConf": 7555,
      "Ġdense": 7556,
      "Ġpast": 7557,
      "Ġpossibly": 7558,
      "Ġreconstruct": 7559,
      "Ġsense": 7560,
      "1021": 7561,
      "Ġabsorbed": 7562,
      "ðĿĳĸðĿĳĸ": 7563,
      "Ġstudying": 7564,
      "inte": 7565,
      "Ġsimulate": 7566,
      "Ġ155": 7567,
      "Ġspecimen": 7568,
      "formance": 7569,
      "Ġsolvent": 7570,
      "Ġemerges": 7571,
      "Ġannihil": 7572,
      "MM": 7573,
      "nan": 7574,
      "ails": 7575,
      "Ġdispersions": 7576,
      "Ġatmosphere": 7577,
      "Ġlim": 7578,
      "00000": 7579,
      "Ġintersti": 7580,
      "Ġelemental": 7581,
      "ĠGL": 7582,
      "ĠkV": 7583,
      "Ġeventually": 7584,
      "rowth": 7585,
      "Ġdatab": 7586,
      "Ġserve": 7587,
      "hof": 7588,
      "Ġtermin": 7589,
      "Ġchemistry": 7590,
      "Ġball": 7591,
      "ĠME": 7592,
      "ĠÎ¾k": 7593,
      "KT": 7594,
      "tun": 7595,
      "ĠHer": 7596,
      "ÌĤ,": 7597,
      "Ġbr": 7598,
      "Ġhighlighted": 7599,
      "ĠPi": 7600,
      "while": 7601,
      "Vs": 7602,
      "ĠRich": 7603,
      "Ġeigenstates": 7604,
      "Ġsemimetals": 7605,
      "Ġsegment": 7606,
      "netically": 7607,
      "Ġïģ³": 7608,
      "graph": 7609,
      "Ġcantile": 7610,
      "Ġramet": 7611,
      "____": 7612,
      "Ġpracti": 7613,
      "ostat": 7614,
      "Ġvanish": 7615,
      "Ð¾Ð": 7616,
      "601": 7617,
      "Ġintroduction": 7618,
      "Ġtilt": 7619,
      "orphic": 7620,
      "Ġdram": 7621,
      "Ġretain": 7622,
      "ĠAlex": 7623,
      "ĠMur": 7624,
      "SiC": 7625,
      "Ġends": 7626,
      "ĠSig": 7627,
      "Ġconductive": 7628,
      "ĠEm": 7629,
      "valent": 7630,
      "Ġconclusions": 7631,
      "Ġta": 7632,
      "Ġalgorithms": 7633,
      "strain": 7634,
      "Ġquadru": 7635,
      "Ġever": 7636,
      "Ġconservation": 7637,
      "Ġapplicable": 7638,
      "Ġinstant": 7639,
      "Ġther": 7640,
      "Ġcovered": 7641,
      "Ġcharging": 7642,
      "oted": 7643,
      "umb": 7644,
      "Ġharmonics": 7645,
      "ðĿŁ": 7646,
      "Ġprobes": 7647,
      "Ġcircle": 7648,
      "rup": 7649,
      "ĠCamp": 7650,
      "ĠIts": 7651,
      "ĠOk": 7652,
      "Ġsubsequently": 7653,
      "ĠDepend": 7654,
      "Ġstresses": 7655,
      "Ġpromin": 7656,
      "ĠCap": 7657,
      "Ġcompatible": 7658,
      "Ġ124": 7659,
      "iconductor": 7660,
      "Ġniob": 7661,
      "Ex": 7662,
      "irical": 7663,
      "ĠSTEM": 7664,
      "-,": 7665,
      "ĠJi": 7666,
      "Ġverify": 7667,
      "Ġsalt": 7668,
      "Ġprotocol": 7669,
      "ĠTri": 7670,
      "ĠIS": 7671,
      "1995": 7672,
      "Ġtask": 7673,
      "Ġdiscontinu": 7674,
      "opot": 7675,
      "Ġferromagnet": 7676,
      "hel": 7677,
      "ĠAI": 7678,
      "omy": 7679,
      "ðĿĳ¤": 7680,
      "Ġholog": 7681,
      "channel": 7682,
      "haus": 7683,
      "arb": 7684,
      "Ġattrib": 7685,
      "ennes": 7686,
      "ĠCharacter": 7687,
      "imoto": 7688,
      "RT": 7689,
      "cho": 7690,
      "ĠJia": 7691,
      "liquid": 7692,
      "ĠVg": 7693,
      "Ġheterogene": 7694,
      "regation": 7695,
      "QD": 7696,
      "Ġten": 7697,
      "ĠMol": 7698,
      "Ġconser": 7699,
      "odal": 7700,
      "rupt": 7701,
      "Ġconsideration": 7702,
      "Ġviscosity": 7703,
      "ĠSwit": 7704,
      "Ġdiffuse": 7705,
      "*,": 7706,
      "Ġcome": 7707,
      "Ġ900": 7708,
      "Ġbench": 7709,
      "Ġdetermin": 7710,
      "Ġsupports": 7711,
      "diff": 7712,
      "Ġpredicts": 7713,
      "pal": 7714,
      "ĠTA": 7715,
      "Ġacting": 7716,
      "bor": 7717,
      "spect": 7718,
      "yer": 7719,
      "ĠShang": 7720,
      "esian": 7721,
      "ĠMich": 7722,
      "ĠRed": 7723,
      "Ġwavevector": 7724,
      "GL": 7725,
      "unt": 7726,
      "Ġalter": 7727,
      "Ġdisk": 7728,
      "ĠYBCO": 7729,
      "Ġreflectivity": 7730,
      "ĠAP": 7731,
      "ulty": 7732,
      "Ġshield": 7733,
      "Ch": 7734,
      "HT": 7735,
      "ĠBogoliubov": 7736,
      "Ġpoor": 7737,
      "Ġ=âĪĴ": 7738,
      "ĠHol": 7739,
      "skii": 7740,
      "zag": 7741,
      "SP": 7742,
      "xz": 7743,
      "Ġapproximations": 7744,
      "ðĿĳĲðĿĳĲ": 7745,
      "Ġexplanation": 7746,
      "pd": 7747,
      "Ġaug": 7748,
      "ĠpH": 7749,
      "ĠMolecular": 7750,
      "oki": 7751,
      "ffective": 7752,
      "Ġreflectance": 7753,
      "yy": 7754,
      "ĠmJ": 7755,
      "ĠIC": 7756,
      "Ġremove": 7757,
      "Ġ:=": 7758,
      "ĠHiggs": 7759,
      "ĠBon": 7760,
      "ĠKa": 7761,
      "ĠInAs": 7762,
      "Ġfocal": 7763,
      "Ġfriction": 7764,
      "Ġreadily": 7765,
      "ĠDr": 7766,
      "hedra": 7767,
      "valu": 7768,
      "Ġsilver": 7769,
      "ĠAdvances": 7770,
      "ĠSl": 7771,
      "Ġselect": 7772,
      "Ġcylinder": 7773,
      "Ġenabling": 7774,
      "ĠKerr": 7775,
      "âĪĪ": 7776,
      "-(": 7777,
      "Ġepitax": 7778,
      "Ġaspects": 7779,
      "Ġbridge": 7780,
      "Ġfluorescence": 7781,
      "pz": 7782,
      "202": 7783,
      "omogeneity": 7784,
      "Ġinterpreted": 7785,
      "ĠABS": 7786,
      "ĠPR": 7787,
      "Ġï£°": 7788,
      "Ġcombinations": 7789,
      "Ġtrends": 7790,
      "ads": 7791,
      "ources": 7792,
      "ancing": 7793,
      "Ġprogramm": 7794,
      "ĠTL": 7795,
      "ĠFab": 7796,
      "ĠPV": 7797,
      "ĠDF": 7798,
      "shitz": 7799,
      "Ġexamined": 7800,
      "ĠYb": 7801,
      "Ġaveraging": 7802,
      "Ġdxz": 7803,
      "ĠFuj": 7804,
      "Ġdigital": 7805,
      "bl": 7806,
      "oty": 7807,
      "ĠEliashberg": 7808,
      "ĠWal": 7809,
      "Ġagrees": 7810,
      "Ġsputtering": 7811,
      "ÑĢ": 7812,
      "ican": 7813,
      "Ġplates": 7814,
      "peak": 7815,
      "Ġnonlocal": 7816,
      "Ġreplace": 7817,
      "Ġreceived": 7818,
      "âĢĿ.": 7819,
      "Ġvibrations": 7820,
      "din": 7821,
      "ĠdA": 7822,
      "1063": 7823,
      "Ġaddi": 7824,
      "Ġmoire": 7825,
      "Ġcalib": 7826,
      "GHz": 7827,
      "itt": 7828,
      "ĠBre": 7829,
      "âĢ²âĢ²": 7830,
      "SiO": 7831,
      "Ġacquis": 7832,
      "novation": 7833,
      "ĠSR": 7834,
      "ĠWhere": 7835,
      "ynom": 7836,
      "Ġspecifically": 7837,
      "CNT": 7838,
      "Ġcombining": 7839,
      "hanced": 7840,
      "Ġturb": 7841,
      "Ġacces": 7842,
      "Ġoffers": 7843,
      "ĠðĿĽ¿": 7844,
      "Ġdiscovered": 7845,
      "Ġdimer": 7846,
      "voltage": 7847,
      "Ġtit": 7848,
      "Ġpredomin": 7849,
      "Eu": 7850,
      "Ġstation": 7851,
      "ĠBose": 7852,
      "Ġcontin": 7853,
      "Ġmonoc": 7854,
      "Ġlithography": 7855,
      "ĠInteg": 7856,
      "FP": 7857,
      "Ġdyz": 7858,
      "omechanical": 7859,
      "omentum": 7860,
      "AD": 7861,
      "Ġgenerates": 7862,
      "Es": 7863,
      "singlet": 7864,
      "ream": 7865,
      "ĠComb": 7866,
      "osc": 7867,
      "ĠAng": 7868,
      "ixing": 7869,
      "Ġplateau": 7870,
      "Ġwinding": 7871,
      "rotron": 7872,
      "wards": 7873,
      "Ġrotating": 7874,
      "diagonal": 7875,
      "Ġferro": 7876,
      "Ġpixels": 7877,
      ")âĪĴ": 7878,
      "No": 7879,
      "ĠNH": 7880,
      "Ġways": 7881,
      "ĠCompared": 7882,
      "Ġsteel": 7883,
      "reciprocal": 7884,
      "umber": 7885,
      "Ġmodule": 7886,
      "Ġpling": 7887,
      "Ġvanishing": 7888,
      "fi": 7889,
      "ĠTRS": 7890,
      "ensive": 7891,
      "arency": 7892,
      "ĠThat": 7893,
      "Ġinsights": 7894,
      "ĠChoi": 7895,
      "ĠDem": 7896,
      "ĠCoup": 7897,
      "Ġ123": 7898,
      "ĠDiff": 7899,
      "ottky": 7900,
      "Ġrecog": 7901,
      "ĠFrance": 7902,
      "Î©": 7903,
      "olet": 7904,
      "ĠChi": 7905,
      "Ġphotonics": 7906,
      "Ġgreatly": 7907,
      "Ġprinted": 7908,
      "sis": 7909,
      "Ġsilica": 7910,
      "Ġmoderate": 7911,
      "normal": 7912,
      "ðĿĲº": 7913,
      "Ġtravel": 7914,
      "ĠSimulation": 7915,
      "ĠGO": 7916,
      "optic": 7917,
      "Ġquantized": 7918,
      "ĠPhil": 7919,
      "ĠVari": 7920,
      "ĠUs": 7921,
      "Ġpractice": 7922,
      "ĠLat": 7923,
      "Ġcontour": 7924,
      "ÌĤ)": 7925,
      "emp": 7926,
      "ĠCT": 7927,
      "Ġcondensate": 7928,
      "ahertz": 7929,
      "Ġsup": 7930,
      "ĠNam": 7931,
      "Ġproceed": 7932,
      "Ġscans": 7933,
      "ĠOnce": 7934,
      "breaking": 7935,
      "wan": 7936,
      "Ġdome": 7937,
      "Ġexotic": 7938,
      "Ġpolymers": 7939,
      "ĠKane": 7940,
      "iley": 7941,
      "Ġcompetition": 7942,
      "nzer": 7943,
      "Ġsat": 7944,
      "Ġestablish": 7945,
      "ĠTm": 7946,
      "ĠShim": 7947,
      "1993": 7948,
      "Ġprecursor": 7949,
      "Qu": 7950,
      "ĠdV": 7951,
      "Ġdissoci": 7952,
      "Ġarri": 7953,
      "ĠApplications": 7954,
      "/âĪĨ": 7955,
      "Figs": 7956,
      "Ġanalogous": 7957,
      "Ġ245": 7958,
      "Ġseparately": 7959,
      "Āē": 7960,
      "Ġsubstantially": 7961,
      "ĠAL": 7962,
      "Ġcommunication": 7963,
      "BL": 7964,
      "ĠNPs": 7965,
      "Ġsity": 7966,
      "Ġinjected": 7967,
      "Ġwet": 7968,
      "Ġstochastic": 7969,
      "amagnetic": 7970,
      "Ġpores": 7971,
      "ĠðĿĳĶ": 7972,
      "Ġcapable": 7973,
      "Ġwidths": 7974,
      "Ġductivity": 7975,
      "Ġhol": 7976,
      "Ġ126": 7977,
      "zin": 7978,
      "Ġweights": 7979,
      "ĠKh": 7980,
      "ĠReviews": 7981,
      "ĠTian": 7982,
      "fs": 7983,
      "ĠAssum": 7984,
      "Ġgoes": 7985,
      "Ġkeeping": 7986,
      "Ġproof": 7987,
      "Ġselective": 7988,
      "115": 7989,
      "Ġtends": 7990,
      "Ġble": 7991,
      "Ġgl": 7992,
      "ĠKle": 7993,
      "505": 7994,
      "Ġaddressed": 7995,
      "bs": 7996,
      "da": 7997,
      "ĠMagnet": 7998,
      "ĠProject": 7999,
      "Ġrepulsive": 8000,
      "Ġtranslation": 8001,
      "UV": 8002,
      "ĠRoy": 8003,
      "Ġfilters": 8004,
      ",âĨĵ": 8005,
      "GPa": 8006,
      "inite": 8007,
      "ĠActa": 8008,
      "Ġproton": 8009,
      "Ġfunctionals": 8010,
      "Di": 8011,
      "Ġoptically": 8012,
      "Ġanalyses": 8013,
      "Ġsom": 8014,
      "aled": 8015,
      "ĠIns": 8016,
      "Ġprobed": 8017,
      "mentioned": 8018,
      "ovoltaic": 8019,
      "phen": 8020,
      "ĠYIG": 8021,
      "Ġunchanged": 8022,
      "Ġadiabatic": 8023,
      "ðĿĳ¢": 8024,
      "Ġïģ§": 8025,
      "Ġstored": 8026,
      "Ġpolynom": 8027,
      "Ġpowers": 8028,
      "Ġdeple": 8029,
      "Ġsemiconducting": 8030,
      "ĠIntensity": 8031,
      "ÌĢ": 8032,
      "Ġgray": 8033,
      "Ġpatterned": 8034,
      "Ġexceeds": 8035,
      "ĠðĿĳĻ": 8036,
      "Ġslowly": 8037,
      ".%": 8038,
      "Ġtraces": 8039,
      "Ġstrained": 8040,
      "Ġcoexistence": 8041,
      "500": 8042,
      "CN": 8043,
      "ĠRob": 8044,
      "insulator": 8045,
      "Ġlogic": 8046,
      "ĠNumerical": 8047,
      "Ġsig": 8048,
      "Ġled": 8049,
      "ĠFl": 8050,
      "ĠWave": 8051,
      "Ġinteract": 8052,
      "Ġcapability": 8053,
      "Ġdroplets": 8054,
      "Ġceram": 8055,
      "Landau": 8056,
      "ĠMal": 8057,
      "rude": 8058,
      "Ġmediated": 8059,
      "Sc": 8060,
      "ĠHeisenberg": 8061,
      "gi": 8062,
      "ĠRod": 8063,
      "Ġemerge": 8064,
      "Ġquantify": 8065,
      "Ġflexible": 8066,
      "rint": 8067,
      "usti": 8068,
      "Ġï£»": 8069,
      "Ġmaxima": 8070,
      "PhysRevB": 8071,
      "Ġ127": 8072,
      "film": 8073,
      "aver": 8074,
      "ĠKir": 8075,
      "Ã¤": 8076,
      "Ġtape": 8077,
      "erial": 8078,
      "ĠðĿĳ£": 8079,
      "ĠRay": 8080,
      "ĠPolar": 8081,
      "Ġmigration": 8082,
      "Ġultrathin": 8083,
      "ĠMark": 8084,
      "Ġ195": 8085,
      "ĠSchmid": 8086,
      "Ġtang": 8087,
      "Ġdk": 8088,
      "rug": 8089,
      "parity": 8090,
      "Ġactually": 8091,
      "cid": 8092,
      "Ġexcitonic": 8093,
      "Ġentanglement": 8094,
      "nzerhof": 8095,
      "Ġexhibited": 8096,
      "beck": 8097,
      "ING": 8098,
      "ulse": 8099,
      "luding": 8100,
      "ĠNatural": 8101,
      "ilbert": 8102,
      "ĠGR": 8103,
      "Ġexhibiting": 8104,
      "Ġbuild": 8105,
      "BZ": 8106,
      "cts": 8107,
      "Ġsition": 8108,
      "Ġimplant": 8109,
      "ĠðĿĲ½": 8110,
      "Ġmonoton": 8111,
      "Ġtheories": 8112,
      "Ġ09": 8113,
      "nicti": 8114,
      "Ġleakage": 8115,
      "ðĿľİ": 8116,
      "osi": 8117,
      "Ġsole": 8118,
      "ĠNP": 8119,
      "Ġtransmon": 8120,
      "Ġ(-": 8121,
      "ĠPower": 8122,
      "ĠEc": 8123,
      "ĠÏĥz": 8124,
      "Ġdiscreti": 8125,
      "JJ": 8126,
      "Ġsoliton": 8127,
      "Ġprinting": 8128,
      "Ġprominent": 8129,
      "ĠExc": 8130,
      "Ġrefe": 8131,
      "ĠAnten": 8132,
      "Ġpseudopot": 8133,
      "Ġemitted": 8134,
      "ĠNotably": 8135,
      "Ġunusual": 8136,
      "Ġcorrespondence": 8137,
      "ðĿľĢ": 8138,
      "Ġtransparency": 8139,
      "Ġcoverage": 8140,
      "correlation": 8141,
      "ĠSever": 8142,
      "Ġtriple": 8143,
      "TT": 8144,
      "ĠOct": 8145,
      "123": 8146,
      "Ġoriginates": 8147,
      "tes": 8148,
      "Ġpx": 8149,
      "008": 8150,
      "ĠKres": 8151,
      "Ġelectrically": 8152,
      "log": 8153,
      "rome": 8154,
      "ĠOP": 8155,
      "www": 8156,
      "Ġpz": 8157,
      "used": 8158,
      "ĠðĿĽ½": 8159,
      "Ġanalytically": 8160,
      "Ġregarding": 8161,
      "ĠEf": 8162,
      "gered": 8163,
      "ĠThin": 8164,
      "ĠPMMA": 8165,
      "Ġissues": 8166,
      "ĠDevices": 8167,
      "ĠAssuming": 8168,
      "De": 8169,
      "PBE": 8170,
      "system": 8171,
      "ĠLut": 8172,
      "Ġliquids": 8173,
      "Ġindependently": 8174,
      "Ġperspective": 8175,
      "Ġobjects": 8176,
      "dy": 8177,
      "ĠSak": 8178,
      "403": 8179,
      "Ġdominates": 8180,
      "Ġacquisition": 8181,
      "Ġic": 8182,
      "Ġreverse": 8183,
      "ĠSant": 8184,
      "ĠIL": 8185,
      "Ġperconducting": 8186,
      "Ġexpress": 8187,
      "Ġnonlinearity": 8188,
      "neighbor": 8189,
      "ĠTra": 8190,
      "Ġroute": 8191,
      "Ġsupporting": 8192,
      "Ġvirtual": 8193,
      "Ġfi": 8194,
      "Ġïģ¢": 8195,
      "ĠDiv": 8196,
      "ĠExp": 8197,
      "ÃĬÃĬ": 8198,
      "Ġquantitatively": 8199,
      "Ġkinetics": 8200,
      "AF": 8201,
      "Is": 8202,
      "Springer": 8203,
      "Ġ128": 8204,
      "Ġimmedi": 8205,
      "Ġdrift": 8206,
      "Ġcontinuously": 8207,
      "ethe": 8208,
      "ayashi": 8209,
      "Ġattached": 8210,
      "AH": 8211,
      "ether": 8212,
      "ĠMad": 8213,
      "ĠNN": 8214,
      "Ġsmallest": 8215,
      "electro": 8216,
      "ften": 8217,
      "Ġtial": 8218,
      "Ġparab": 8219,
      "Ġconsumption": 8220,
      "limit": 8221,
      "Ġnal": 8222,
      "Ġscenarios": 8223,
      "Ġperfectly": 8224,
      "rim": 8225,
      "istribution": 8226,
      "Ġdemonstrating": 8227,
      "Ġachieving": 8228,
      "ĠStructural": 8229,
      "ĠAcknowledgements": 8230,
      "ĠGGA": 8231,
      "version": 8232,
      "Ġemerging": 8233,
      "Ġprototy": 8234,
      "Ġstabilized": 8235,
      "Ġscaled": 8236,
      "Ġschematically": 8237,
      "ella": 8238,
      "cker": 8239,
      "Ġrepresentations": 8240,
      "ĠPlas": 8241,
      "cribed": 8242,
      "fermion": 8243,
      "Ġson": 8244,
      "Ġcollo": 8245,
      "Ġscatter": 8246,
      "abrication": 8247,
      "Ġspheres": 8248,
      "'s": 8249,
      "Ġland": 8250,
      "Ġinstrument": 8251,
      "rik": 8252,
      "Ġvariance": 8253,
      "tw": 8254,
      "tin": 8255,
      "Ġstem": 8256,
      "hev": 8257,
      "Ġcontrolling": 8258,
      "Ġconvenient": 8259,
      "Ġmanipulation": 8260,
      "Ġcryogenic": 8261,
      ",âĨĳ": 8262,
      "jk": 8263,
      "sy": 8264,
      "Ġassump": 8265,
      "ĠFWHM": 8266,
      "aux": 8267,
      "Ġ(%)": 8268,
      "ĠSign": 8269,
      "ĠLang": 8270,
      "structures": 8271,
      "ĠTok": 8272,
      "Ġnecessarily": 8273,
      "Ġmelt": 8274,
      "Ġce": 8275,
      "ranged": 8276,
      "ĠSchottky": 8277,
      "ï£º": 8278,
      "Îĺ": 8279,
      "orov": 8280,
      "Ġoctahedral": 8281,
      "Ġ240": 8282,
      "Ġconsiderable": 8283,
      "ĠMgO": 8284,
      "Ġraw": 8285,
      "ĠZhong": 8286,
      "Ġexpectation": 8287,
      "ZT": 8288,
      "ĠMas": 8289,
      "ĠBelow": 8290,
      "irable": 8291,
      "Ġroot": 8292,
      "ĠMatsub": 8293,
      "pur": 8294,
      "+)": 8295,
      "orption": 8296,
      "ĠVB": 8297,
      "pended": 8298,
      "ĠMZMs": 8299,
      "Ġbehind": 8300,
      "Ġabrupt": 8301,
      "ĠLorentzian": 8302,
      "Ġsomew": 8303,
      "ĠPS": 8304,
      "centrosymmetric": 8305,
      "rep": 8306,
      "Ġ035": 8307,
      "Ġreasons": 8308,
      "Ġislands": 8309,
      "Ġsand": 8310,
      "ĠChap": 8311,
      "Ġspecified": 8312,
      "ĠMechanical": 8313,
      "ETP": 8314,
      "MT": 8315,
      "grown": 8316,
      "ĠCR": 8317,
      "Ġbenchmark": 8318,
      "crystal": 8319,
      "rete": 8320,
      "ĠLong": 8321,
      "ĠâĪĴ(": 8322,
      "ĠVG": 8323,
      "Ġtransistors": 8324,
      "ĠOptim": 8325,
      "Ġexponentially": 8326,
      "Ġguide": 8327,
      "Ġcone": 8328,
      "inese": 8329,
      "hm": 8330,
      "alk": 8331,
      "ĠImport": 8332,
      "NPs": 8333,
      "VE": 8334,
      "noise": 8335,
      "Ġcate": 8336,
      "Ġinstabilities": 8337,
      "atoms": 8338,
      "ĠCell": 8339,
      "imuth": 8340,
      "dep": 8341,
      "Ġgrowing": 8342,
      "ðĿľı": 8343,
      "Ġtwin": 8344,
      "imeter": 8345,
      "Â·Â·": 8346,
      "âĦĵ": 8347,
      "ĠAcknowled": 8348,
      "ĠKumar": 8349,
      "Ġcollap": 8350,
      "ASP": 8351,
      "Ġreflects": 8352,
      "Ġimmediately": 8353,
      "Ġaz": 8354,
      "Ġutilizing": 8355,
      "ĠWilson": 8356,
      "Ġspring": 8357,
      "Ġintegrating": 8358,
      "Ġcreating": 8359,
      "Ġbreakdown": 8360,
      "DD": 8361,
      "Na": 8362,
      "vable": 8363,
      "ĠMET": 8364,
      "Ġneur": 8365,
      "copic": 8366,
      "1991": 8367,
      ",[": 8368,
      "mes": 8369,
      "Ġencod": 8370,
      "lar": 8371,
      "Ġâī«": 8372,
      "ĠNiO": 8373,
      "ĠCarbon": 8374,
      "Ã³": 8375,
      "Ġ,âĢĿ": 8376,
      "GaN": 8377,
      "We": 8378,
      "Ġton": 8379,
      "ĠES": 8380,
      "Ġanalytic": 8381,
      "Ġaccessible": 8382,
      "iÏĥ": 8383,
      "ĠCop": 8384,
      "ifor": 8385,
      "ĠSeveral": 8386,
      "OP": 8387,
      "ĠXPS": 8388,
      "Ġrefers": 8389,
      "Ġmutual": 8390,
      "ĠSur": 8391,
      "ĠCha": 8392,
      "ĠUpon": 8393,
      "ĠThomas": 8394,
      "ĠAcknowledg": 8395,
      "ounts": 8396,
      "ĠQDs": 8397,
      "fl": 8398,
      "ĠThrough": 8399,
      "ĠChinese": 8400,
      "Ġ165": 8401,
      "Rs": 8402,
      "Ġmethodology": 8403,
      "Ġsatisfied": 8404,
      "ster": 8405,
      "ĠGal": 8406,
      "Ġflows": 8407,
      "Ġtransformed": 8408,
      "UM": 8409,
      "ĠGW": 8410,
      "ĠMats": 8411,
      "Ġdivergence": 8412,
      "GB": 8413,
      "ĠTom": 8414,
      "ĠLag": 8415,
      "bands": 8416,
      "metallic": 8417,
      "Ġopens": 8418,
      "ĠAstron": 8419,
      "WS": 8420,
      "Ġtu": 8421,
      "orld": 8422,
      "Ġzig": 8423,
      "bile": 8424,
      "dc": 8425,
      "Ġfunding": 8426,
      "ĠTay": 8427,
      "Ġgenerating": 8428,
      "ircuit": 8429,
      "ĠKang": 8430,
      "ructive": 8431,
      "Ġsec": 8432,
      "Ġthanks": 8433,
      "Ġ2004": 8434,
      "sorption": 8435,
      "ðĿĳłðĿĳł": 8436,
      "ez": 8437,
      "Ġtim": 8438,
      "ĠEng": 8439,
      "Ġfavorable": 8440,
      "nev": 8441,
      "Ġaccord": 8442,
      "ĠMechan": 8443,
      "mitted": 8444,
      "Ġsatisfies": 8445,
      "ifornia": 8446,
      "pher": 8447,
      "Ġcomputer": 8448,
      "Ġclari": 8449,
      "Ġultim": 8450,
      "Ġmoves": 8451,
      "ĠTemp": 8452,
      "ĠâĦĵ": 8453,
      "ĠHT": 8454,
      "Ġï£±": 8455,
      "ðĿľĥ": 8456,
      "lation": 8457,
      "ĠMass": 8458,
      "ĠLA": 8459,
      "Ġcondensation": 8460,
      "ĠLifshitz": 8461,
      "amped": 8462,
      "Ġatomically": 8463,
      "othermal": 8464,
      "bu": 8465,
      "spl": 8466,
      "Ġfig": 8467,
      "icated": 8468,
      "ĠSz": 8469,
      "otal": 8470,
      "ĠFloquet": 8471,
      ")âĢĵ": 8472,
      "ĠTer": 8473,
      "ĠMI": 8474,
      "ĠCalifornia": 8475,
      "Ġillumin": 8476,
      "Ġassigned": 8477,
      "ĠMP": 8478,
      "Ġï£²": 8479,
      "Ġknow": 8480,
      "Ġsapphire": 8481,
      "roz": 8482,
      "Ġcurrently": 8483,
      "ĠTransactions": 8484,
      "ĠBasic": 8485,
      "NG": 8486,
      "ially": 8487,
      "Ġties": 8488,
      "011": 8489,
      "abi": 8490,
      "parallel": 8491,
      "Ġgoal": 8492,
      "Ġefforts": 8493,
      "atigue": 8494,
      "Ġï£³": 8495,
      "Ġefficiently": 8496,
      "ĠLaw": 8497,
      "Ġglasses": 8498,
      "Ġasymptotic": 8499,
      "ĠKresse": 8500,
      "Ġtom": 8501,
      "Ġunity": 8502,
      "Ġdays": 8503,
      "ĠCMOS": 8504,
      "015": 8505,
      "inv": 8506,
      "Ġintense": 8507,
      "Ġrequirements": 8508,
      "ĠCalculated": 8509,
      "ĠChrist": 8510,
      "Ġnoting": 8511,
      "Ġcoupler": 8512,
      "Ġïģ±": 8513,
      "ï£¯": 8514,
      "ĠAmerican": 8515,
      "ĠCambridge": 8516,
      "Ġattain": 8517,
      "ĠYi": 8518,
      "ĠGib": 8519,
      "Ġjusti": 8520,
      "Ġgrows": 8521,
      "ĠFL": 8522,
      "Ġdetuning": 8523,
      "uss": 8524,
      "Ġsummation": 8525,
      "Ġdiscrepancy": 8526,
      "sten": 8527,
      "unit": 8528,
      "entials": 8529,
      "ĠPlan": 8530,
      "non": 8531,
      "ĠBlack": 8532,
      "romatic": 8533,
      "iber": 8534,
      "Ġaccounts": 8535,
      "DR": 8536,
      "Ġsuccessful": 8537,
      "ĠRC": 8538,
      "Ġinteratomic": 8539,
      "Ġtransistor": 8540,
      "Ġgradients": 8541,
      "fers": 8542,
      "ĠHund": 8543,
      "Ġepo": 8544,
      "ĠJac": 8545,
      "ĠOs": 8546,
      "506": 8547,
      "ĠSmith": 8548,
      "iya": 8549,
      "ĠNanotechnology": 8550,
      "tier": 8551,
      "ĠSam": 8552,
      "istent": 8553,
      "STEM": 8554,
      "Ġremoval": 8555,
      "BF": 8556,
      "Im": 8557,
      "ĠTS": 8558,
      "ĠFed": 8559,
      "Ġ205": 8560,
      "ïģ·": 8561,
      "anche": 8562,
      "Ġrevers": 8563,
      "Ġreversible": 8564,
      "ĠMX": 8565,
      "Ġgy": 8566,
      "Ġspecimens": 8567,
      "Hf": 8568,
      "ĠKong": 8569,
      "Ġarm": 8570,
      "Ġoccurring": 8571,
      "Ġdistortions": 8572,
      "ming": 8573,
      "net": 8574,
      "ĠDrude": 8575,
      "rict": 8576,
      "Ġanode": 8577,
      "ĠCF": 8578,
      "ĠDifferent": 8579,
      "Ġdecl": 8580,
      "Ġenvironments": 8581,
      "CDW": 8582,
      "Â°,": 8583,
      "Ġactivated": 8584,
      "Ġquickly": 8585,
      "nik": 8586,
      "];": 8587,
      "long": 8588,
      "Ġcour": 8589,
      "GaAs": 8590,
      "mu": 8591,
      "Ġflo": 8592,
      "Ġpassi": 8593,
      "Ġrules": 8594,
      "Ġempty": 8595,
      "Ġtriangles": 8596,
      "Ġage": 8597,
      "Ar": 8598,
      "eper": 8599,
      "icity": 8600,
      "ĠPot": 8601,
      "ĠPDW": 8602,
      "Ġimposed": 8603,
      "Ġterahertz": 8604,
      "ĠPhysi": 8605,
      "ĠON": 8606,
      "Ġresulted": 8607,
      "ĠProcess": 8608,
      "ĠPat": 8609,
      "ĠBru": 8610,
      "formed": 8611,
      "Ġdatasets": 8612,
      "ĠGeneral": 8613,
      "bound": 8614,
      "Ġtric": 8615,
      "instein": 8616,
      "tis": 8617,
      "Ġlated": 8618,
      "Ġrestricted": 8619,
      "ĠMaxwell": 8620,
      "ĠFern": 8621,
      "Ġphenomenological": 8622,
      "Ġequipped": 8623,
      "ĠCast": 8624,
      "rential": 8625,
      "]),": 8626,
      "oom": 8627,
      "onov": 8628,
      "Ġgoverned": 8629,
      "Ġassembly": 8630,
      "kÏĥ": 8631,
      "Ġabsorber": 8632,
      "Ġestimates": 8633,
      "ĠSupercond": 8634,
      "ĠâĮ": 8635,
      "ĠHyd": 8636,
      "essel": 8637,
      "âĦı": 8638,
      "cing": 8639,
      "ids": 8640,
      "term": 8641,
      "Ġ/âĪĨ": 8642,
      "ĠStrong": 8643,
      "Ġsomewhat": 8644,
      "velop": 8645,
      "Ġsuperposition": 8646,
      "ĠConference": 8647,
      "Ġbattery": 8648,
      "ĠHard": 8649,
      "Ġmonoch": 8650,
      "Ġcapacitor": 8651,
      "ĠTl": 8652,
      "Ġgrate": 8653,
      "Ġcolors": 8654,
      "HF": 8655,
      "130": 8656,
      "Ġconverted": 8657,
      "Ġcomprehensive": 8658,
      "Ġinterstitial": 8659,
      "Ġfcc": 8660,
      "Ġrf": 8661,
      "QE": 8662,
      "bra": 8663,
      "Ġ045": 8664,
      "Ġconsiderably": 8665,
      "Ġgets": 8666,
      "Ġmechanics": 8667,
      "ĠControl": 8668,
      "ogram": 8669,
      "ĠBerlin": 8670,
      "Ġcollapse": 8671,
      "lined": 8672,
      "ales": 8673,
      "ests": 8674,
      "Ġsurpris": 8675,
      "Ġoverla": 8676,
      "Ġmono": 8677,
      "ĠTaking": 8678,
      "Ġdipolar": 8679,
      "Ġcontributes": 8680,
      "Ġoptoelectronic": 8681,
      "cially": 8682,
      "through": 8683,
      "aterials": 8684,
      "ĠGl": 8685,
      "Ġquency": 8686,
      "Ġcriteria": 8687,
      "ĠSHG": 8688,
      "undred": 8689,
      "ossible": 8690,
      "ospin": 8691,
      "ĠComputer": 8692,
      "Ġfourth": 8693,
      "Ġillustrates": 8694,
      "BI": 8695,
      "ĠðĿĳ¤": 8696,
      "Ġgenerator": 8697,
      "ĠRos": 8698,
      "ĠOnly": 8699,
      "functional": 8700,
      "prin": 8701,
      "Ġrib": 8702,
      "ĠPropag": 8703,
      "respon": 8704,
      "Ġïģ·": 8705,
      "ĠCentre": 8706,
      "Ġferromagnetism": 8707,
      "114": 8708,
      "reep": 8709,
      "ambu": 8710,
      "Or": 8711,
      "ĠProf": 8712,
      "Ġsilic": 8713,
      "Ġelu": 8714,
      "ĠGroup": 8715,
      "Ġconnecting": 8716,
      "Ġserved": 8717,
      "ĠAuthor": 8718,
      "ĠHC": 8719,
      "Ġdecades": 8720,
      "Ġreceiver": 8721,
      "Hermitian": 8722,
      "Ġnesting": 8723,
      "113": 8724,
      "Ġmasses": 8725,
      "ðĿĴĮ": 8726,
      "Ġnanoshe": 8727,
      "ĠEJ": 8728,
      "Ġtechnical": 8729,
      "Ġintegrals": 8730,
      "Ġcantilever": 8731,
      "025": 8732,
      "itch": 8733,
      "Ġsystematically": 8734,
      "Ġattracted": 8735,
      "Ġextensively": 8736,
      "ĠHirsch": 8737,
      "ĠPT": 8738,
      "Ġconsequently": 8739,
      "onds": 8740,
      "war": 8741,
      "Ġscreened": 8742,
      "+,": 8743,
      "Ġradii": 8744,
      "ĠDavid": 8745,
      "Ġassumptions": 8746,
      "bro": 8747,
      "cap": 8748,
      "vents": 8749,
      "Ġgases": 8750,
      "ĠâĪ«": 8751,
      "Ġii": 8752,
      "Ġundoped": 8753,
      "Ġattenuation": 8754,
      "Ġternary": 8755,
      "Ġmounted": 8756,
      "Ġquartz": 8757,
      "Ġlogarithmic": 8758,
      "ĠGol": 8759,
      "ðĿĳĤ": 8760,
      "akov": 8761,
      "eh": 8762,
      "agi": 8763,
      "interacting": 8764,
      "Ġsolely": 8765,
      "Ġsam": 8766,
      "ĠMany": 8767,
      "ĠSarma": 8768,
      "ĠdÏī": 8769,
      "007": 8770,
      "ĠKohn": 8771,
      "ĠSilicon": 8772,
      "Ġcathode": 8773,
      "ĠJETP": 8774,
      "ĠInstitut": 8775,
      "Ġtrajectory": 8776,
      "Ġsynchron": 8777,
      "figur": 8778,
      "ĠRs": 8779,
      "Ġhelium": 8780,
      "Ġmetry": 8781,
      "Āđ": 8782,
      "Ġlinked": 8783,
      "ĠConclusions": 8784,
      "mmm": 8785,
      "ĠMeasurement": 8786,
      "GG": 8787,
      "cr": 8788,
      "},": 8789,
      "ĠBz": 8790,
      "Ġamounts": 8791,
      "Ġpurity": 8792,
      "Ġ2007": 8793,
      "Ġcontrary": 8794,
      "Ġvalidation": 8795,
      "Ġmonoclinic": 8796,
      "Ġlie": 8797,
      "Ġnever": 8798,
      "cession": 8799,
      "Ġbilayers": 8800,
      "vised": 8801,
      "Ġeth": 8802,
      "ĠForm": 8803,
      "ĠCat": 8804,
      "Ġcalcu": 8805,
      "Ġcentre": 8806,
      "ĠUnited": 8807,
      "anol": 8808,
      "ĠâĪĴâĪĨ": 8809,
      "Ġ450": 8810,
      "Ġtwice": 8811,
      "Ġconcern": 8812,
      "ĠBan": 8813,
      "ĠTyp": 8814,
      "ĠMatsubara": 8815,
      "Ġ((": 8816,
      "ĠRS": 8817,
      "Ġmanifest": 8818,
      "oscopic": 8819,
      "Ġiniti": 8820,
      "trl": 8821,
      "Ġpermeability": 8822,
      "Ġintrig": 8823,
      "Ġincoming": 8824,
      "Ġvalu": 8825,
      "Ġdescriptors": 8826,
      "Ġdatabase": 8827,
      "ĠHSE": 8828,
      "Ġmobile": 8829,
      "ĠSpectroscopy": 8830,
      "squ": 8831,
      "arant": 8832,
      "ĠVi": 8833,
      "ĠLy": 8834,
      "redic": 8835,
      "Ġdemonstration": 8836,
      "Ġemphasize": 8837,
      "Ġexfoliated": 8838,
      "vis": 8839,
      "Ġbur": 8840,
      "119": 8841,
      "gin": 8842,
      "ius": 8843,
      "Ġ\\": 8844,
      "oule": 8845,
      "Ġsynthetic": 8846,
      "Ġintrigu": 8847,
      "Ġlay": 8848,
      "Ġhundred": 8849,
      "quality": 8850,
      "Ġdate": 8851,
      "occ": 8852,
      "Ġalkal": 8853,
      "Ġextensive": 8854,
      "ĠNanoscale": 8855,
      "400": 8856,
      "Ġimplying": 8857,
      "Ġetch": 8858,
      "Ġhalide": 8859,
      "Ġprimitive": 8860,
      "Ġnanorib": 8861,
      "process": 8862,
      "Ġinvolve": 8863,
      "CT": 8864,
      "vy": 8865,
      "Ġdiodes": 8866,
      "lab": 8867,
      "ĠBN": 8868,
      "ĠKram": 8869,
      "ĠDec": 8870,
      "Ġmathematical": 8871,
      "Ġobtaining": 8872,
      "Ġ1500": 8873,
      "ĠSolids": 8874,
      "Ġargument": 8875,
      "Ġhappens": 8876,
      "ĠWolf": 8877,
      "BdG": 8878,
      "140": 8879,
      "ĠÏĥy": 8880,
      "otti": 8881,
      "ctional": 8882,
      "ĠOAM": 8883,
      "BCS": 8884,
      "oo": 8885,
      "ĠShiba": 8886,
      "ĠSche": 8887,
      "ukov": 8888,
      "Ġeight": 8889,
      "Ġrotated": 8890,
      "ĠâĹĭ": 8891,
      "Ġreturn": 8892,
      "Ġexpanded": 8893,
      "ĠMgB": 8894,
      "Ġdrawn": 8895,
      "Ġcourse": 8896,
      "ĠBefore": 8897,
      "Ã¸": 8898,
      "Ġ[âĪĴ": 8899,
      "Ġresemb": 8900,
      "Ġbuck": 8901,
      "ĠNWs": 8902,
      "Ġsuspended": 8903,
      "dynamics": 8904,
      "Ġ(<": 8905,
      "ĠHS": 8906,
      "acs": 8907,
      "Ġmagnons": 8908,
      "ÌĬ,": 8909,
      "HC": 8910,
      "cht": 8911,
      "ards": 8912,
      "Ġrespec": 8913,
      "Ġbelieve": 8914,
      "Ġpassive": 8915,
      "ĠLarge": 8916,
      "1111": 8917,
      "Ġalternating": 8918,
      "Ġenabled": 8919,
      "Hc": 8920,
      "ĠKan": 8921,
      "Ġshaded": 8922,
      "301": 8923,
      "ĠâĪĵ": 8924,
      "eria": 8925,
      "1992": 8926,
      "PSS": 8927,
      "ĠMicrowave": 8928,
      "Ġtrajectories": 8929,
      "Er": 8930,
      "Ġstages": 8931,
      "ĠGP": 8932,
      "ipolar": 8933,
      "ĠSuperconductor": 8934,
      "ĠTransport": 8935,
      "Ġinsertion": 8936,
      "Ġsingularity": 8937,
      "Â¯": 8938,
      "Ġpat": 8939,
      "asks": 8940,
      "Ġsuperior": 8941,
      "nn": 8942,
      "ners": 8943,
      "Ġmention": 8944,
      "ĠCW": 8945,
      "ĠHi": 8946,
      "Ġtextures": 8947,
      "dynamic": 8948,
      "ĠSens": 8949,
      "ĠDeng": 8950,
      "Ġsuperlattice": 8951,
      "ĠðĿĲ¾": 8952,
      "Ġoperated": 8953,
      "Ġdifferenti": 8954,
      "Ġ085": 8955,
      "ĠNS": 8956,
      "ĠVis": 8957,
      "hedron": 8958,
      "Ġanalyzer": 8959,
      "Ġsigns": 8960,
      "illo": 8961,
      "ĠCrI": 8962,
      "Ġportion": 8963,
      "Ġreproduced": 8964,
      "ici": 8965,
      "Ġconvolution": 8966,
      "emt": 8967,
      "117": 8968,
      "Ġclock": 8969,
      "electronics": 8970,
      "riger": 8971,
      "EJ": 8972,
      "ĠMF": 8973,
      "ĠLocal": 8974,
      "ĠCounc": 8975,
      "ĠImportantly": 8976,
      "ĠCouncil": 8977,
      "ĠFF": 8978,
      "ĠInf": 8979,
      "arded": 8980,
      "ayama": 8981,
      "Ġsignif": 8982,
      "Ġ135": 8983,
      "ĠPrevious": 8984,
      "figure": 8985,
      "Ġtransduc": 8986,
      "Ġclarity": 8987,
      "ĠBud": 8988,
      "Ġopt": 8989,
      "ĠSiN": 8990,
      "Ġ2006": 8991,
      "ĠNbN": 8992,
      "Ġproducts": 8993,
      "Ġhomogen": 8994,
      "Ġters": 8995,
      "asan": 8996,
      "ionic": 8997,
      "Ġ1200": 8998,
      "Ġ134": 8999,
      "ĠSer": 9000,
      "ĠDie": 9001,
      "Ġcorrected": 9002,
      "Ġradio": 9003,
      "Ġprincipal": 9004,
      "AI": 9005,
      "assisted": 9006,
      "ĠDirect": 9007,
      "Ġphotoluminescence": 9008,
      "eq": 9009,
      "jp": 9010,
      "Ġdischarge": 9011,
      "mh": 9012,
      "Ġneighbors": 9013,
      "Ġpreprint": 9014,
      "Ġtronic": 9015,
      "pi": 9016,
      "Ġ075": 9017,
      "Ġthermo": 9018,
      "Ġempirical": 9019,
      "ĠUnlike": 9020,
      "ðĿĽ½": 9021,
      "THz": 9022,
      "ĠAnti": 9023,
      "Ġïĥ¦": 9024,
      "DMFT": 9025,
      "XRD": 9026,
      "ito": 9027,
      "Ġbig": 9028,
      "ĠRG": 9029,
      "effer": 9030,
      "Ġrecti": 9031,
      "Ġâľ": 9032,
      "ĠSuperconductors": 9033,
      "Ġrequirement": 9034,
      "Ġrepetition": 9035,
      "Ġmuon": 9036,
      "Ġcores": 9037,
      "ĠBak": 9038,
      "utron": 9039,
      "ĠKr": 9040,
      "Ġfluor": 9041,
      "Ġwriting": 9042,
      "issner": 9043,
      "ĠObservation": 9044,
      "RI": 9045,
      "uy": 9046,
      "Ġinequ": 9047,
      "ĠLap": 9048,
      "Ġspectroscopic": 9049,
      "Ġlocking": 9050,
      "Ġupd": 9051,
      "poles": 9052,
      "Ġsket": 9053,
      "Ġzigzag": 9054,
      "Ġ],": 9055,
      "Ġafore": 9056,
      "ĠVo": 9057,
      "Ġhydrides": 9058,
      "Ġdrain": 9059,
      "Ġunex": 9060,
      "âĢĻ,": 9061,
      "Ġsoften": 9062,
      "Ġpnicti": 9063,
      "ĠNit": 9064,
      "romet": 9065,
      "Ġenthal": 9066,
      "Ġpermission": 9067,
      "ere": 9068,
      "Ġ144": 9069,
      "Ġexplains": 9070,
      "Ġtraps": 9071,
      "Ġgrey": 9072,
      "graphene": 9073,
      "Ġintercalation": 9074,
      "ln": 9075,
      "Ġopportun": 9076,
      "Ġwider": 9077,
      "KK": 9078,
      "NI": 9079,
      "align": 9080,
      "Ġsubjected": 9081,
      "ĠLattice": 9082,
      "mtrl": 9083,
      "Ġlib": 9084,
      "Ġtrunc": 9085,
      "eral": 9086,
      "oka": 9087,
      "Ġhydroph": 9088,
      "Ġresear": 9089,
      "ENC": 9090,
      "bach": 9091,
      "lus": 9092,
      "Ġfall": 9093,
      "ĠFFT": 9094,
      "Ġcreep": 9095,
      "ĠSet": 9096,
      "amination": 9097,
      "erman": 9098,
      "Ġfam": 9099,
      "idire": 9100,
      "Ġrenormalized": 9101,
      "infrared": 9102,
      "lich": 9103,
      "Ġquar": 9104,
      "Gs": 9105,
      "points": 9106,
      "ĠTakah": 9107,
      "nk": 9108,
      "Ġtance": 9109,
      "ĠPhonon": 9110,
      "Ġsimilarity": 9111,
      "Ġstands": 9112,
      "Ġtransforms": 9113,
      "Ġcircum": 9114,
      "ĠAcknowledgments": 9115,
      "Ġprobably": 9116,
      "Ġidentification": 9117,
      "Ġelucid": 9118,
      "aim": 9119,
      "isting": 9120,
      "Ġcollect": 9121,
      "ĠNotice": 9122,
      "ĠMil": 9123,
      "Ġprecession": 9124,
      "Ġemergent": 9125,
      "Ġobservable": 9126,
      "ĠJohnson": 9127,
      "ĠMETHO": 9128,
      "ĠTaylor": 9129,
      "Ġreactive": 9130,
      "Ġhidden": 9131,
      "ĠBor": 9132,
      "ĠNambu": 9133,
      "BH": 9134,
      "Ġarc": 9135,
      "Ġpropos": 9136,
      "Ġcoll": 9137,
      "ĠMel": 9138,
      "ĠRMS": 9139,
      "ĠEv": 9140,
      "ensen": 9141,
      "ĠScal": 9142,
      "ĠElectronics": 9143,
      "Ġirreducible": 9144,
      "herence": 9145,
      "thermal": 9146,
      "508": 9147,
      "Ġvariational": 9148,
      "FeO": 9149,
      "law": 9150,
      "oric": 9151,
      "Ġrelies": 9152,
      "ĠdBm": 9153,
      "ĠFunctional": 9154,
      "erci": 9155,
      "ĠFel": 9156,
      "Ġinterac": 9157,
      "ĠNic": 9158,
      "Ġmodelling": 9159,
      "ĠðĿľĤ": 9160,
      "Ġmini": 9161,
      "ĠĀē": 9162,
      "ĠNormalized": 9163,
      "Ġintriguing": 9164,
      "Ã¨": 9165,
      "ĠmL": 9166,
      "aga": 9167,
      "Ġatomistic": 9168,
      "Ġmicrograph": 9169,
      "Ġenergetically": 9170,
      "ĠMiy": 9171,
      "ĠPf": 9172,
      "Ġalone": 9173,
      "opes": 9174,
      "Ġfaces": 9175,
      "VA": 9176,
      "ĠĚ": 9177,
      "Ġpick": 9178,
      "iling": 9179,
      "ĠLED": 9180,
      "mme": 9181,
      "Ġcircul": 9182,
      "ĠIl": 9183,
      "Ġdip": 9184,
      "ĠAlN": 9185,
      "coated": 9186,
      "matrix": 9187,
      "Ġadjusted": 9188,
      "chenko": 9189,
      "SEM": 9190,
      "Ġsn": 9191,
      "ices": 9192,
      "ĠRPA": 9193,
      "planar": 9194,
      "Ġinterests": 9195,
      "Ġtendency": 9196,
      "pm": 9197,
      "Ġmeasures": 9198,
      "ĠCui": 9199,
      "ĠShan": 9200,
      "Ġazimuth": 9201,
      "kyo": 9202,
      "ovskite": 9203,
      "Ġcausing": 9204,
      "BP": 9205,
      "Ġcount": 9206,
      "Ġdissipative": 9207,
      "Ġsegments": 9208,
      "roy": 9209,
      "ĠFC": 9210,
      "Ġrent": 9211,
      "Ġcoils": 9212,
      "Ġannihilation": 9213,
      "ĠâĪĻ": 9214,
      "Ġmagnitudes": 9215,
      "Ġcreates": 9216,
      "Ġquantization": 9217,
      "Ġrelease": 9218,
      "ĠOverall": 9219,
      "Ġparabolic": 9220,
      "IA": 9221,
      "vortex": 9222,
      "asaki": 9223,
      "Ġspintronics": 9224,
      "KS": 9225,
      "Ġresources": 9226,
      "Ġguarant": 9227,
      "Ġdesirable": 9228,
      "Ġcollis": 9229,
      "Ġattraction": 9230,
      "ĠMeanwhile": 9231,
      "Ġstationary": 9232,
      "Elect": 9233,
      "Ġ?": 9234,
      "ĠTLS": 9235,
      "ĠKub": 9236,
      "strial": 9237,
      "ĠBP": 9238,
      "lest": 9239,
      "Ġcosh": 9240,
      "Ġconstrained": 9241,
      "astically": 9242,
      "ĠDen": 9243,
      "Ġetched": 9244,
      "Ġnanom": 9245,
      "ĠAnaly": 9246,
      "404": 9247,
      "Ġperturbations": 9248,
      "GW": 9249,
      "after": 9250,
      "ĠApr": 9251,
      "stant": 9252,
      "ĠNbSe": 9253,
      "iza": 9254,
      "Ġ170": 9255,
      "ĠJung": 9256,
      "Ġunlike": 9257,
      "coun": 9258,
      "Ġencaps": 9259,
      "ĠAvail": 9260,
      "dT": 9261,
      "ĠdÎĵ": 9262,
      "Ġ000": 9263,
[...]
